{
  "version": "1.0",
  "truncation": null,
  "padding": null,
  "added_tokens": [
    {
      "id": 0,
      "content": "<UNK>",
      "single_word": false,
      "lstrip": false,
      "rstrip": false,
      "normalized": false,
      "special": true
    },
    {
      "id": 1,
      "content": "<PAD>",
      "single_word": false,
      "lstrip": false,
      "rstrip": false,
      "normalized": false,
      "special": true
    },
    {
      "id": 2,
      "content": "<BOS>",
      "single_word": false,
      "lstrip": false,
      "rstrip": false,
      "normalized": false,
      "special": true
    },
    {
      "id": 3,
      "content": "<EOS>",
      "single_word": false,
      "lstrip": false,
      "rstrip": false,
      "normalized": false,
      "special": true
    }
  ],
  "normalizer": {
    "type": "NFKC"
  },
  "pre_tokenizer": {
    "type": "ByteLevel",
    "add_prefix_space": false,
    "trim_offsets": true,
    "use_regex": true
  },
  "post_processor": null,
  "decoder": {
    "type": "ByteLevel",
    "add_prefix_space": true,
    "trim_offsets": true,
    "use_regex": true
  },
  "model": {
    "type": "BPE",
    "dropout": null,
    "unk_token": null,
    "continuing_subword_prefix": null,
    "end_of_word_suffix": null,
    "fuse_unk": false,
    "byte_fallback": false,
    "ignore_merges": false,
    "vocab": {
      "<UNK>": 0,
      "<PAD>": 1,
      "<BOS>": 2,
      "<EOS>": 3,
      "!": 4,
      "\"": 5,
      "#": 6,
      "$": 7,
      "%": 8,
      "&": 9,
      "'": 10,
      "(": 11,
      ")": 12,
      "*": 13,
      "+": 14,
      ",": 15,
      "-": 16,
      ".": 17,
      "/": 18,
      "0": 19,
      "1": 20,
      "2": 21,
      "3": 22,
      "4": 23,
      "5": 24,
      "6": 25,
      "7": 26,
      "8": 27,
      "9": 28,
      ":": 29,
      ";": 30,
      "<": 31,
      "=": 32,
      ">": 33,
      "?": 34,
      "@": 35,
      "A": 36,
      "B": 37,
      "C": 38,
      "D": 39,
      "E": 40,
      "F": 41,
      "G": 42,
      "H": 43,
      "I": 44,
      "J": 45,
      "K": 46,
      "L": 47,
      "M": 48,
      "N": 49,
      "O": 50,
      "P": 51,
      "Q": 52,
      "R": 53,
      "S": 54,
      "T": 55,
      "U": 56,
      "V": 57,
      "W": 58,
      "X": 59,
      "Y": 60,
      "Z": 61,
      "[": 62,
      "\\": 63,
      "]": 64,
      "^": 65,
      "_": 66,
      "`": 67,
      "a": 68,
      "b": 69,
      "c": 70,
      "d": 71,
      "e": 72,
      "f": 73,
      "g": 74,
      "h": 75,
      "i": 76,
      "j": 77,
      "k": 78,
      "l": 79,
      "m": 80,
      "n": 81,
      "o": 82,
      "p": 83,
      "q": 84,
      "r": 85,
      "s": 86,
      "t": 87,
      "u": 88,
      "v": 89,
      "w": 90,
      "x": 91,
      "y": 92,
      "z": 93,
      "{": 94,
      "|": 95,
      "}": 96,
      "~": 97,
      "¡": 98,
      "¢": 99,
      "£": 100,
      "¤": 101,
      "¥": 102,
      "¦": 103,
      "§": 104,
      "¨": 105,
      "©": 106,
      "ª": 107,
      "«": 108,
      "¬": 109,
      "®": 110,
      "¯": 111,
      "°": 112,
      "±": 113,
      "²": 114,
      "³": 115,
      "´": 116,
      "µ": 117,
      "¶": 118,
      "·": 119,
      "¸": 120,
      "¹": 121,
      "º": 122,
      "»": 123,
      "¼": 124,
      "½": 125,
      "¾": 126,
      "¿": 127,
      "Â": 128,
      "Ã": 129,
      "Ä": 130,
      "Å": 131,
      "Æ": 132,
      "Ç": 133,
      "È": 134,
      "É": 135,
      "Ê": 136,
      "Ë": 137,
      "Ì": 138,
      "Î": 139,
      "Ï": 140,
      "Ð": 141,
      "Ñ": 142,
      "Õ": 143,
      "Ö": 144,
      "×": 145,
      "Ø": 146,
      "Ù": 147,
      "Ú": 148,
      "Û": 149,
      "Ü": 150,
      "à": 151,
      "á": 152,
      "â": 153,
      "ã": 154,
      "ä": 155,
      "å": 156,
      "æ": 157,
      "ç": 158,
      "è": 159,
      "é": 160,
      "ë": 161,
      "ì": 162,
      "í": 163,
      "ï": 164,
      "ð": 165,
      "ĉ": 166,
      "Ċ": 167,
      "Ġ": 168,
      "Ģ": 169,
      "ģ": 170,
      "Ĥ": 171,
      "ĥ": 172,
      "Ħ": 173,
      "ħ": 174,
      "Ĩ": 175,
      "ĩ": 176,
      "Ī": 177,
      "ī": 178,
      "Ĭ": 179,
      "ĭ": 180,
      "Į": 181,
      "į": 182,
      "İ": 183,
      "ı": 184,
      "Ĳ": 185,
      "ĳ": 186,
      "Ĵ": 187,
      "ĵ": 188,
      "Ķ": 189,
      "ķ": 190,
      "ĸ": 191,
      "Ĺ": 192,
      "ĺ": 193,
      "Ļ": 194,
      "ļ": 195,
      "Ľ": 196,
      "ľ": 197,
      "Ŀ": 198,
      "ŀ": 199,
      "Ł": 200,
      "ł": 201,
      "Ń": 202,
      "Ġt": 203,
      "in": 204,
      "Ġa": 205,
      "he": 206,
      "re": 207,
      "on": 208,
      "er": 209,
      "ti": 210,
      "Ġs": 211,
      "en": 212,
      "Ġthe": 213,
      "Ġc": 214,
      "es": 215,
      "ing": 216,
      "or": 217,
      "nd": 218,
      "al": 219,
      "Ġo": 220,
      "Ġp": 221,
      "at": 222,
      "is": 223,
      "it": 224,
      "ĠĠ": 225,
      "Ġf": 226,
      "an": 227,
      "Ġw": 228,
      "Ġin": 229,
      "ed": 230,
      "ar": 231,
      "Ġand": 232,
      "Ġb": 233,
      "ou": 234,
      "tion": 235,
      "Ġm": 236,
      "Ġof": 237,
      "Ġd": 238,
      "le": 239,
      "Ġto": 240,
      "ro": 241,
      "ic": 242,
      "Ġe": 243,
      "Ġre": 244,
      "ent": 245,
      "st": 246,
      "om": 247,
      "Ġth": 248,
      "ac": 249,
      "ly": 250,
      "Ġh": 251,
      "ve": 252,
      "as": 253,
      "ec": 254,
      "Ġl": 255,
      "ation": 256,
      "Ġn": 257,
      "il": 258,
      "ur": 259,
      "et": 260,
      "id": 261,
      "ol": 262,
      "im": 263,
      "ers": 264,
      "us": 265,
      "ig": 266,
      "ce": 267,
      "Ġg": 268,
      "ra": 269,
      "ĠT": 270,
      "ĠĠĠĠ": 271,
      "Ġcon": 272,
      "Ġst": 273,
      "ul": 274,
      "ow": 275,
      "Ġfor": 276,
      "el": 277,
      "Ġpro": 278,
      "ut": 279,
      "ot": 280,
      "ment": 281,
      "Ġis": 282,
      "ir": 283,
      "ĠA": 284,
      "ith": 285,
      "ess": 286,
      "un": 287,
      "ate": 288,
      "ver": 289,
      "Ġon": 290,
      "am": 291,
      "se": 292,
      "uc": 293,
      "ĠS": 294,
      "Ġex": 295,
      "ĠC": 296,
      "if": 297,
      "ts": 298,
      "Ġcom": 299,
      "Ġas": 300,
      "ab": 301,
      "Ġbe": 302,
      "Ġwith": 303,
      "--": 304,
      "um": 305,
      "ay": 306,
      "ity": 307,
      "her": 308,
      "Ġv": 309,
      "Ġy": 310,
      "ge": 311,
      "Ġor": 312,
      "Ġthat": 313,
      "res": 314,
      "Ġal": 315,
      "ĠI": 316,
      "qu": 317,
      "ad": 318,
      "ter": 319,
      "Ġit": 320,
      "ri": 321,
      "Ġan": 322,
      "od": 323,
      "Ġen": 324,
      "pp": 325,
      "em": 326,
      "Ġwh": 327,
      "th": 328,
      "ain": 329,
      "ĠĠĠ": 330,
      "tic": 331,
      "Ġyou": 332,
      "ion": 333,
      "ore": 334,
      "Ġ(": 335,
      "oc": 336,
      "ĠM": 337,
      "and": 338,
      "igh": 339,
      "ĠP": 340,
      "ĠThe": 341,
      "ist": 342,
      "os": 343,
      "op": 344,
      "ke": 345,
      "âĢ": 346,
      "ĠB": 347,
      "Ġac": 348,
      "Ġch": 349,
      "Ġ1": 350,
      "Ġus": 351,
      "ld": 352,
      "iv": 353,
      "Ġde": 354,
      "Ġare": 355,
      "ort": 356,
      "ure": 357,
      "'s": 358,
      "Ġhe": 359,
      "ch": 360,
      "pl": 361,
      "ere": 362,
      "tive": 363,
      "ies": 364,
      "Ġle": 365,
      "Ġr": 366,
      "ĠF": 367,
      "Ġint": 368,
      "ud": 369,
      "iz": 370,
      "rom": 371,
      "Ġby": 372,
      "Ġsh": 373,
      "Ġcan": 374,
      "est": 375,
      "ust": 376,
      "ations": 377,
      "ill": 378,
      "nt": 379,
      "Ġim": 380,
      "ĠW": 381,
      "Ġad": 382,
      "ĠH": 383,
      "Ġu": 384,
      "Ġcomp": 385,
      "rou": 386,
      "Ġat": 387,
      "ally": 388,
      "ĊĠĠĠĠ": 389,
      "per": 390,
      "og": 391,
      "Ġne": 392,
      "ĠE": 393,
      "ĠD": 394,
      "Ġsp": 395,
      "Ġse": 396,
      "age": 397,
      "all": 398,
      "ance": 399,
      "ant": 400,
      "ĠR": 401,
      "Ġfrom": 402,
      "tions": 403,
      "Ġres": 404,
      "Ġtheir": 405,
      "for": 406,
      "are": 407,
      "Ġcont": 408,
      "----": 409,
      "Ġthis": 410,
      "gh": 411,
      "ous": 412,
      "ial": 413,
      "ag": 414,
      "ther": 415,
      "ap": 416,
      "iti": 417,
      "able": 418,
      "ard": 419,
      "ect": 420,
      "Ġinc": 421,
      "ould": 422,
      "Ġ2": 423,
      "ine": 424,
      "Ġha": 425,
      "ff": 426,
      "ign": 427,
      "Ġwor": 428,
      "Ġpl": 429,
      "end": 430,
      "ĠL": 431,
      "ue": 432,
      "our": 433,
      "Ġwe": 434,
      "ans": 435,
      "Ġsu": 436,
      "ight": 437,
      "ĠN": 438,
      "ated": 439,
      "ost": 440,
      "Ġimp": 441,
      "act": 442,
      "ib": 443,
      "ĠG": 444,
      "out": 445,
      "Ġwhe": 446,
      "ĠO": 447,
      "ast": 448,
      "king": 449,
      "Ġun": 450,
      "ĊĠĠĠ": 451,
      "Ġall": 452,
      "enti": 453,
      "ip": 454,
      "Ġ\"": 455,
      "Ġab": 456,
      "ong": 457,
      "Ġapp": 458,
      "ating": 459,
      "ide": 460,
      "ence": 461,
      "Ġyour": 462,
      "Ġnot": 463,
      "di": 464,
      "Ġ=": 465,
      "Ġdis": 466,
      "Ġar": 467,
      "form": 468,
      "ome": 469,
      "00": 470,
      "Ġtr": 471,
      "Ġstr": 472,
      "vel": 473,
      "cess": 474,
      "ile": 475,
      "art": 476,
      "ary": 477,
      "ach": 478,
      "Ġpr": 479,
      "ct": 480,
      "ep": 481,
      "ments": 482,
      "Ġem": 483,
      "Ġhave": 484,
      "Ġsuc": 485,
      "ks": 486,
      "ents": 487,
      "ces": 488,
      "ical": 489,
      "Ġcl": 490,
      "ress": 491,
      "ind": 492,
      "duc": 493,
      "ĠTh": 494,
      "ich": 495,
      "ell": 496,
      "Ġcons": 497,
      "ime": 498,
      "ors": 499,
      "Ġcomm": 500,
      "ĠU": 501,
      "av": 502,
      "Ġper": 503,
      "Ġman": 504,
      "Ġind": 505,
      "ual": 506,
      "ber": 507,
      "Ġwas": 508,
      "Ġits": 509,
      "ass": 510,
      "ire": 511,
      "Ġj": 512,
      "ace": 513,
      "ive": 514,
      "ew": 515,
      "ult": 516,
      "Ġnum": 517,
      "ities": 518,
      "Ġev": 519,
      "ear": 520,
      "ase": 521,
      "Ġpre": 522,
      "Ġif": 523,
      "Ġthey": 524,
      "ĠJ": 525,
      "ves": 526,
      "rough": 527,
      "The": 528,
      "ction": 529,
      "ack": 530,
      "ĠIn": 531,
      "uring": 532,
      "ates": 533,
      "ific": 534,
      "ater": 535,
      "Ġma": 536,
      "ia": 537,
      "ple": 538,
      "ord": 539,
      "nder": 540,
      "ility": 541,
      "ose": 542,
      "Ġprov": 543,
      "ry": 544,
      "Ġinto": 545,
      "pt": 546,
      "ĊĠĠĠĠĠĠĠ": 547,
      "Ġme": 548,
      "ount": 549,
      "urn": 550,
      "ens": 551,
      "ail": 552,
      "Ġthese": 553,
      "Ġwhich": 554,
      "Ġhas": 555,
      "ike": 556,
      "Ġother": 557,
      "Ġrec": 558,
      "Ġsc": 559,
      "ĠâĢ": 560,
      "Ġmore": 561,
      "Ġout": 562,
      "Ġk": 563,
      "so": 564,
      "Ġro": 565,
      "ari": 566,
      "ame": 567,
      "ms": 568,
      "ful": 569,
      "dition": 570,
      "Ġoff": 571,
      "Ġcre": 572,
      "int": 573,
      "ech": 574,
      "Ġwill": 575,
      "Ġpar": 576,
      "Ġsuch": 577,
      "Ġdes": 578,
      "Ġup": 579,
      "str": 580,
      "over": 581,
      "ub": 582,
      "ex": 583,
      "one": 584,
      "Ġbet": 585,
      "ite": 586,
      "Ġqu": 587,
      "ings": 588,
      "tim": 589,
      "lic": 590,
      "Ġover": 591,
      "ures": 592,
      "ef": 593,
      "Ġcol": 594,
      "Ġser": 595,
      "ati": 596,
      "lud": 597,
      "olog": 598,
      "``": 599,
      "Ġshould": 600,
      "ild": 601,
      "Ġval": 602,
      "ons": 603,
      "Ġret": 604,
      "Ġtra": 605,
      "oo": 606,
      "ory": 607,
      "Ġthrough": 608,
      "Ġfun": 609,
      "Ġ-": 610,
      "Ġunder": 611,
      "we": 612,
      "ond": 613,
      "--------": 614,
      "Ġsy": 615,
      "Ġalso": 616,
      "ound": 617,
      "âĢĻ": 618,
      "Ġinter": 619,
      "ood": 620,
      "ĠThis": 621,
      "Ġone": 622,
      "Ġrel": 623,
      "Ġinv": 624,
      "ang": 625,
      "ative": 626,
      "Ġtime": 627,
      ").": 628,
      "les": 629,
      "put": 630,
      "ll": 631,
      "Ġele": 632,
      "Ġreg": 633,
      "ĠSt": 634,
      "Ġso": 635,
      "Ġspec": 636,
      "Ġeff": 637,
      "Ġthan": 638,
      "ak": 639,
      "ular": 640,
      "ph": 641,
      "ne": 642,
      "ential": 643,
      "Ġam": 644,
      "In": 645,
      "Ġabout": 646,
      "Ġmay": 647,
      "Ġlike": 648,
      "velop": 649,
      "Ġrem": 650,
      "oth": 651,
      "tain": 652,
      "ice": 653,
      "ĊĠĠĠĠĠĠĠĠ": 654,
      "Ġinclud": 655,
      "ower": 656,
      "Ġnew": 657,
      "anc": 658,
      "Ġbut": 659,
      "enc": 660,
      "fere": 661,
      "ving": 662,
      "Ġwhen": 663,
      "Ġdo": 664,
      "eg": 665,
      "ark": 666,
      "Ġpos": 667,
      "Ġany": 668,
      "Ġins": 669,
      "row": 670,
      "ning": 671,
      "Ġop": 672,
      "Ġwho": 673,
      "rib": 674,
      "now": 675,
      "elf": 676,
      "Ġrep": 677,
      "Ġthem": 678,
      "Ġexper": 679,
      "Ġag": 680,
      "Ġreturn": 681,
      "echn": 682,
      "ish": 683,
      "ten": 684,
      "Ġexp": 685,
      "ting": 686,
      "Ġacc": 687,
      "Ġass": 688,
      "stem": 689,
      "ys": 690,
      "irst": 691,
      "Ġfe": 692,
      "low": 693,
      "hen": 694,
      "ays": 695,
      "ues": 696,
      "Ġthere": 697,
      "Ġsome": 698,
      "Ġfunction": 699,
      "ions": 700,
      "ween": 701,
      "Ġrequ": 702,
      "Ġgen": 703,
      "round": 704,
      "pport": 705,
      "Ġwhile": 706,
      "ren": 707,
      "Ġsign": 708,
      "Ġstud": 709,
      "ĠCh": 710,
      "Ġbec": 711,
      "Ġbetween": 712,
      "ram": 713,
      "Ġtrans": 714,
      "ational": 715,
      "ased": 716,
      "Ġdevelop": 717,
      "ree": 718,
      "Ġhow": 719,
      "Ġour": 720,
      "ata": 721,
      "ĠK": 722,
      "Ġhis": 723,
      "ize": 724,
      "ove": 725,
      "Ġ3": 726,
      "ob": 727,
      "ci": 728,
      "als": 729,
      "tiv": 730,
      "Ġra": 731,
      "Ġ`": 732,
      "very": 733,
      "iqu": 734,
      "Ġdif": 735,
      "ĠV": 736,
      "alth": 737,
      "ough": 738,
      "ric": 739,
      "yp": 740,
      "Ġ19": 741,
      "oy": 742,
      "pec": 743,
      "Ġvari": 744,
      "eng": 745,
      "Ġtechn": 746,
      "reat": 747,
      "),": 748,
      "Ġprovid": 749,
      "Ġchar": 750,
      "Ġdec": 751,
      "Ġprog": 752,
      "its": 753,
      "Ġwere": 754,
      "Ġmet": 755,
      "ever": 756,
      "Ġmod": 757,
      "Ġwhere": 758,
      "Ġadd": 759,
      "hip": 760,
      "ange": 761,
      "Ġcommun": 762,
      "ise": 763,
      "Ġexam": 764,
      "Ġsec": 765,
      "Ġneed": 766,
      "aus": 767,
      "bers": 768,
      "Ġhigh": 769,
      "Ġconc": 770,
      "Ġproduc": 771,
      "hed": 772,
      "ov": 773,
      "ible": 774,
      "ĠIt": 775,
      "Ġph": 776,
      "get": 777,
      "Ġcomple": 778,
      "Ġtw": 779,
      "tern": 780,
      "Ġsa": 781,
      "ivid": 782,
      "Ġpe": 783,
      "Ġens": 784,
      "ie": 785,
      "Ġpers": 786,
      "ward": 787,
      "Ġhel": 788,
      "Ġsub": 789,
      "Ġ'": 790,
      "ness": 791,
      "old": 792,
      "Ġnumber": 793,
      "gan": 794,
      "Ġ{": 795,
      "ven": 796,
      "ĠAs": 797,
      "tical": 798,
      "ake": 799,
      "Ġno": 800,
      "Ġset": 801,
      "Ġke": 802,
      "Ġsystem": 803,
      "hes": 804,
      "Ġuse": 805,
      "Ġob": 806,
      "ft": 807,
      "ution": 808,
      "Ġhelp": 809,
      "ider": 810,
      "Ġboth": 811,
      "Ġyear": 812,
      "tit": 813,
      "ray": 814,
      "Ġdisc": 815,
      "ience": 816,
      "stand": 817,
      "Ġbeen": 818,
      "Ġknow": 819,
      "ode": 820,
      "Ġbl": 821,
      "Ġadv": 822,
      "ĠAd": 823,
      "Ġincre": 824,
      "Ġbu": 825,
      "ĠBy": 826,
      "Ġpres": 827,
      "Ġeach": 828,
      "Ġexpl": 829,
      "Ġallow": 830,
      "mer": 831,
      "Ġprocess": 832,
      "Ġcr": 833,
      "Ġusing": 834,
      "Ġappro": 835,
      "Ġpol": 836,
      "Ġpot": 837,
      "Ġte": 838,
      "Ġdata": 839,
      "Ġresp": 840,
      "arch": 841,
      "Ġduring": 842,
      "Ġlead": 843,
      "Ġmain": 844,
      "ices": 845,
      "ateg": 846,
      "ines": 847,
      "Ġsur": 848,
      "erg": 849,
      "Ġext": 850,
      "Ġwork": 851,
      "ici": 852,
      "Ġwithin": 853,
      "Ġtwo": 854,
      "ividual": 855,
      "Ġhealth": 856,
      "ved": 857,
      "ability": 858,
      "te": 859,
      "Ġwhat": 860,
      "iss": 861,
      "Ġdiffere": 862,
      "ivers": 863,
      "ath": 864,
      "ook": 865,
      "oci": 866,
      "Ġ20": 867,
      "Ġmed": 868,
      "ality": 869,
      "Ġinf": 870,
      "Ġsol": 871,
      "ern": 872,
      "pr": 873,
      "ĠY": 874,
      "Ġindividual": 875,
      "ĠFor": 876,
      "Ġinform": 877,
      "Ġfirst": 878,
      "Ġhand": 879,
      "ros": 880,
      "Ġdet": 881,
      "Ġonly": 882,
      "Ġatt": 883,
      "ied": 884,
      "lus": 885,
      "Ġpartic": 886,
      "Ġlist": 887,
      "Ġeng": 888,
      "cc": 889,
      "âĢĿ": 890,
      "Ġcur": 891,
      "ized": 892,
      "Ġdesign": 893,
      "Ġinst": 894,
      "Ġloc": 895,
      "Ġpo": 896,
      "other": 897,
      "ĊĠĠĠĠĠĠĠĠĠĠĠ": 898,
      "Ġsignific": 899,
      "ering": 900,
      "Ġ5": 901,
      "fter": 902,
      "vers": 903,
      "Ġprom": 904,
      "Ġform": 905,
      "ollow": 906,
      "Ġco": 907,
      "ition": 908,
      "ights": 909,
      "ology": 910,
      "ages": 911,
      "ĠâĢĵ": 912,
      "Ġfl": 913,
      "aw": 914,
      "Ġcap": 915,
      "erm": 916,
      "Ġgener": 917,
      "iness": 918,
      "Ġimport": 919,
      "Ġref": 920,
      "ble": 921,
      "ered": 922,
      ");": 923,
      "Ġ0": 924,
      "own": 925,
      "ature": 926,
      "ital": 927,
      "ian": 928,
      "**": 929,
      "Ġmost": 930,
      "Ġthose": 931,
      "led": 932,
      "Ġ<": 933,
      "```": 934,
      "con": 935,
      "Ġ4": 936,
      "fore": 937,
      "red": 938,
      "com": 939,
      "lect": 940,
      "urther": 941,
      "ople": 942,
      "Ġdem": 943,
      "ted": 944,
      "Ġsim": 945,
      "oun": 946,
      "Ġed": 947,
      "ural": 948,
      "Ġmany": 949,
      "Ġlong": 950,
      "vi": 951,
      "Ġeven": 952,
      "Ġorgan": 953,
      "Ġtyp": 954,
      "):": 955,
      "Ġconsider": 956,
      "ining": 957,
      "ĠUn": 958,
      "Ġworld": 959,
      "Ġcould": 960,
      "ases": 961,
      "rent": 962,
      "Ġdef": 963,
      "Ġmark": 964,
      "Ġinvol": 965,
      "lement": 966,
      "Ġpart": 967,
      "ustom": 968,
      "Ġfollow": 969,
      "Ġwould": 970,
      "Ġsk": 971,
      "Ġcare": 972,
      "Ġche": 973,
      "Ġcount": 974,
      "Ġaut": 975,
      "wn": 976,
      "ty": 977,
      "Ġprac": 978,
      "ique": 979,
      "ency": 980,
      "ext": 981,
      "ately": 982,
      "Ġmin": 983,
      "ublic": 984,
      "Ġsm": 985,
      "uct": 986,
      "Ġprof": 987,
      "Ġdist": 988,
      "Ġeffec": 989,
      "Ġunderstand": 990,
      "ribut": 991,
      "Ġperson": 992,
      "ĠHow": 993,
      "Ġvis": 994,
      "ily": 995,
      "Ġperform": 996,
      "ife": 997,
      "ĊĠ": 998,
      "Ġused": 999,
      "Ġsee": 1000,
      "ĠâĢľ": 1001,
      "Ġfind": 1002,
      "Ġfact": 1003,
      "ject": 1004,
      "ently": 1005,
      "Ġvarious": 1006,
      "til": 1007,
      "Ġgrow": 1008,
      "Ġsignificant": 1009,
      "ĠCon": 1010,
      "Ġear": 1011,
      "Ġpeople": 1012,
      "Ġrequire": 1013,
      "Ġpotential": 1014,
      "less": 1015,
      "Ġ}": 1016,
      "ross": 1017,
      "ug": 1018,
      "por": 1019,
      "ety": 1020,
      "ling": 1021,
      "Ġgo": 1022,
      "Ġend": 1023,
      "Ġstrateg": 1024,
      "Ġmem": 1025,
      "Ġhad": 1026,
      "Ġresult": 1027,
      "ause": 1028,
      "ĠWh": 1029,
      "ps": 1030,
      "ather": 1031,
      "Ġcontin": 1032,
      "ets": 1033,
      "Ġfin": 1034,
      "Ġchall": 1035,
      "Ġevery": 1036,
      "iron": 1037,
      "Ġcomplex": 1038,
      "Ġdel": 1039,
      "Ġpower": 1040,
      "ĠIf": 1041,
      "hod": 1042,
      "Ġexample": 1043,
      "usiness": 1044,
      "Ġlet": 1045,
      "ulti": 1046,
      "tics": 1047,
      "Ġincluding": 1048,
      "Ġlear": 1049,
      "Ġent": 1050,
      "br": 1051,
      "Ġplay": 1052,
      "ick": 1053,
      "Ġher": 1054,
      "Ġmust": 1055,
      "ditional": 1056,
      "izing": 1057,
      "Ġoper": 1058,
      "ĠThese": 1059,
      "ands": 1060,
      "Ġsuccess": 1061,
      "ization": 1062,
      "Ġimpro": 1063,
      "els": 1064,
      "uch": 1065,
      "ication": 1066,
      "Ġmake": 1067,
      "ĠCom": 1068,
      "ade": 1069,
      "itive": 1070,
      "Ġhum": 1071,
      "Ġrese": 1072,
      "Ġprogram": 1073,
      "ĠPro": 1074,
      "Ġinteg": 1075,
      "Ġ200": 1076,
      "ited": 1077,
      "Ġfac": 1078,
      "Ġid": 1079,
      "Ġoften": 1080,
      "Ġlar": 1081,
      "Ġdep": 1082,
      "Ġequ": 1083,
      "ants": 1084,
      "aking": 1085,
      "ection": 1086,
      "Ġcor": 1087,
      "Ġwell": 1088,
      "Ġcustom": 1089,
      "Ġvalue": 1090,
      "ains": 1091,
      "ploy": 1092,
      "Ġchild": 1093,
      "Ġmight": 1094,
      "ĠAn": 1095,
      "Ġserv": 1096,
      "Ġback": 1097,
      "Ġstring": 1098,
      "viron": 1099,
      "Ġspecific": 1100,
      "ption": 1101,
      "Ġdifferent": 1102,
      "Ġfound": 1103,
      "arm": 1104,
      "eld": 1105,
      "Ġav": 1106,
      "ared": 1107,
      "Ġgu": 1108,
      "Ġgiv": 1109,
      "Ġmethod": 1110,
      "Ġaccess": 1111,
      "wor": 1112,
      "Ġconf": 1113,
      "St": 1114,
      "agement": 1115,
      "ources": 1116,
      "ditionally": 1117,
      "'t": 1118,
      "ĠEn": 1119,
      "Ġcall": 1120,
      "ocus": 1121,
      "ins": 1122,
      "Ġbusiness": 1123,
      "err": 1124,
      "Ġinformation": 1125,
      "entif": 1126,
      "Ġ[": 1127,
      "Ġben": 1128,
      "..": 1129,
      "ances": 1130,
      "Ġyears": 1131,
      "ences": 1132,
      "Ġamong": 1133,
      "Ġess": 1134,
      "ism": 1135,
      "ool": 1136,
      "Ġsupport": 1137,
      "Ġenc": 1138,
      "Ġgl": 1139,
      "aging": 1140,
      "Ġunique": 1141,
      "ually": 1142,
      "Ġcent": 1143,
      "ron": 1144,
      "Ġ+": 1145,
      "Ġlevel": 1146,
      "Ġprot": 1147,
      "Ġmulti": 1148,
      "line": 1149,
      "ics": 1150,
      "ield": 1151,
      "----------------": 1152,
      "Ġpop": 1153,
      "Ġmaintain": 1154,
      "der": 1155,
      "ĠHowever": 1156,
      "Ġarray": 1157,
      "Ġinput": 1158,
      "Ġown": 1159,
      "Ġgra": 1160,
      "ties": 1161,
      "ink": 1162,
      "Ġfocus": 1163,
      "pportun": 1164,
      "Ġbel": 1165,
      "Ġposs": 1166,
      "Ġmat": 1167,
      "Ġiss": 1168,
      "ead": 1169,
      "acter": 1170,
      "uss": 1171,
      "Ġagain": 1172,
      "Ġkey": 1173,
      "ocial": 1174,
      "iting": 1175,
      "ix": 1176,
      "und": 1177,
      "Ġenviron": 1178,
      "Ġafter": 1179,
      "Ġnumbers": 1180,
      "Ġmarket": 1181,
      "Ġmon": 1182,
      "hing": 1183,
      "Ġfam": 1184,
      "Ġchalleng": 1185,
      "abor": 1186,
      "Ġpri": 1187,
      "Ġimplement": 1188,
      "Ġprovide": 1189,
      "Ġtoward": 1190,
      "Ġpublic": 1191,
      "Ġopportun": 1192,
      "up": 1193,
      "Ġdoes": 1194,
      "to": 1195,
      "Ġdevelopment": 1196,
      "Ġpur": 1197,
      "ined": 1198,
      "Ġdi": 1199,
      "Ġconn": 1200,
      "Ġclass": 1201,
      "ying": 1202,
      "jec": 1203,
      "Ġjust": 1204,
      "Ġbefore": 1205,
      "Ġdire": 1206,
      "Ġel": 1207,
      "par": 1208,
      "Ġbr": 1209,
      "ĠHe": 1210,
      "Ġhist": 1211,
      "ck": 1212,
      "Ġi": 1213,
      "Ġbenef": 1214,
      "val": 1215,
      "lusion": 1216,
      "meric": 1217,
      "Ġris": 1218,
      "ected": 1219,
      "Ġway": 1220,
      "ination": 1221,
      "Ġpass": 1222,
      "ists": 1223,
      "Ġenh": 1224,
      "cul": 1225,
      "overn": 1226,
      "read": 1227,
      "Ġcar": 1228,
      "Ġbeh": 1229,
      "nce": 1230,
      "Ġrepres": 1231,
      "Ġ201": 1232,
      "ware": 1233,
      "Ġ6": 1234,
      "Ġcle": 1235,
      "Th": 1236,
      "Ġaddress": 1237,
      "Ġvi": 1238,
      "Ġsum": 1239,
      "ession": 1240,
      "Ġthen": 1241,
      "ner": 1242,
      "air": 1243,
      "Ġgre": 1244,
      ".\"": 1245,
      "ertain": 1246,
      "ĠAdditionally": 1247,
      "ision": 1248,
      "ilities": 1249,
      "Ġcontro": 1250,
      "ax": 1251,
      "Ġword": 1252,
      "Ġeduc": 1253,
      "any": 1254,
      "day": 1255,
      "Ġwater": 1256,
      "oring": 1257,
      "Ġocc": 1258,
      "Ġaround": 1259,
      "Ġcode": 1260,
      "Ġsaf": 1261,
      "ording": 1262,
      "ecess": 1263,
      "Ġcurrent": 1264,
      "Ġbuild": 1265,
      "Ġbeing": 1266,
      "ĠEx": 1267,
      "Ġfost": 1268,
      "ĠAl": 1269,
      "ending": 1270,
      "Ġ10": 1271,
      "Ġdue": 1272,
      "Ġ#": 1273,
      "Ġelements": 1274,
      "Ġsever": 1275,
      "Ġstand": 1276,
      "ibility": 1277,
      "Ġbased": 1278,
      "ock": 1279,
      "utions": 1280,
      "Ġlife": 1281,
      "Ġself": 1282,
      "Ġactiv": 1283,
      "Ġtake": 1284,
      "Ġessential": 1285,
      "ically": 1286,
      "Ġanal": 1287,
      "asing": 1288,
      "erest": 1289,
      "num": 1290,
      "Ġest": 1291,
      "Ġstate": 1292,
      "Ġproper": 1293,
      "acy": 1294,
      "du": 1295,
      "()": 1296,
      "Ġdown": 1297,
      "Ġrole": 1298,
      "Ġparticular": 1299,
      "ĠAmeric": 1300,
      "ract": 1301,
      "Ġeffective": 1302,
      "Ġapplic": 1303,
      "Ġuser": 1304,
      "ished": 1305,
      "yth": 1306,
      "imes": 1307,
      "âĢĶ": 1308,
      "the": 1309,
      "Ġmo": 1310,
      ".,": 1311,
      "Ġcontribut": 1312,
      "Ġlo": 1313,
      "aterial": 1314,
      "Ġimportant": 1315,
      "ior": 1316,
      "Ġexperience": 1317,
      "ict": 1318,
      "Ġemploy": 1319,
      "Ġgiven": 1320,
      "Ġcal": 1321,
      "Ġseveral": 1322,
      "Ġreal": 1323,
      "chool": 1324,
      "cept": 1325,
      "Ġcreate": 1326,
      "ength": 1327,
      "Ġplan": 1328,
      "ense": 1329,
      "Ġcruc": 1330,
      "rop": 1331,
      "Ġshow": 1332,
      "Ġ&": 1333,
      "self": 1334,
      "Ġinclude": 1335,
      "Ġacross": 1336,
      "Ġwr": 1337,
      "ars": 1338,
      "Ġresearch": 1339,
      "To": 1340,
      "ote": 1341,
      "Ġrelations": 1342,
      "Ġcrucial": 1343,
      "erv": 1344,
      "abl": 1345,
      "ĠWe": 1346,
      "Ġindividuals": 1347,
      "ier": 1348,
      "Ġgrou": 1349,
      "Ġtre": 1350,
      "Ġiniti": 1351,
      "000": 1352,
      "ogn": 1353,
      "ince": 1354,
      "\",": 1355,
      "Ġcho": 1356,
      "//": 1357,
      "ale": 1358,
      "Ġsocial": 1359,
      "Ġcult": 1360,
      "plic": 1361,
      "Ġget": 1362,
      "ration": 1363,
      "ories": 1364,
      "Ġless": 1365,
      "ergy": 1366,
      "Ġrespons": 1367,
      "Ġtool": 1368,
      "Ġleg": 1369,
      "Ġrele": 1370,
      "inal": 1371,
      "Ġagainst": 1372,
      "Ġmade": 1373,
      "Ġhuman": 1374,
      "Ġfollowing": 1375,
      "Ġ7": 1376,
      "raph": 1377,
      "ious": 1378,
      "Ġstudents": 1379,
      "Ġteam": 1380,
      "ody": 1381,
      "Ġes": 1382,
      "Ġskill": 1383,
      "Ġweb": 1384,
      "(\"": 1385,
      "Ġimm": 1386,
      "Ġsmall": 1387,
      "Ġnecess": 1388,
      "oid": 1389,
      "xim": 1390,
      "Ġensure": 1391,
      "Ġmaterial": 1392,
      "Ġcase": 1393,
      "ges": 1394,
      "Ġdirect": 1395,
      "ĠWith": 1396,
      "Ġwithout": 1397,
      "Ġlim": 1398,
      "Ġcharacter": 1399,
      "Ġliv": 1400,
      "Ġanother": 1401,
      "Ġinterest": 1402,
      "Ġ18": 1403,
      "Ġreduc": 1404,
      "Ġbo": 1405,
      "Ġcommon": 1406,
      "ples": 1407,
      "Ġgovern": 1408,
      "Ġenvironment": 1409,
      "Ġindust": 1410,
      "Ġmus": 1411,
      "Ġdig": 1412,
      "atic": 1413,
      "Ġread": 1414,
      "Ġorder": 1415,
      "Ġfurther": 1416,
      "Ġsame": 1417,
      "Ġopen": 1418,
      "Ġshe": 1419,
      "ditions": 1420,
      "Ġaff": 1421,
      "tle": 1422,
      "Ġgrowth": 1423,
      "Ġspecial": 1424,
      "atform": 1425,
      "ored": 1426,
      "Ġmean": 1427,
      "ĠThey": 1428,
      "Ġmen": 1429,
      "Ġbre": 1430,
      "Ġassoci": 1431,
      "Ġright": 1432,
      "Ġtowards": 1433,
      "tis": 1434,
      "Ġtop": 1435,
      "Ġinn": 1436,
      "Ġstruct": 1437,
      "oreover": 1438,
      "Ġcour": 1439,
      "ĠAr": 1440,
      "atures": 1441,
      "rap": 1442,
      "Ġstart": 1443,
      "Ġresources": 1444,
      "Ġcoll": 1445,
      "ral": 1446,
      "ee": 1447,
      "Ġeffici": 1448,
      "tice": 1449,
      "urs": 1450,
      "Ġoverall": 1451,
      "Ġoffer": 1452,
      "Ġcolle": 1453,
      "orm": 1454,
      "Ġtest": 1455,
      "Ġproble": 1456,
      "Ġname": 1457,
      "ĠInd": 1458,
      "Ġregard": 1459,
      "till": 1460,
      "Ġsupp": 1461,
      "Ġphys": 1462,
      "au": 1463,
      "ĊĠĠĠĠĠĠĠĠĠĠĠĠ": 1464,
      "Ġexperi": 1465,
      "amp": 1466,
      "Ġrange": 1467,
      "Ġmuch": 1468,
      "Ġprofession": 1469,
      "ults": 1470,
      "Ġlaw": 1471,
      "Ġexce": 1472,
      "Ġidentif": 1473,
      "Ġinvest": 1474,
      "Ġunderstanding": 1475,
      "ced": 1476,
      "Ġinfl": 1477,
      "ger": 1478,
      "Ġpati": 1479,
      "Ġbecause": 1480,
      "Ġchang": 1481,
      "ey": 1482,
      "Ġtreat": 1483,
      "ull": 1484,
      "rac": 1485,
      "Ġtem": 1486,
      "ries": 1487,
      "ĠIm": 1488,
      "ires": 1489,
      "ards": 1490,
      "Ġpresent": 1491,
      "Ġoffers": 1492,
      "ĠWhile": 1493,
      "ĊĊĠĠĠ": 1494,
      "de": 1495,
      "Ġdoc": 1496,
      "app": 1497,
      "ris": 1498,
      "oura": 1499,
      "ilar": 1500,
      "erc": 1501,
      "Ġlocal": 1502,
      "Ġperformance": 1503,
      "iversity": 1504,
      "Ġsystems": 1505,
      "Ġusers": 1506,
      "ints": 1507,
      "Ġbra": 1508,
      "Ġsit": 1509,
      "Ġcost": 1510,
      "Ġpractic": 1511,
      "Ġmeas": 1512,
      "Ġchallenges": 1513,
      "Ġ8": 1514,
      "omes": 1515,
      "Ġthough": 1516,
      "Ġestabl": 1517,
      "ape": 1518,
      "Ġavail": 1519,
      "ctions": 1520,
      "ury": 1521,
      "Ġdev": 1522,
      "Ġplatform": 1523,
      "Ġbetter": 1524,
      "Ġrelationship": 1525,
      "oss": 1526,
      "Ġcomplexity": 1527,
      "ason": 1528,
      "ython": 1529,
      "arget": 1530,
      "oh": 1531,
      "Ġstep": 1532,
      "onstr": 1533,
      "omen": 1534,
      "Ġapproach": 1535,
      "Ġcontrol": 1536,
      "Ġopportunities": 1537,
      "Ġdiscuss": 1538,
      "Ġcell": 1539,
      "ends": 1540,
      "cri": 1541,
      "ave": 1542,
      "Ġthroughout": 1543,
      "Ġpersonal": 1544,
      "Ġintern": 1545,
      "Ġtak": 1546,
      "Ġlarge": 1547,
      "pos": 1548,
      "ograph": 1549,
      "ru": 1550,
      "Ġpat": 1551,
      "ental": 1552,
      "Ġalong": 1553,
      "Ġensuring": 1554,
      "ĠWhen": 1555,
      "Ġbecome": 1556,
      "ables": 1557,
      "roduc": 1558,
      "Ġthree": 1559,
      "Ġcomb": 1560,
      "Ġpolic": 1561,
      "ffor": 1562,
      "ilt": 1563,
      "19": 1564,
      "Ġneeds": 1565,
      "uture": 1566,
      "ument": 1567,
      "ulation": 1568,
      "Ġbro": 1569,
      "ological": 1570,
      "An": 1571,
      "Ġproviding": 1572,
      "Ġrepresent": 1573,
      "port": 1574,
      "ember": 1575,
      "Ġinnov": 1576,
      "view": 1577,
      "of": 1578,
      "ledge": 1579,
      "Ġide": 1580,
      "This": 1581,
      "acters": 1582,
      "Ġ9": 1583,
      "Ġimpact": 1584,
      "Ġ$": 1585,
      "more": 1586,
      "Ġfre": 1587,
      "Ġconclusion": 1588,
      "hor": 1589,
      "vent": 1590,
      "ĠNew": 1591,
      "idence": 1592,
      "Ġvalues": 1593,
      "Ġcommunity": 1594,
      "inc": 1595,
      "duce": 1596,
      "Ġexc": 1597,
      "Ġimprove": 1598,
      "Ġcontain": 1599,
      "aces": 1600,
      "Ġmar": 1601,
      "Ġerr": 1602,
      "Ġfactors": 1603,
      "Ġoptim": 1604,
      "Ġdri": 1605,
      "Ġtoo": 1606,
      "word": 1607,
      "ute": 1608,
      "tional": 1609,
      "omet": 1610,
      "Ġpositive": 1611,
      "pre": 1612,
      "sequ": 1613,
      "ĠRe": 1614,
      "Ġcommit": 1615,
      "Ġlearning": 1616,
      "Ġcri": 1617,
      "Ġissues": 1618,
      "conom": 1619,
      "arr": 1620,
      "Ġtechnology": 1621,
      "Ġfield": 1622,
      "Ġques": 1623,
      "tif": 1624,
      "ĠBut": 1625,
      "ah": 1626,
      "Ġminim": 1627,
      "Ġmultiple": 1628,
      "ĠTo": 1629,
      "Ġservices": 1630,
      "Ġspace": 1631,
      "Ġneg": 1632,
      "Ġchildren": 1633,
      "Ġcertain": 1634,
      "Ġconsum": 1635,
      "etwor": 1636,
      "Ġenergy": 1637,
      "hers": 1638,
      "ators": 1639,
      "Ġpoli": 1640,
      "Ġorganiz": 1641,
      "Ġsug": 1642,
      "Ġstrategies": 1643,
      "Ġhim": 1644,
      "Ġremain": 1645,
      "Ġallows": 1646,
      "Ġsort": 1647,
      "me": 1648,
      "Ġact": 1649,
      "Ġcompon": 1650,
      "jects": 1651,
      "Ġnon": 1652,
      "Ġdiv": 1653,
      "ilit": 1654,
      "Ġmanagement": 1655,
      "by": 1656,
      "Ġmess": 1657,
      "fully": 1658,
      "Ġsaid": 1659,
      "land": 1660,
      "Ġve": 1661,
      "Ġelect": 1662,
      "Ġprime": 1663,
      "Ġstudy": 1664,
      "Ġexplore": 1665,
      "Ġnow": 1666,
      "urity": 1667,
      "Ġelement": 1668,
      "Ġach": 1669,
      "ging": 1670,
      "Ġothers": 1671,
      "ane": 1672,
      "Ġgood": 1673,
      "ously": 1674,
      "Ġcharacters": 1675,
      "anced": 1676,
      "Ġachie": 1677,
      "Ġtarget": 1678,
      "ĠAt": 1679,
      "Ġprint": 1680,
      "Ġinstance": 1681,
      "Ġfuture": 1682,
      "oot": 1683,
      "As": 1684,
      "Ġconditions": 1685,
      "Ġexist": 1686,
      "pects": 1687,
      "way": 1688,
      "elves": 1689,
      "ource": 1690,
      "Ġpractices": 1691,
      "Ġstill": 1692,
      "iter": 1693,
      "Ġhome": 1694,
      "Ġschool": 1695,
      "eed": 1696,
      "Ġdemonstr": 1697,
      ",\"": 1698,
      "angu": 1699,
      "pect": 1700,
      "iod": 1701,
      "Ġhig": 1702,
      "Ġview": 1703,
      "yn": 1704,
      "aries": 1705,
      "struc": 1706,
      "urthermore": 1707,
      "Ġchange": 1708,
      "Ġconsist": 1709,
      "Ġbest": 1710,
      "ĠOne": 1711,
      "Ġmy": 1712,
      "Ġgr": 1713,
      "Ġcalled": 1714,
      "Ġconst": 1715,
      "ton": 1716,
      "Ġlast": 1717,
      "cent": 1718,
      "Ġlight": 1719,
      "lying": 1720,
      "aring": 1721,
      "time": 1722,
      "Ġassociated": 1723,
      "ĠAnd": 1724,
      "iques": 1725,
      "ission": 1726,
      "Ġknown": 1727,
      "||": 1728,
      "ery": 1729,
      "Ġcollabor": 1730,
      "ĠRes": 1731,
      "side": 1732,
      "Ġwhether": 1733,
      "Ġday": 1734,
      "Ġage": 1735,
      "Ġavailable": 1736,
      "ames": 1737,
      "Ġplace": 1738,
      "Ġstrong": 1739,
      "print": 1740,
      "kes": 1741,
      "def": 1742,
      "gest": 1743,
      "Ġkeep": 1744,
      "gin": 1745,
      "sts": 1746,
      "Ġlevels": 1747,
      "ann": 1748,
      "ream": 1749,
      "Ġrece": 1750,
      "orts": 1751,
      "Ġmove": 1752,
      "Ġorig": 1753,
      "Ġcalcul": 1754,
      "Ġgreater": 1755,
      "Ġvery": 1756,
      "ring": 1757,
      "Ġseem": 1758,
      "10": 1759,
      "ium": 1760,
      "Ġareas": 1761,
      "ression": 1762,
      "Ġaim": 1763,
      "Ġhandle": 1764,
      "Ġrecogn": 1765,
      "gor": 1766,
      "ash": 1767,
      "Ġinflu": 1768,
      "ĠGod": 1769,
      "yond": 1770,
      "Ġbeyond": 1771,
      "Ġ==": 1772,
      "Ġconcern": 1773,
      "Ġcomes": 1774,
      "atis": 1775,
      "iver": 1776,
      "Ġcaus": 1777,
      "Ġeas": 1778,
      "Ġdeterm": 1779,
      "light": 1780,
      "Ġlook": 1781,
      "Ġcommunication": 1782,
      "ili": 1783,
      "ouse": 1784,
      "irc": 1785,
      "Ġdr": 1786,
      "Ġfinanc": 1787,
      "Ġeconom": 1788,
      "min": 1789,
      "ified": 1790,
      "play": 1791,
      "ird": 1792,
      "20": 1793,
      "Ġknowledge": 1794,
      "Ġprovides": 1795,
      "Ġbenefits": 1796,
      "ners": 1797,
      "Ġvers": 1798,
      "Ġsecond": 1799,
      "',": 1800,
      "Ġcontinu": 1801,
      "Ġpress": 1802,
      "Ġparticip": 1803,
      "rect": 1804,
      "Ġfood": 1805,
      "ator": 1806,
      "Ġtimes": 1807,
      "Ġclear": 1808,
      "ĊĠĠĠĠĠ": 1809,
      "iec": 1810,
      "gorith": 1811,
      "string": 1812,
      "Ġtools": 1813,
      "Ġincreasing": 1814,
      "Ġonline": 1815,
      "ats": 1816,
      "Ġreport": 1817,
      "ĠIs": 1818,
      "atch": 1819,
      "Ġeducation": 1820,
      "ĠCol": 1821,
      "inary": 1822,
      "atural": 1823,
      "ident": 1824,
      "Ġskills": 1825,
      "Ġfil": 1826,
      "ways": 1827,
      "Ġcreating": 1828,
      "Ġlength": 1829,
      "io": 1830,
      "Ġprim": 1831,
      "Ġtechniques": 1832,
      "timately": 1833,
      "ters": 1834,
      "action": 1835,
      "Ġpossible": 1836,
      "fact": 1837,
      "Ġarea": 1838,
      "Ġdise": 1839,
      "avig": 1840,
      "iverse": 1841,
      "Ġwhy": 1842,
      "Ġdetail": 1843,
      "Ġemp": 1844,
      "Ġearly": 1845,
      "Ġmembers": 1846,
      "Ġpost": 1847,
      "ĠDe": 1848,
      "Ġnetwor": 1849,
      "Ġrisk": 1850,
      "Ġaud": 1851,
      "Ġdeep": 1852,
      "Ġbody": 1853,
      "Wh": 1854,
      "Ġgreat": 1855,
      "Ġpriv": 1856,
      "Ġresults": 1857,
      "orpor": 1858,
      "Ġbehav": 1859,
      "ooking": 1860,
      "Ġtoday": 1861,
      "aling": 1862,
      "Ġalgorith": 1863,
      "atives": 1864,
      "ĠMoreover": 1865,
      "Ġsince": 1866,
      "orn": 1867,
      "nces": 1868,
      "'re": 1869,
      "istic": 1870,
      "Ġtri": 1871,
      "Ġinsights": 1872,
      "))": 1873,
      "Ġlow": 1874,
      "Ġleading": 1875,
      "Ġgovernment": 1876,
      "ĠTr": 1877,
      "Ġill": 1878,
      "Ġadditional": 1879,
      "reng": 1880,
      "ibr": 1881,
      "Ġproduct": 1882,
      "Ġrun": 1883,
      "Ġsal": 1884,
      "ired": 1885,
      "Ġmodern": 1886,
      "let": 1887,
      "Ġmaxim": 1888,
      "Ġarr": 1889,
      "Ġguid": 1890,
      "mit": 1891,
      "here": 1892,
      "ĠCl": 1893,
      "aps": 1894,
      "Ġrequires": 1895,
      "Ġsoci": 1896,
      "Ġquality": 1897,
      "ĠThere": 1898,
      "Ġglob": 1899,
      "Ġlangu": 1900,
      "eti": 1901,
      "erous": 1902,
      "Ġprovided": 1903,
      "Ġlower": 1904,
      "aches": 1905,
      "omm": 1906,
      "osp": 1907,
      "eral": 1908,
      "Ġcases": 1909,
      "ming": 1910,
      "ank": 1911,
      "verage": 1912,
      "Ġtraditional": 1913,
      "ĠSh": 1914,
      "Ġrather": 1915,
      "Ġencoura": 1916,
      "Ġappear": 1917,
      "Ġmill": 1918,
      "ork": 1919,
      "olution": 1920,
      "Ġfeatures": 1921,
      "ĠAmerican": 1922,
      "##": 1923,
      "oint": 1924,
      "atory": 1925,
      "Ġpoint": 1926,
      "Step": 1927,
      "Ġmeans": 1928,
      "Ġjour": 1929,
      "Ġhistory": 1930,
      "icial": 1931,
      "Ġdiff": 1932,
      "hold": 1933,
      "Ġsignificantly": 1934,
      "ites": 1935,
      "ended": 1936,
      "Ġdra": 1937,
      "Ġsym": 1938,
      "Ġorganizations": 1939,
      "arc": 1940,
      "yc": 1941,
      "ĠYou": 1942,
      "Ġindustry": 1943,
      "ises": 1944,
      "Ġregarding": 1945,
      "Ġtype": 1946,
      "ney": 1947,
      "Ġfore": 1948,
      "Ġupd": 1949,
      "Ġnecessary": 1950,
      "Ġfeel": 1951,
      "Ġ**": 1952,
      "ĠFurthermore": 1953,
      "Ġdesc": 1954,
      "ancing": 1955,
      "Ġmaking": 1956,
      "Ġgain": 1957,
      "ĊĠĠĠĠĊĠĠĠ": 1958,
      "Ġimportance": 1959,
      "Ġbal": 1960,
      "ĠSo": 1961,
      "Ġbusinesses": 1962,
      "az": 1963,
      "rams": 1964,
      "be": 1965,
      "Ġtal": 1966,
      "Ġoccur": 1967,
      "Ġperiod": 1968,
      "Ġnear": 1969,
      "Ġmethods": 1970,
      "ustain": 1971,
      "Ġ//": 1972,
      "Ġaspects": 1973,
      "pro": 1974,
      "not": 1975,
      "Ġallowing": 1976,
      "Ġstreng": 1977,
      "Ġhead": 1978,
      "ections": 1979,
      "iction": 1980,
      "pri": 1981,
      "tal": 1982,
      "Ġdigital": 1983,
      "Ġbas": 1984,
      "Ġcome": 1985,
      "Ġ199": 1986,
      "ones": 1987,
      "Ġvalid": 1988,
      "Ġemerg": 1989,
      "ĊĠĠĠĠĠĠĠĠĠĠĠĠĠĠĠ": 1990,
      "xt": 1991,
      "outh": 1992,
      "go": 1993,
      "itiz": 1994,
      "Ġet": 1995,
      "Ġtext": 1996,
      "ystem": 1997,
      "Ġdid": 1998,
      "elling": 1999,
      "iring": 2000,
      "One": 2001,
      "ĠSp": 2002,
      "Ġpopular": 2003,
      "Ġmedia": 2004,
      "Ġfamily": 2005,
      "Ġproducts": 2006,
      "Ġupon": 2007,
      "Ġsoft": 2008,
      "ishing": 2009,
      "Ġutil": 2010,
      "Ġindic": 2011,
      "Ġfinancial": 2012,
      "Ġincreased": 2013,
      "Ġelse": 2014,
      "Ġparticularly": 2015,
      "Ġdon": 2016,
      "ially": 2017,
      "Ġlay": 2018,
      "tives": 2019,
      "Ġbi": 2020,
      "Ġmaintaining": 2021,
      "alse": 2022,
      "Ġmind": 2023,
      "Ġfew": 2024,
      "uation": 2025,
      "ox": 2026,
      "Ġsing": 2027,
      "Ġfund": 2028,
      "Ġcomput": 2029,
      "Ġpiec": 2030,
      "ify": 2031,
      "Ġrest": 2032,
      "Ġaccording": 2033,
      "Ġseeking": 2034,
      "jor": 2035,
      "Ġanaly": 2036,
      "ĠOn": 2037,
      "ĠPh": 2038,
      "face": 2039,
      "Ġsw": 2040,
      "Ġsens": 2041,
      "oms": 2042,
      "Ġinvolves": 2043,
      "Ġrecent": 2044,
      "Ġtoget": 2045,
      "Ġmeaning": 2046,
      "Ġtogether": 2047,
      "fforts": 2048,
      "Ġworking": 2049,
      "Ġdesigned": 2050,
      "Ġsuccessful": 2051,
      "ides": 2052,
      "Ġnavig": 2053,
      "Ġphysical": 2054,
      "ipp": 2055,
      "Ġsci": 2056,
      "Ġsimilar": 2057,
      "Ġfostering": 2058,
      "Ġpattern": 2059,
      "ser": 2060,
      "ees": 2061,
      "Ġturn": 2062,
      "Ġremains": 2063,
      "Ġincorpor": 2064,
      "agn": 2065,
      "Ġdiverse": 2066,
      "Ġpain": 2067,
      "Ġpay": 2068,
      "Ġenti": 2069,
      "ĠLet": 2070,
      "ele": 2071,
      "pite": 2072,
      "__": 2073,
      "Ġmaterials": 2074,
      "Ġemo": 2075,
      "echan": 2076,
      "vant": 2077,
      "Ġcontent": 2078,
      "Ġefforts": 2079,
      "Ġrequirements": 2080,
      "Ġlog": 2081,
      "Ġoptions": 2082,
      "fort": 2083,
      "Ġlands": 2084,
      "ĠPl": 2085,
      "Ġauthor": 2086,
      "Ġaccount": 2087,
      "Ġrecord": 2088,
      "Ġbroad": 2089,
      "ured": 2090,
      "co": 2091,
      "term": 2092,
      "Ġsearch": 2093,
      "ĠQ": 2094,
      "Ġfrequ": 2095,
      "Ġadap": 2096,
      "Ġcoun": 2097,
      "Ġsurround": 2098,
      "nds": 2099,
      "Ġmeet": 2100,
      "Ġhere": 2101,
      "omething": 2102,
      "Ġfree": 2103,
      "idd": 2104,
      "Ġcheck": 2105,
      "ising": 2106,
      "Ġwebs": 2107,
      "Ġhigher": 2108,
      "tig": 2109,
      "Ġcra": 2110,
      "man": 2111,
      ".âĢĿ": 2112,
      "ived": 2113,
      "Ex": 2114,
      "Ġchanges": 2115,
      "Ġnatural": 2116,
      "Ġleft": 2117,
      "Ġservice": 2118,
      "Ġmarketing": 2119,
      "Ġ>": 2120,
      "mselves": 2121,
      "Ġintegr": 2122,
      "Ġwords": 2123,
      "Ġlearn": 2124,
      "Ġsafety": 2125,
      "Ġthemselves": 2126,
      "Ġfar": 2127,
      "isions": 2128,
      "ĠCons": 2129,
      "sy": 2130,
      "ufact": 2131,
      "Ġpromot": 2132,
      "Ġgroup": 2133,
      "acks": 2134,
      "Ġprevent": 2135,
      "Ġvol": 2136,
      "Ġtail": 2137,
      "Ġscen": 2138,
      "Ġatten": 2139,
      "Ġevents": 2140,
      "ĠComm": 2141,
      "Ġsize": 2142,
      "Ġsustain": 2143,
      "aching": 2144,
      "though": 2145,
      "ots": 2146,
      "Ġsomething": 2147,
      "Ġtreatment": 2148,
      "lex": 2149,
      "acing": 2150,
      "Ġtrust": 2151,
      "Ġanim": 2152,
      "Ġactivities": 2153,
      "ient": 2154,
      "Ġuntil": 2155,
      "Ġability": 2156,
      "hens": 2157,
      "Ġwomen": 2158,
      "ecting": 2159,
      "Ġter": 2160,
      "vity": 2161,
      "Ġcontribute": 2162,
      "Ġtransform": 2163,
      "Ġproblem": 2164,
      "Ġcomponents": 2165,
      "Ġrelationships": 2166,
      "cer": 2167,
      "Ġstri": 2168,
      "Ġz": 2169,
      "Ġaltern": 2170,
      "ulations": 2171,
      "ynam": 2172,
      "Ġshort": 2173,
      "ĠUniversity": 2174,
      "Ġline": 2175,
      "Ġul": 2176,
      "inally": 2177,
      "pare": 2178,
      "Ġund": 2179,
      "Ġnext": 2180,
      "ĠThrough": 2181,
      "Ġdecision": 2182,
      "Ġbuilding": 2183,
      "Ġmakes": 2184,
      "Here": 2185,
      "osing": 2186,
      "Ġsecurity": 2187,
      "Ġbegin": 2188,
      "Ġevent": 2189,
      "pective": 2190,
      "Ġappropri": 2191,
      "edi": 2192,
      "Ġplatforms": 2193,
      "yle": 2194,
      "Ġregular": 2195,
      "Con": 2196,
      "Ġmedical": 2197,
      "Ġcompan": 2198,
      "Ġattention": 2199,
      "Ġyet": 2200,
      "Ġregion": 2201,
      "ged": 2202,
      "oph": 2203,
      "Ġpast": 2204,
      "Ġvalu": 2205,
      "Ġprocesses": 2206,
      "12": 2207,
      "ik": 2208,
      "Ġwant": 2209,
      "Ġextract": 2210,
      "ither": 2211,
      "ĠAcc": 2212,
      "osed": 2213,
      "ĠUnited": 2214,
      "rr": 2215,
      "Ġmechan": 2216,
      "Ġbuilt": 2217,
      "...": 2218,
      "ensive": 2219,
      "Ġcirc": 2220,
      "ests": 2221,
      "Ġhold": 2222,
      "Ġtypes": 2223,
      "Ġdam": 2224,
      "Ġcommunities": 2225,
      "ief": 2226,
      "Ġaspect": 2227,
      "risti": 2228,
      "Ġaccur": 2229,
      "Ġ15": 2230,
      "Ġnumerous": 2231,
      "Ġeffectively": 2232,
      "Ġworks": 2233,
      "Ġglobal": 2234,
      "ches": 2235,
      "ĠZ": 2236,
      "orth": 2237,
      "Ġquick": 2238,
      "ek": 2239,
      "Ġtas": 2240,
      "care": 2241,
      "Ġproject": 2242,
      "Ġitself": 2243,
      "place": 2244,
      "Ġmajor": 2245,
      "irit": 2246,
      "ma": 2247,
      "Ġland": 2248,
      "Ġhard": 2249,
      "Ġmodel": 2250,
      "Ġhaving": 2251,
      "pts": 2252,
      "ĠEm": 2253,
      "ope": 2254,
      "Ġcritical": 2255,
      "Ġserve": 2256,
      "aim": 2257,
      "pecially": 2258,
      "Ġmonth": 2259,
      "Ġ*": 2260,
      "Ġtherap": 2261,
      "Ġhistor": 2262,
      "ĠEng": 2263,
      "Ġair": 2264,
      "ysis": 2265,
      "Ġded": 2266,
      "Ġmanufact": 2267,
      "Ġtraining": 2268,
      "Ġposition": 2269,
      "ips": 2270,
      "Ġcustomer": 2271,
      "Ġtakes": 2272,
      "Ġlanguage": 2273,
      "Ġcolor": 2274,
      "Ġlandsc": 2275,
      "Ġcompany": 2276,
      "Ġappre": 2277,
      "Ġsolution": 2278,
      "name": 2279,
      "Ġrequired": 2280,
      "Ġarg": 2281,
      "ohn": 2282,
      "Ġvir": 2283,
      "Ġselect": 2284,
      "ample": 2285,
      "Ġpolitical": 2286,
      "Ġthought": 2287,
      "ina": 2288,
      "ised": 2289,
      "Ġtrue": 2290,
      "Ġerror": 2291,
      "Ġalgorithm": 2292,
      "ologies": 2293,
      "Ġprograms": 2294,
      "ooks": 2295,
      "Ġnature": 2296,
      "Ġheart": 2297,
      "Ġbecomes": 2298,
      "abilities": 2299,
      "Ġsl": 2300,
      "Ġconcerns": 2301,
      "itions": 2302,
      "Ġimplementation": 2303,
      "Ġcourse": 2304,
      "ĠOr": 2305,
      "Ġapplications": 2306,
      "ym": 2307,
      "Ġ100": 2308,
      "ems": 2309,
      "Ġcompeti": 2310,
      "Ġclose": 2311,
      "fer": 2312,
      "Ġabove": 2313,
      "Ġleaders": 2314,
      "Ġeval": 2315,
      "ĠChristi": 2316,
      "Ġtotal": 2317,
      "ours": 2318,
      "Ġprior": 2319,
      "ground": 2320,
      "Ġcountry": 2321,
      "ler": 2322,
      "encies": 2323,
      "verse": 2324,
      "Ġhowever": 2325,
      "Ġfour": 2326,
      "Ġalways": 2327,
      "ĠMed": 2328,
      "lo": 2329,
      "Ġtravel": 2330,
      "Another": 2331,
      "ably": 2332,
      "Ġable": 2333,
      "izes": 2334,
      "ubl": 2335,
      "phas": 2336,
      "entially": 2337,
      "actions": 2338,
      "</": 2339,
      "Ġold": 2340,
      "Ġespecially": 2341,
      "Ġexperiences": 2342,
      "Ġemb": 2343,
      "Ġfunctions": 2344,
      "Ġdisease": 2345,
      "Ġcred": 2346,
      "Ġinvolved": 2347,
      "Ġinstead": 2348,
      "ening": 2349,
      "Ġadvant": 2350,
      "Ġsingle": 2351,
      "ĊĠĠ": 2352,
      "Ġenhance": 2353,
      "Ġnegative": 2354,
      "Ġyoun": 2355,
      "ule": 2356,
      "Ġdynam": 2357,
      "Ġ12": 2358,
      "Ġtemper": 2359,
      "avor": 2360,
      "Ġsteps": 2361,
      "Ġappreci": 2362,
      "Ġiter": 2363,
      "Ġstory": 2364,
      "=\"": 2365,
      "Ġhelps": 2366,
      "Ġspe": 2367,
      "First": 2368,
      "Ġinstit": 2369,
      "Ġleast": 2370,
      "sc": 2371,
      "Ġincrease": 2372,
      "ude": 2373,
      "Ġpercent": 2374,
      "Ġur": 2375,
      "Ġconduc": 2376,
      "Ġsolutions": 2377,
      "Ġappe": 2378,
      "ava": 2379,
      "uly": 2380,
      "Ġrights": 2381,
      "gen": 2382,
      "Ġcompared": 2383,
      "Ġdisplay": 2384,
      "Ġways": 2385,
      "isc": 2386,
      "Ġcontinue": 2387,
      "ndom": 2388,
      "Ġoperations": 2389,
      "Ġevidence": 2390,
      "use": 2391,
      "back": 2392,
      "Ġsoftware": 2393,
      "Ġgroups": 2394,
      "istance": 2395,
      "Ġmental": 2396,
      "Ġyourself": 2397,
      "based": 2398,
      "Ġwar": 2399,
      "Ġdiffic": 2400,
      "elines": 2401,
      "Ġstay": 2402,
      "It": 2403,
      "Ġcul": 2404,
      "ĠBe": 2405,
      "Ġart": 2406,
      "Ġavoid": 2407,
      "head": 2408,
      "Ġinj": 2409,
      "utput": 2410,
      "plement": 2411,
      "Ġblood": 2412,
      "ament": 2413,
      "Ġfail": 2414,
      "Ġrelated": 2415,
      "wh": 2416,
      "Ġpatients": 2417,
      "Ġside": 2418,
      "ĠChe": 2419,
      "list": 2420,
      "ĠAc": 2421,
      "alf": 2422,
      "Ġrob": 2423,
      "11": 2424,
      "python": 2425,
      "Ġcells": 2426,
      "struct": 2427,
      "aged": 2428,
      "Ġfull": 2429,
      "Ġground": 2430,
      "Ġbehavior": 2431,
      "ĠStates": 2432,
      "Ġcamp": 2433,
      "Ġenj": 2434,
      "Ġproduction": 2435,
      "ĠCent": 2436,
      "Ġconven": 2437,
      "ean": 2438,
      "onse": 2439,
      "Ġactive": 2440,
      "Ġshare": 2441,
      "Ġemphas": 2442,
      "Ġcommitment": 2443,
      "ference": 2444,
      "une": 2445,
      "Ġdocument": 2446,
      "ding": 2447,
      "Ġexec": 2448,
      "part": 2449,
      "Ġquestions": 2450,
      "Ġcut": 2451,
      "ids": 2452,
      "Ġann": 2453,
      "Ġterm": 2454,
      "Ġcomplete": 2455,
      "Ġdirectly": 2456,
      "Ġachieve": 2457,
      "aster": 2458,
      "Ġartic": 2459,
      "Ġrates": 2460,
      "ciples": 2461,
      "cript": 2462,
      "Ġhy": 2463,
      "Ġinsp": 2464,
      "Ġentire": 2465,
      "Ġcustomers": 2466,
      "Ġappropriate": 2467,
      "Ġensures": 2468,
      "Ġcompanies": 2469,
      "ĠNational": 2470,
      "How": 2471,
      "cl": 2472,
      "Ġmention": 2473,
      "ĠApp": 2474,
      "Ġvaluable": 2475,
      "Ġful": 2476,
      "Ġbehind": 2477,
      "Ġaddition": 2478,
      "ĠWor": 2479,
      "Ġonce": 2480,
      "urop": 2481,
      "ER": 2482,
      "Ġmessage": 2483,
      "Ġaction": 2484,
      "Ġrelevant": 2485,
      "Ġadj": 2486,
      "Ġultimately": 2487,
      "Ġtable": 2488,
      "ĠAm": 2489,
      "Ġbelie": 2490,
      "For": 2491,
      "Ġautom": 2492,
      "Ġvisual": 2493,
      "Ġpractice": 2494,
      "enced": 2495,
      "Ġpred": 2496,
      "ift": 2497,
      "sych": 2498,
      "Ġassess": 2499,
      "Ġtaking": 2500,
      "Ġmonit": 2501,
      "earch": 2502,
      "Ġlater": 2503,
      "Ġcompre": 2504,
      "ĠCont": 2505,
      "Ġlives": 2506,
      "Ġphot": 2507,
      "Ġvia": 2508,
      "Ġcultural": 2509,
      "ferences": 2510,
      "Ġprevi": 2511,
      "ĠGu": 2512,
      "Ġemail": 2513,
      "Ġpare": 2514,
      "ĠSc": 2515,
      "Ġinternational": 2516,
      "Ġsubst": 2517,
      "ĠSome": 2518,
      "erson": 2519,
      "ĠDes": 2520,
      "Ġapplication": 2521,
      "Ġcover": 2522,
      "Ġpath": 2523,
      "ush": 2524,
      "Ġloss": 2525,
      "Ġver": 2526,
      "Ġaway": 2527,
      "fect": 2528,
      "cy": 2529,
      "aced": 2530,
      "Ġspirit": 2531,
      "ittle": 2532,
      "Ġlooking": 2533,
      "Ġhapp": 2534,
      "Ġenjoy": 2535,
      "Ġda": 2536,
      "Ġsurrounding": 2537,
      "Ġpromoting": 2538,
      "Ġconcept": 2539,
      "Ġterms": 2540,
      "Ġsepar": 2541,
      "Ġembr": 2542,
      "Ġprogress": 2543,
      "ĠAfter": 2544,
      "Ġreturns": 2545,
      "\".": 2546,
      "When": 2547,
      "II": 2548,
      "Ġshared": 2549,
      "Ġspecies": 2550,
      "By": 2551,
      "Ġengagement": 2552,
      "Ġmaximum": 2553,
      "Ġconnections": 2554,
      "eness": 2555,
      "Ġserves": 2556,
      "Ġlegal": 2557,
      "Ġmeasures": 2558,
      "tt": 2559,
      "Ġgame": 2560,
      "Ġfa": 2561,
      "Ġred": 2562,
      "ĠAll": 2563,
      "Ġsqu": 2564,
      "Ġprin": 2565,
      "Ġpowerful": 2566,
      "standing": 2567,
      "ready": 2568,
      "Ġstructure": 2569,
      "Ġconstruc": 2570,
      "Ġsite": 2571,
      "Ġput": 2572,
      "ĠFrom": 2573,
      "Ġoriginal": 2574,
      "Ġfacilit": 2575,
      "Ġprofessional": 2576,
      "ctive": 2577,
      "Ġharm": 2578,
      "Ġreduce": 2579,
      "Ġenvironmental": 2580,
      "Ġvide": 2581,
      "ĠReg": 2582,
      "Ġvital": 2583,
      "Ġshap": 2584,
      "aste": 2585,
      "\":": 2586,
      "know": 2587,
      "inking": 2588,
      "hib": 2589,
      "ump": 2590,
      "Ġx": 2591,
      "log": 2592,
      "reate": 2593,
      "Ġprofessionals": 2594,
      "Ġaverage": 2595,
      "Ġcannot": 2596,
      "Ġtypically": 2597,
      "Ġfri": 2598,
      "Ġchec": 2599,
      "Ġsett": 2600,
      "Ġhealthcare": 2601,
      "ĠMan": 2602,
      "itle": 2603,
      "Ġadop": 2604,
      "Ġparam": 2605,
      "Ġengine": 2606,
      "Ġdom": 2607,
      "ĠAccording": 2608,
      "ĠAss": 2609,
      "Ġliving": 2610,
      "af": 2611,
      "wise": 2612,
      "Ġey": 2613,
      "arily": 2614,
      "ĠSim": 2615,
      "Ġenables": 2616,
      "pid": 2617,
      "ww": 2618,
      "Ġcorrect": 2619,
      "umn": 2620,
      "Ġbar": 2621,
      "Ġculture": 2622,
      "atisf": 2623,
      "Ġexisting": 2624,
      "Ġsound": 2625,
      "going": 2626,
      "Ġadapt": 2627,
      "Ġfoot": 2628,
      "asc": 2629,
      "Ġindex": 2630,
      "son": 2631,
      "Ġfile": 2632,
      "Ġinformed": 2633,
      "Ġcancer": 2634,
      "Ġmusic": 2635,
      "comes": 2636,
      "Ġanti": 2637,
      "ender": 2638,
      "ball": 2639,
      "Ġforms": 2640,
      "Ġspecifically": 2641,
      "Ġrisks": 2642,
      "Ġlink": 2643,
      "plications": 2644,
      "ops": 2645,
      "vestig": 2646,
      "Ġinitial": 2647,
      "Ġbalance": 2648,
      "Ġthings": 2649,
      "minist": 2650,
      ",âĢĿ": 2651,
      "Ġdat": 2652,
      "irm": 2653,
      "enn": 2654,
      "Ġstudies": 2655,
      "Ġsense": 2656,
      "ules": 2657,
      "Ġexpect": 2658,
      "Ġgene": 2659,
      "ians": 2660,
      "Ġdays": 2661,
      "Ġconver": 2662,
      "Ġbreak": 2663,
      "Ch": 2664,
      "Ġeither": 2665,
      "Ġbook": 2666,
      "Ġpressure": 2667,
      "Ġalready": 2668,
      "Ġidentify": 2669,
      "Ġdescrib": 2670,
      "lection": 2671,
      "Ġfeed": 2672,
      "Ġradi": 2673,
      "Ġsuff": 2674,
      "Ġcosts": 2675,
      "Ġcollaboration": 2676,
      "Ġpros": 2677,
      "utes": 2678,
      "Ġengaging": 2679,
      "ster": 2680,
      "rror": 2681,
      "pass": 2682,
      "Ġpatterns": 2683,
      "Ġanalysis": 2684,
      "porary": 2685,
      "Ġcause": 2686,
      "Ġpartners": 2687,
      "Ġconvers": 2688,
      "Ġlikely": 2689,
      "Ġfall": 2690,
      "Ġprec": 2691,
      "ĠX": 2692,
      "15": 2693,
      "reen": 2694,
      "Ġorganization": 2695,
      "artment": 2696,
      "âĢĵ": 2697,
      "Ġclos": 2698,
      "epend": 2699,
      "ĠUS": 2700,
      "Ġprimary": 2701,
      "Ġ/": 2702,
      "ĠCal": 2703,
      "ĠGen": 2704,
      "Ġoutput": 2705,
      "Ġpa": 2706,
      "adem": 2707,
      "Ġclim": 2708,
      "Ġsection": 2709,
      "aff": 2710,
      "Ġreli": 2711,
      "Ġprinciples": 2712,
      "ĠEurop": 2713,
      "ĠVal": 2714,
      "Ġresponse": 2715,
      "sh": 2716,
      "Ġeffects": 2717,
      "Ġproperty": 2718,
      "Ġnar": 2719,
      "ĠInt": 2720,
      "Ġcontains": 2721,
      "Ġdecisions": 2722,
      "Ġaddressing": 2723,
      "aving": 2724,
      "Ġsay": 2725,
      "Ġuses": 2726,
      "Ġlimit": 2727,
      "Ġbrand": 2728,
      "uel": 2729,
      "right": 2730,
      "Ġcity": 2731,
      "Ġoutcomes": 2732,
      "Ġeconomic": 2733,
      "Ġfeature": 2734,
      "Ġpolicy": 2735,
      "rel": 2736,
      "ley": 2737,
      "Ġplanning": 2738,
      "icro": 2739,
      "ĠAf": 2740,
      "Ġyoung": 2741,
      "Ġmom": 2742,
      "Ġdest": 2743,
      "Ġalign": 2744,
      "ĠHis": 2745,
      "asts": 2746,
      "Ġlies": 2747,
      "Ġabs": 2748,
      "oved": 2749,
      "Ġresearc": 2750,
      "Ġfocusing": 2751,
      "At": 2752,
      "Ġenab": 2753,
      "Ad": 2754,
      "Ġplays": 2755,
      "ĠIntern": 2756,
      "unction": 2757,
      "Ġdeb": 2758,
      "tial": 2759,
      "eter": 2760,
      "Ġheav": 2761,
      "Ġaware": 2762,
      "active": 2763,
      "Ġchem": 2764,
      "Ġsources": 2765,
      "Ġones": 2766,
      "hood": 2767,
      "ients": 2768,
      "Ġgoals": 2769,
      "Ġdifficult": 2770,
      "Ġwide": 2771,
      "Ġdu": 2772,
      "ĠDr": 2773,
      "oney": 2774,
      "vention": 2775,
      "ounts": 2776,
      "Ġ.": 2777,
      "Ġworth": 2778,
      "Ġexpress": 2779,
      "Ġmillion": 2780,
      "Ġwebsite": 2781,
      "Ġmere": 2782,
      "Ġreview": 2783,
      "Ġthreat": 2784,
      "ume": 2785,
      "ĠImplement": 2786,
      "Ġjob": 2787,
      "Ġdeveloping": 2788,
      "Ġresulting": 2789,
      "Ġjourney": 2790,
      "Ġrelig": 2791,
      "ĠPython": 2792,
      "ert": 2793,
      "Ġcore": 2794,
      "isms": 2795,
      "Ġseason": 2796,
      "Ġrev": 2797,
      "ĠFr": 2798,
      "Ġengage": 2799,
      "Ġstream": 2800,
      "Ġissue": 2801,
      "Ġtailored": 2802,
      "Ġsays": 2803,
      "Ġstra": 2804,
      "Ġrandom": 2805,
      "Ġ30": 2806,
      "Ġreducing": 2807,
      "ĠWhe": 2808,
      "Ġsatisf": 2809,
      "Ġfram": 2810,
      "ĠRep": 2811,
      "Ġcomprehens": 2812,
      "Ġsent": 2813,
      "Ġproblems": 2814,
      "Ġlive": 2815,
      "Ġresponsible": 2816,
      "Ġclaim": 2817,
      "Ġneeded": 2818,
      "ores": 2819,
      "su": 2820,
      "astly": 2821,
      "times": 2822,
      "ĠEar": 2823,
      "Ġexpand": 2824,
      "Ġvisit": 2825,
      "nal": 2826,
      "olving": 2827,
      "Ġpurch": 2828,
      "But": 2829,
      "Ġreve": 2830,
      "ĠBl": 2831,
      "Ġcountries": 2832,
      "Ġdeliver": 2833,
      "like": 2834,
      "iles": 2835,
      "Ġamount": 2836,
      "Ġsmo": 2837,
      "Ġ17": 2838,
      "Ġdiscover": 2839,
      "rim": 2840,
      "Ġlandscape": 2841,
      "\")": 2842,
      "uments": 2843,
      "Ġpubl": 2844,
      "Ġequal": 2845,
      "Ġdemand": 2846,
      "Ġestablished": 2847,
      ":**": 2848,
      "ĠJohn": 2849,
      "Ġflow": 2850,
      "Ġsuper": 2851,
      "Ġclean": 2852,
      "Ġwind": 2853,
      "Ġeth": 2854,
      "Ġge": 2855,
      "ĠIns": 2856,
      "ung": 2857,
      "Ġobject": 2858,
      "ole": 2859,
      "ze": 2860,
      "Ġtechnologies": 2861,
      "Ġopp": 2862,
      "Ġincorporating": 2863,
      "18": 2864,
      "Key": 2865,
      "ret": 2866,
      "order": 2867,
      "ont": 2868,
      "ĠUnder": 2869,
      "ĠTra": 2870,
      "ĠSe": 2871,
      "Ġbackground": 2872,
      "Ġopportunity": 2873,
      "Ġrobust": 2874,
      "ĠChristian": 2875,
      "50": 2876,
      "Ġthink": 2877,
      "tivity": 2878,
      "Ġsimple": 2879,
      "lusive": 2880,
      "],": 2881,
      "Ġflex": 2882,
      "ĠInst": 2883,
      "Ġexploring": 2884,
      "Ġsurface": 2885,
      "Ġactivity": 2886,
      "aut": 2887,
      "Ġstrength": 2888,
      "Ġface": 2889,
      "Ġ16": 2890,
      "Ġcat": 2891,
      "pty": 2892,
      "Ġdevices": 2893,
      "Now": 2894,
      "Ġrout": 2895,
      "Ġproced": 2896,
      "Ġmach": 2897,
      "rie": 2898,
      "Ġrecomm": 2899,
      "tise": 2900,
      "ĠSystem": 2901,
      "ront": 2902,
      "Ġtrends": 2903,
      "Ġinnovation": 2904,
      "ĠCan": 2905,
      "Ġincreasingly": 2906,
      "Ġseen": 2907,
      "Ġsociety": 2908,
      "reg": 2909,
      "Ġever": 2910,
      "Ġ+=": 2911,
      "eration": 2912,
      "oud": 2913,
      "eper": 2914,
      "Ġdeath": 2915,
      "Ġpotentially": 2916,
      "Ġcontext": 2917,
      "Ġhost": 2918,
      "Ġenough": 2919,
      "Ġinvolve": 2920,
      "Ġevalu": 2921,
      "sw": 2922,
      "Ġmentioned": 2923,
      "ĠWorld": 2924,
      "Ġbase": 2925,
      "ĠLe": 2926,
      "ormal": 2927,
      "orial": 2928,
      "Ġexerc": 2929,
      "Ġunc": 2930,
      "rist": 2931,
      "uck": 2932,
      "ĠSci": 2933,
      "thing": 2934,
      "ugg": 2935,
      "iliar": 2936,
      "urance": 2937,
      "Ġrepresents": 2938,
      "atus": 2939,
      "âĢľ": 2940,
      "ĠRec": 2941,
      "ension": 2942,
      "ĠCo": 2943,
      "Ġstructures": 2944,
      "gra": 2945,
      "Ġscience": 2946,
      "Ġstrategy": 2947,
      "illed": 2948,
      "amm": 2949,
      "Ġfoster": 2950,
      "Ġbound": 2951,
      "Ġpiece": 2952,
      "ĠSec": 2953,
      "Ġnever": 2954,
      "Ġenhancing": 2955,
      "ects": 2956,
      "ply": 2957,
      "Ġongoing": 2958,
      "Ġcross": 2959,
      "Ġefficiency": 2960,
      "lear": 2961,
      "Ġinvestig": 2962,
      "Ġstore": 2963,
      "force": 2964,
      "Ġlittle": 2965,
      "Ġquestion": 2966,
      "Ġcalculate": 2967,
      "Ġrich": 2968,
      "Ġsource": 2969,
      "Ġlove": 2970,
      "Ġpopulation": 2971,
      "icate": 2972,
      "If": 2973,
      "pose": 2974,
      "rite": 2975,
      "Ġtax": 2976,
      "Ġlocation": 2977,
      "Ġstrings": 2978,
      "ĠWhether": 2979,
      "Error": 2980,
      "aign": 2981,
      "Ġnational": 2982,
      "aves": 2983,
      "Ġpolicies": 2984,
      "Ġarch": 2985,
      "Ġperfect": 2986,
      "quality": 2987,
      "Ġoil": 2988,
      "ened": 2989,
      "Ġlen": 2990,
      "Ġcontem": 2991,
      "Ġpoints": 2992,
      "Ġmis": 2993,
      "pping": 2994,
      "Ġincludes": 2995,
      "Ġcentury": 2996,
      "Ġstudent": 2997,
      "osure": 2998,
      "Ġgeneral": 2999,
      "Ġtransport": 3000,
      "Ġsuggest": 3001,
      "mon": 3002,
      "ternal": 3003,
      "Ġpsych": 3004,
      "itable": 3005,
      "NA": 3006,
      "Ġintric": 3007,
      "Ġchallenging": 3008,
      "Ġplayers": 3009,
      "Ġstress": 3010,
      "ustr": 3011,
      "Ġsafe": 3012,
      "Ġ%": 3013,
      "Ġla": 3014,
      "Ġprivate": 3015,
      "Ġdraw": 3016,
      "Ġlarger": 3017,
      "Ġenabling": 3018,
      "Ġjo": 3019,
      "Ġsetting": 3020,
      "Ġadjust": 3021,
      "Ġreason": 3022,
      "Ġ198": 3023,
      "Ġconnection": 3024,
      "Ġestablish": 3025,
      "Ġresearchers": 3026,
      "set": 3027,
      "Ġintroduc": 3028,
      "Ġdistin": 3029,
      "Ġstrategic": 3030,
      "Ġstandard": 3031,
      "Ġalike": 3032,
      "Ġtaken": 3033,
      "Ġreflect": 3034,
      "Ġfig": 3035,
      "ĠStud": 3036,
      "pan": 3037,
      "ID": 3038,
      "Ġste": 3039,
      "Ġnetwork": 3040,
      "making": 3041,
      "Ġconsid": 3042,
      "Ġhistorical": 3043,
      "Ġmob": 3044,
      "Ġskin": 3045,
      "char": 3046,
      "Ġwrit": 3047,
      "most": 3048,
      "ison": 3049,
      "Ġreach": 3050,
      "ĠPer": 3051,
      "Ġmanaging": 3052,
      "Ġbat": 3053,
      "Ġinstall": 3054,
      "Ġpage": 3055,
      "urch": 3056,
      "Ġcondition": 3057,
      "--------------------------------": 3058,
      "overed": 3059,
      "Ġqual": 3060,
      "hentic": 3061,
      "Ġprojects": 3062,
      "Ġhours": 3063,
      "tr": 3064,
      "ned": 3065,
      "Ġsure": 3066,
      "Ġdeeper": 3067,
      "Ġ14": 3068,
      "Ġattem": 3069,
      "Ġpack": 3070,
      "Ġstates": 3071,
      "Ġsolid": 3072,
      "inating": 3073,
      "Ġarti": 3074,
      "hic": 3075,
      "Ġcomfort": 3076,
      "Ġplant": 3077,
      "ĠAfric": 3078,
      "Ġfive": 3079,
      "Ġdaily": 3080,
      "Ġlibr": 3081,
      "ivil": 3082,
      "ribution": 3083,
      "Ġinnovative": 3084,
      "idents": 3085,
      "pper": 3086,
      "Ġnews": 3087,
      "Ġmodels": 3088,
      "Ġenter": 3089,
      "We": 3090,
      "Ġmass": 3091,
      "add": 3092,
      "oll": 3093,
      "iment": 3094,
      "Ġusage": 3095,
      "Ġprotection": 3096,
      "Ġcapital": 3097,
      "bs": 3098,
      "Ġclients": 3099,
      "ications": 3100,
      "Ġgenerate": 3101,
      "elebr": 3102,
      "che": 3103,
      "Ġhar": 3104,
      "Ġbroader": 3105,
      "olic": 3106,
      "Ġdetails": 3107,
      "Ġalternative": 3108,
      "Ġviol": 3109,
      "Ġsorted": 3110,
      "iddle": 3111,
      "ffic": 3112,
      "ĠThat": 3113,
      "ellow": 3114,
      "Ġlif": 3115,
      "Ġsecure": 3116,
      "Ġparts": 3117,
      "Ġpatient": 3118,
      "Ġrate": 3119,
      "ronic": 3120,
      "Ġimproved": 3121,
      "Ġquickly": 3122,
      "Ġcop": 3123,
      "Ġexception": 3124,
      "Ġsets": 3125,
      "Ġing": 3126,
      "Ġpreser": 3127,
      "vere": 3128,
      "Ġapproaches": 3129,
      "rypt": 3130,
      "ON": 3131,
      "Ġconstit": 3132,
      "Ġimmedi": 3133,
      "Ġbenefit": 3134,
      "Ġ11": 3135,
      "ĠWar": 3136,
      "Ġhighlight": 3137,
      "Ġweight": 3138,
      "case": 3139,
      "ipment": 3140,
      "ĠDep": 3141,
      "uary": 3142,
      "Ġcreated": 3143,
      "Ġrapid": 3144,
      "Ġdoing": 3145,
      "Ġidenti": 3146,
      "'ll": 3147,
      "30": 3148,
      "my": 3149,
      "ales": 3150,
      "ederal": 3151,
      "eth": 3152,
      "Ġstandards": 3153,
      "ervation": 3154,
      "Ġwhite": 3155,
      "Ġtrack": 3156,
      "Ġpromote": 3157,
      "acts": 3158,
      "Ġsus": 3159,
      "Ġaccept": 3160,
      "hips": 3161,
      "lights": 3162,
      "key": 3163,
      "ran": 3164,
      "ective": 3165,
      "ott": 3166,
      "iance": 3167,
      "Ġsex": 3168,
      "Ġwin": 3169,
      "ested": 3170,
      "dom": 3171,
      "ĠJava": 3172,
      "Ġloop": 3173,
      "ĠNorth": 3174,
      "200": 3175,
      "Ġdou": 3176,
      "ĠSuch": 3177,
      "Ġdrug": 3178,
      "Ġri": 3179,
      "ĠJew": 3180,
      "Ġmut": 3181,
      "Ġusually": 3182,
      "Ġrespect": 3183,
      "new": 3184,
      "Ġcareful": 3185,
      "Ġcampaign": 3186,
      "Ġ|": 3187,
      "onom": 3188,
      "Ġdiagn": 3189,
      "count": 3190,
      "Ġbill": 3191,
      "('": 3192,
      "Ġeducational": 3193,
      "ĠHealth": 3194,
      "ĠPres": 3195,
      "Ġsun": 3196,
      "oman": 3197,
      "Ġteams": 3198,
      "Ã©": 3199,
      "ĠRem": 3200,
      "Ġaimed": 3201,
      "Ġcomputer": 3202,
      "ification": 3203,
      "sequently": 3204,
      "ĠEach": 3205,
      "Ġearl": 3206,
      "Ġscenari": 3207,
      "enge": 3208,
      "ptoms": 3209,
      "Ġconsidered": 3210,
      "sum": 3211,
      "Ġmor": 3212,
      "uries": 3213,
      "Ġconce": 3214,
      "wide": 3215,
      "hel": 3216,
      "Ġremember": 3217,
      "Ġinstitutions": 3218,
      "Ġhalf": 3219,
      "Ġdeveloped": 3220,
      "med": 3221,
      "osis": 3222,
      "Ġamid": 3223,
      "Ġkind": 3224,
      "Ġdamage": 3225,
      "Ġlimited": 3226,
      "Ġcloser": 3227,
      "Ġregul": 3228,
      "ĠCar": 3229,
      "Ġoutside": 3230,
      "Ġobjec": 3231,
      "oming": 3232,
      "ĠDevelop": 3233,
      "Ġacqu": 3234,
      "Ġadminist": 3235,
      "Ġefficient": 3236,
      "Ġperce": 3237,
      "Ġcelebr": 3238,
      "ades": 3239,
      "Ġchann": 3240,
      "Ġrelative": 3241,
      "Ġexpertise": 3242,
      "Ġhouse": 3243,
      "Ġfaith": 3244,
      "Ġdial": 3245,
      "ched": 3246,
      "Ġeasy": 3247,
      "Ġempty": 3248,
      "Ġhandling": 3249,
      "umb": 3250,
      "ĠResearch": 3251,
      "Ġtemperature": 3252,
      "Ġindepend": 3253,
      "ptions": 3254,
      "Ġlat": 3255,
      "Ġadvanced": 3256,
      "come": 3257,
      "Ġhighlights": 3258,
      "ĠSu": 3259,
      "Ġcultiv": 3260,
      "amin": 3261,
      "ĠPar": 3262,
      "prime": 3263,
      "orough": 3264,
      "Ġbecame": 3265,
      "ĠYork": 3266,
      "++": 3267,
      "Ġofficial": 3268,
      "Ġfinal": 3269,
      "ictionary": 3270,
      "Ġcapabilities": 3271,
      "ĠAb": 3272,
      "ĠRet": 3273,
      "Int": 3274,
      "rence": 3275,
      "Ġsharing": 3276,
      "Ġsignificance": 3277,
      "Ġinfluence": 3278,
      "Ġfit": 3279,
      "Ġlab": 3280,
      "Ġflo": 3281,
      "apter": 3282,
      "Ġrefers": 3283,
      "value": 3284,
      "yl": 3285,
      "Ġjud": 3286,
      "Ġsugges": 3287,
      "Ġthird": 3288,
      "Ġtruly": 3289,
      "Ġdate": 3290,
      "Ġemployees": 3291,
      "Ġroot": 3292,
      "oration": 3293,
      "entific": 3294,
      "nts": 3295,
      "aly": 3296,
      "Ġenable": 3297,
      "Ġseries": 3298,
      "Ġ197": 3299,
      "ĠPre": 3300,
      "Ġdive": 3301,
      "Ġaccom": 3302,
      "Ġadvance": 3303,
      "Ġinteger": 3304,
      "ĠGo": 3305,
      "`.": 3306,
      "Ġcapable": 3307,
      "odies": 3308,
      "Ġobser": 3309,
      "acity": 3310,
      "ibilities": 3311,
      "entists": 3312,
      "hetic": 3313,
      "Ġdespite": 3314,
      "rown": 3315,
      "Ġconsistent": 3316,
      "Ġfamil": 3317,
      "Ġconstant": 3318,
      "Ġprice": 3319,
      "However": 3320,
      "rig": 3321,
      "utri": 3322,
      "Ġactions": 3323,
      "Ġmid": 3324,
      "Ġgrowing": 3325,
      "Ġnode": 3326,
      "Ġ25": 3327,
      "Ġprotect": 3328,
      "Ġchecks": 3329,
      "Ġclimate": 3330,
      "13": 3331,
      "Ġfunctionality": 3332,
      "Ġintegers": 3333,
      "ĠAmerica": 3334,
      "acking": 3335,
      "ography": 3336,
      "ressive": 3337,
      "rit": 3338,
      "Ġidea": 3339,
      "Ġvirt": 3340,
      "ĠMay": 3341,
      "Ġpreferences": 3342,
      "Ġreduced": 3343,
      "Ġsitu": 3344,
      "Ġcateg": 3345,
      "Ġequipment": 3346,
      "Ġtasks": 3347,
      "bo": 3348,
      "tor": 3349,
      "anging": 3350,
      "ux": 3351,
      "Ġvariable": 3352,
      "Ġenvironments": 3353,
      "Ġweek": 3354,
      "Ġvehic": 3355,
      "**:": 3356,
      "Ġlonger": 3357,
      "Ġmemory": 3358,
      "Ġliter": 3359,
      "Ġhighly": 3360,
      "Ġtim": 3361,
      "ilience": 3362,
      "What": 3363,
      "Ġstor": 3364,
      "icine": 3365,
      "date": 3366,
      "Ġreput": 3367,
      "Ġteac": 3368,
      "icated": 3369,
      "Ġconflic": 3370,
      "Ġmiss": 3371,
      "Ġauthentic": 3372,
      "Ġsil": 3373,
      "irth": 3374,
      "Ġsequ": 3375,
      "Ġblack": 3376,
      "Ġforward": 3377,
      "inks": 3378,
      "ĠState": 3379,
      "Ġeffect": 3380,
      "Ġgreen": 3381,
      "iet": 3382,
      "Ġexperienced": 3383,
      "pe": 3384,
      "lease": 3385,
      "Ġwhole": 3386,
      "Ġemotional": 3387,
      "ĠMar": 3388,
      "Ġeffort": 3389,
      "Ġeveryone": 3390,
      "Ġvideo": 3391,
      "Ġmoney": 3392,
      "ols": 3393,
      "ĠChrist": 3394,
      "bon": 3395,
      "ĠâĢĶ": 3396,
      "Ġimplementing": 3397,
      "CT": 3398,
      "Ġsix": 3399,
      "ĠOver": 3400,
      "rome": 3401,
      "Ġstrugg": 3402,
      "resp": 3403,
      "rs": 3404,
      "Ġprote": 3405,
      "Ġ<=": 3406,
      "Ġinterpre": 3407,
      "Ġseam": 3408,
      "Ġcontact": 3409,
      "Ġer": 3410,
      "zing": 3411,
      "Ġhab": 3412,
      "Ġinterests": 3413,
      "equ": 3414,
      "Ġexcell": 3415,
      "airs": 3416,
      "Ġdetermine": 3417,
      "Ġcollect": 3418,
      "Ġdelve": 3419,
      "Ġsomeone": 3420,
      "Ġspiritual": 3421,
      "ls": 3422,
      "ĠYour": 3423,
      "14": 3424,
      "':": 3425,
      "Ġbelow": 3426,
      "des": 3427,
      "Ġord": 3428,
      "ĠFl": 3429,
      "Ġmeasure": 3430,
      "Ġillustr": 3431,
      "Ġstake": 3432,
      "Ġexposure": 3433,
      "Ġthereby": 3434,
      "Ġextra": 3435,
      "Ġempower": 3436,
      "rative": 3437,
      "IN": 3438,
      "iving": 3439,
      "ĠOutput": 3440,
      "holders": 3441,
      "Ġmonths": 3442,
      "ene": 3443,
      "cipl": 3444,
      "Ġproperties": 3445,
      "Ġled": 3446,
      "Ġ13": 3447,
      "ana": 3448,
      "ĠWhat": 3449,
      "lec": 3450,
      "Ġexternal": 3451,
      "ĠAg": 3452,
      "rix": 3453,
      "itig": 3454,
      "length": 3455,
      "Ġsometimes": 3456,
      "Ġchallenge": 3457,
      "ĠSpec": 3458,
      "Ar": 3459,
      "Ġpresence": 3460,
      "Ġarticle": 3461,
      "ĠMin": 3462,
      "Ġacadem": 3463,
      "Ġresilience": 3464,
      "Ġapart": 3465,
      "ĠUs": 3466,
      "isible": 3467,
      "ching": 3468,
      "ĠDec": 3469,
      "Ġoptimal": 3470,
      "Ġcounter": 3471,
      "Ġcompl": 3472,
      "ĠPr": 3473,
      "Ġparties": 3474,
      "Ġconsumers": 3475,
      "Ġpropos": 3476,
      "Ġitems": 3477,
      "ĠNo": 3478,
      "Ġadded": 3479,
      "onds": 3480,
      "Ġchoice": 3481,
      "Ġrecurs": 3482,
      "Ġsymptoms": 3483,
      "ony": 3484,
      "Ġcentral": 3485,
      "Ġtry": 3486,
      "Ġclin": 3487,
      "Ġresource": 3488,
      "icient": 3489,
      "Ġprevious": 3490,
      "Ġdim": 3491,
      "Ġthus": 3492,
      "ifying": 3493,
      "Ġjew": 3494,
      "Ġcircum": 3495,
      "Ġhor": 3496,
      "enses": 3497,
      "ingly": 3498,
      "Ġport": 3499,
      "ĠGe": 3500,
      "ulner": 3501,
      "Ġtechnical": 3502,
      "Ġattribut": 3503,
      "Ġwa": 3504,
      "Ġprompt": 3505,
      "ked": 3506,
      "Ġfavor": 3507,
      "Ġlines": 3508,
      "Ġforce": 3509,
      "ĠSouth": 3510,
      "SA": 3511,
      "Ġchoose": 3512,
      "Ġec": 3513,
      "auti": 3514,
      "There": 3515,
      "urrent": 3516,
      "amed": 3517,
      "Ġseamless": 3518,
      "Ġimage": 3519,
      "://": 3520,
      "bre": 3521,
      "Ġcand": 3522,
      "Ġbur": 3523,
      "Ġbasic": 3524,
      "Ġroles": 3525,
      "Ġawareness": 3526,
      "Ġproduce": 3527,
      "Ġansw": 3528,
      "Ġmanufacturing": 3529,
      "odes": 3530,
      "ĠAdd": 3531,
      "Ġmeaningful": 3532,
      "Ġhol": 3533,
      "ĠInc": 3534,
      "augh": 3535,
      "Ġmovement": 3536,
      "Ġnavigate": 3537,
      "Ġdatab": 3538,
      "col": 3539,
      "Ġmatter": 3540,
      "SE": 3541,
      "uff": 3542,
      "encing": 3543,
      "Ġformat": 3544,
      "ype": 3545,
      "eting": 3546,
      "orders": 3547,
      "ĠFirst": 3548,
      "Ġconsidering": 3549,
      "Ġearlier": 3550,
      "So": 3551,
      "ai": 3552,
      "itation": 3553,
      "illing": 3554,
      "ĠGerm": 3555,
      "ST": 3556,
      "elry": 3557,
      "Ġcolumn": 3558,
      "Ġir": 3559,
      "Ġsettings": 3560,
      "ĠTheir": 3561,
      "Ġallowed": 3562,
      "21": 3563,
      "Ġchemical": 3564,
      "Ġprob": 3565,
      "Ġappl": 3566,
      "Ġhealthy": 3567,
      "ceed": 3568,
      "Ġmanage": 3569,
      "Ġblock": 3570,
      "Ġinitiatives": 3571,
      "Ġamidst": 3572,
      "En": 3573,
      "ban": 3574,
      "ĠIts": 3575,
      "Ġjus": 3576,
      "Ġmax": 3577,
      "Ġrig": 3578,
      "ĠFalse": 3579,
      "Ġcomprehensive": 3580,
      "Ġmag": 3581,
      "Moreover": 3582,
      "ulate": 3583,
      "Ġtend": 3584,
      "Ġstyle": 3585,
      "iences": 3586,
      "uild": 3587,
      "Lastly": 3588,
      "clusion": 3589,
      "Ġsituation": 3590,
      "Ġshaping": 3591,
      "Ġfamilies": 3592,
      "reme": 3593,
      "ĠStr": 3594,
      "Ġ50": 3595,
      "sort": 3596,
      "Ġdone": 3597,
      "lish": 3598,
      "Ġthorough": 3599,
      "Ġimag": 3600,
      "ultane": 3601,
      "Ġcaused": 3602,
      "Ġdistinct": 3603,
      "ĊĊĠĠĠĠĠĠĠ": 3604,
      "Ġdesired": 3605,
      "Ġcollective": 3606,
      "Ġgive": 3607,
      "vey": 3608,
      "Ġcontemporary": 3609,
      "Ġplans": 3610,
      "ĠTherefore": 3611,
      "Ġetc": 3612,
      "Ġembracing": 3613,
      "ĠInstead": 3614,
      "lim": 3615,
      "ows": 3616,
      "Ġisn": 3617,
      "Ġobjects": 3618,
      "Ġpossess": 3619,
      "Ġstories": 3620,
      "Ġcyc": 3621,
      "imal": 3622,
      "Ġstatus": 3623,
      "Ġvulner": 3624,
      "Ġtesting": 3625,
      "Ġfully": 3626,
      "Ġ--": 3627,
      "Ġsect": 3628,
      "Ġwarm": 3629,
      "Ġstar": 3630,
      "Ġcapt": 3631,
      "Ġtherapy": 3632,
      "Ġcitiz": 3633,
      "ister": 3634,
      "ken": 3635,
      "Ġexact": 3636,
      "ĠEarth": 3637,
      "RO": 3638,
      "rial": 3639,
      "tenance": 3640,
      "Ġreceive": 3641,
      "osition": 3642,
      "Ġbig": 3643,
      "Ġidentity": 3644,
      "PI": 3645,
      "ĠTitle": 3646,
      "Ġsubstan": 3647,
      "ae": 3648,
      "Ġduplic": 3649,
      "Ġdur": 3650,
      "Ġsubject": 3651,
      "Ġbrain": 3652,
      "Ġspaces": 3653,
      "Ġmix": 3654,
      "Ġlabor": 3655,
      "Ġtou": 3656,
      "ĠAlthough": 3657,
      "Ġcou": 3658,
      "Ġcareer": 3659,
      "ritis": 3660,
      "Ġstarting": 3661,
      "acci": 3662,
      "Ġbring": 3663,
      "Ġsched": 3664,
      "AT": 3665,
      "Ġsn": 3666,
      "Ġrecords": 3667,
      "Ġstaff": 3668,
      "Ġonto": 3669,
      "Ġvac": 3670,
      "Ġshows": 3671,
      "Ġanimals": 3672,
      "haps": 3673,
      "Ġcraf": 3674,
      "Ġfire": 3675,
      "Ġfalse": 3676,
      "Ġprop": 3677,
      "Ġdifference": 3678,
      "Ġspeed": 3679,
      "Ġremove": 3680,
      "ĠTechn": 3681,
      "Ġplants": 3682,
      "Ġdoesn": 3683,
      "ogue": 3684,
      "Ġadding": 3685,
      "Ġheat": 3686,
      "akers": 3687,
      "ilitary": 3688,
      "alls": 3689,
      "Ġinfra": 3690,
      "Ġinvolving": 3691,
      "ibon": 3692,
      "rought": 3693,
      "Ġwal": 3694,
      "Ġvary": 3695,
      "exp": 3696,
      "Ġagree": 3697,
      "SS": 3698,
      "herent": 3699,
      "Ġfactor": 3700,
      "Ġscientific": 3701,
      "ibonacci": 3702,
      "Ġunders": 3703,
      "ĠCheck": 3704,
      "17": 3705,
      "structure": 3706,
      "rics": 3707,
      "leg": 3708,
      "Ġcreative": 3709,
      "number": 3710,
      "Ġtranspare": 3711,
      "Write": 3712,
      "do": 3713,
      "Ġpal": 3714,
      "inate": 3715,
      "oli": 3716,
      "Ġinvestment": 3717,
      "16": 3718,
      "Ġ196": 3719,
      "Ġdeg": 3720,
      "ht": 3721,
      "input": 3722,
      "Ġaest": 3723,
      "esus": 3724,
      "Ġbelief": 3725,
      "titude": 3726,
      "akes": 3727,
      "iber": 3728,
      "Ġremind": 3729,
      "])": 3730,
      "mosp": 3731,
      "Ġcam": 3732,
      "cious": 3733,
      "Ġsustainable": 3734,
      "AR": 3735,
      "Ġgoal": 3736,
      "mb": 3737,
      "Ġfriends": 3738,
      "Ġimplications": 3739,
      "ention": 3740,
      "Ġestim": 3741,
      "mission": 3742,
      "Ġpeace": 3743,
      "org": 3744,
      "Ġlack": 3745,
      "Ġdedicated": 3746,
      "redi": 3747,
      "ĠNot": 3748,
      "Firstly": 3749,
      "Ġfix": 3750,
      "Ġadvoc": 3751,
      "ML": 3752,
      "Ġsle": 3753,
      "ĠTest": 3754,
      "Ġwhose": 3755,
      "Ġefficiently": 3756,
      "ND": 3757,
      "fford": 3758,
      "oyal": 3759,
      "Ġcontinuous": 3760,
      "Ġpublished": 3761,
      "Ġpurpose": 3762,
      "ativity": 3763,
      "astic": 3764,
      "urt": 3765,
      "wards": 3766,
      "ml": 3767,
      "erge": 3768,
      "ĠThus": 3769,
      "ellig": 3770,
      "Ġfaced": 3771,
      "ticip": 3772,
      "Ġsav": 3773,
      "Ġrow": 3774,
      "Ġexamine": 3775,
      "ancy": 3776,
      "Ġsurv": 3777,
      "Ġparents": 3778,
      "Ġreligious": 3779,
      "resh": 3780,
      "ager": 3781,
      "mar": 3782,
      "Ġhon": 3783,
      "ĠAust": 3784,
      "Ġcarefully": 3785,
      "Ġschools": 3786,
      "ached": 3787,
      "ĠHist": 3788,
      "Ġbegan": 3789,
      "ads": 3790,
      "Ġstakeholders": 3791,
      "Ġfuel": 3792,
      "Ġeasily": 3793,
      "orous": 3794,
      "Ġprocedures": 3795,
      "ev": 3796,
      "Ġraise": 3797,
      "Ġcomponent": 3798,
      "Ġadvantages": 3799,
      "Ġoffering": 3800,
      "Ġsmaller": 3801,
      "Ġcontinues": 3802,
      "Ġimproving": 3803,
      "Ġcenter": 3804,
      "Ġcame": 3805,
      "Ġcontinued": 3806,
      "LE": 3807,
      "eds": 3808,
      "Ġfinding": 3809,
      "Ġinside": 3810,
      "Ġmonitoring": 3811,
      "Pr": 3812,
      "Ġgas": 3813,
      "Ġoption": 3814,
      "numbers": 3815,
      "Ġpaper": 3816,
      "Ġsymb": 3817,
      "being": 3818,
      "ĠMod": 3819,
      "Ġeye": 3820,
      "Ġhot": 3821,
      "String": 3822,
      "oes": 3823,
      "istics": 3824,
      "Ġtraffic": 3825,
      "onding": 3826,
      "ĠSimilar": 3827,
      "ĠInternational": 3828,
      "Ġcircumst": 3829,
      "Ġspread": 3830,
      "Ġdevice": 3831,
      "ĠCount": 3832,
      "Ġdriving": 3833,
      "Ġshape": 3834,
      "ensions": 3835,
      ".)": 3836,
      "25": 3837,
      "Ġbud": 3838,
      "Ġexch": 3839,
      "ultaneously": 3840,
      "gg": 3841,
      "Ġwriting": 3842,
      "Ġstorage": 3843,
      "Ġten": 3844,
      "estern": 3845,
      "Ġcard": 3846,
      "ĠConsequently": 3847,
      "Ġmechanisms": 3848,
      "Ġexpectations": 3849,
      "array": 3850,
      "ĠComp": 3851,
      "Ġguide": 3852,
      "Ġjewelry": 3853,
      "att": 3854,
      "Ġgoing": 3855,
      "Ġmal": 3856,
      "Ġep": 3857,
      "Ġnutri": 3858,
      "ĠFinally": 3859,
      "Ġaudiences": 3860,
      "aks": 3861,
      "ĠJesus": 3862,
      "Ġ2012": 3863,
      "po": 3864,
      "hest": 3865,
      "Ġchannels": 3866,
      "ĠServ": 3867,
      "ival": 3868,
      "ills": 3869,
      "Ġtook": 3870,
      "otal": 3871,
      "Ġexpression": 3872,
      "Ġguidance": 3873,
      "ĠInstit": 3874,
      "Ġingredi": 3875,
      "ĠEnglish": 3876,
      "Ġadvantage": 3877,
      "ĠMark": 3878,
      "Ġcapacity": 3879,
      "Ġdepth": 3880,
      "Ġnetworks": 3881,
      "Ġnames": 3882,
      "issions": 3883,
      "Ġlaws": 3884,
      "Ġimprovement": 3885,
      "ximately": 3886,
      "Ġprivacy": 3887,
      "Pro": 3888,
      "Ġmusc": 3889,
      "valid": 3890,
      "\">": 3891,
      "Ġlargest": 3892,
      "overy": 3893,
      "ĠCO": 3894,
      "Ġtopics": 3895,
      "Ġcompetitive": 3896,
      "oti": 3897,
      "Ġconsequ": 3898,
      "Ġimages": 3899,
      "Ġoffered": 3900,
      "Al": 3901,
      "Ġwild": 3902,
      "Ġassign": 3903,
      "Ġversion": 3904,
      "Ġcollection": 3905,
      "Ġsquare": 3906,
      "ober": 3907,
      "Ġpict": 3908,
      "Ġgold": 3909,
      "###": 3910,
      "Ġsales": 3911,
      "Num": 3912,
      "Ġdrive": 3913,
      "Ġnormal": 3914,
      "idge": 3915,
      "Ġactually": 3916,
      "Ġdynamic": 3917,
      "();": 3918,
      "ĠBra": 3919,
      "Ġprocessing": 3920,
      "Ġmaintenance": 3921,
      "Ġgenerally": 3922,
      "Ġcivil": 3923,
      "Ġplayer": 3924,
      "ĠUse": 3925,
      "ĊĠĠĠĠĠĠĠĠĠĠĠĠĠĠĠĠ": 3926,
      "Ġnote": 3927,
      "Ġdevelopers": 3928,
      "Ġpieces": 3929,
      "life": 3930,
      "asons": 3931,
      "Ġalongside": 3932,
      "Ġfair": 3933,
      "words": 3934,
      "Ġframew": 3935,
      "Ġworldwide": 3936,
      "Ġconcepts": 3937,
      "Ġrepe": 3938,
      "work": 3939,
      "Conclusion": 3940,
      "Ġleadership": 3941,
      "SC": 3942,
      "ares": 3943,
      "anks": 3944,
      "Ġtransl": 3945,
      "Ġweak": 3946,
      "dd": 3947,
      "Ġconsideration": 3948,
      "cing": 3949,
      "ĠTe": 3950,
      "data": 3951,
      "uth": 3952,
      "ĠShe": 3953,
      "Ġcauses": 3954,
      "Ġsole": 3955,
      "ruit": 3956,
      "Ġden": 3957,
      "Ġcontra": 3958,
      "Ġfields": 3959,
      "asting": 3960,
      "Ġprogramming": 3961,
      "ios": 3962,
      "Ġfear": 3963,
      "Ġcontributing": 3964,
      "que": 3965,
      "Ġconsult": 3966,
      "Ġcandid": 3967,
      "Ġinvesting": 3968,
      "ĠDis": 3969,
      "Ġintegration": 3970,
      "etal": 3971,
      "raft": 3972,
      "compass": 3973,
      "roll": 3974,
      "Ġinfrastructure": 3975,
      "Note": 3976,
      "formation": 3977,
      "Ġmotiv": 3978,
      "itect": 3979,
      "ĠCenter": 3980,
      "Ġcater": 3981,
      "Ġatmosp": 3982,
      "Ġseek": 3983,
      "Ġcorresp": 3984,
      "Ġfamiliar": 3985,
      "Ġinherent": 3986,
      "Ġlate": 3987,
      "ĠProg": 3988,
      "Ġcircumstances": 3989,
      "Ġinsurance": 3990,
      "Ġoperating": 3991,
      "Ġpursu": 3992,
      "Ġbit": 3993,
      "Ġtrade": 3994,
      "athy": 3995,
      "Ġparticipants": 3996,
      "Ġnovel": 3997,
      "Ġcarry": 3998,
      "Ġcredit": 3999,
      "Ġinteractions": 4000,
      "Ġguidelines": 4001,
      "where": 4002,
      "ounter": 4003,
      "ltimately": 4004,
      "Ġinstruc": 4005,
      "::": 4006,
      "Ġflu": 4007,
      "eu": 4008,
      "Ġadvers": 4009,
      "Ġhope": 4010,
      "22": 4011,
      "Ġafford": 4012,
      "Ġbooks": 4013,
      "ĠMon": 4014,
      "Ġdepending": 4015,
      "Ġdemonstrate": 4016,
      "Ġscientists": 4017,
      "Ġlinked": 4018,
      "Ġyield": 4019,
      "ada": 4020,
      "index": 4021,
      "Ġunderlying": 4022,
      "Ġsubs": 4023,
      "mat": 4024,
      "Ġdepend": 4025,
      "Ġ2010": 4026,
      "iam": 4027,
      "ĠTw": 4028,
      "Ġdictionary": 4029,
      "ĠâĢĺ": 4030,
      "Ġcompar": 4031,
      "Ġrequiring": 4032,
      "Ġproviders": 4033,
      "Ġobtain": 4034,
      "Ġder": 4035,
      "Ġshif": 4036,
      "Ġflexibility": 4037,
      "Ġslow": 4038,
      "apan": 4039,
      "Ġmission": 4040,
      "Ġchapter": 4041,
      "Ġfundament": 4042,
      "ĠPe": 4043,
      "Ġacknow": 4044,
      "tiveness": 4045,
      "Ġdecre": 4046,
      "venue": 4047,
      "Ġcoord": 4048,
      "ĠFe": 4049,
      "ĠDuring": 4050,
      "PA": 4051,
      "Ġreson": 4052,
      "Ġmoment": 4053,
      "unch": 4054,
      "Ġsuggests": 4055,
      "Ġcreation": 4056,
      "cription": 4057,
      "Ġwaste": 4058,
      "Ġmilitary": 4059,
      "ĠRuss": 4060,
      "Ġscri": 4061,
      "Ġcitizens": 4062,
      "Ġthinking": 4063,
      "Ġterr": 4064,
      "Ġreally": 4065,
      "Ġheld": 4066,
      "roduction": 4067,
      "inations": 4068,
      "ĠOther": 4069,
      "Ġexhib": 4070,
      "ifies": 4071,
      "Ġweather": 4072,
      "ĠMus": 4073,
      "Ġchanging": 4074,
      "ese": 4075,
      "Ġalone": 4076,
      "Ġcontaining": 4077,
      "];": 4078,
      "Ġdog": 4079,
      "iding": 4080,
      "eli": 4081,
      "Ġhands": 4082,
      "append": 4083,
      "Ġsensitive": 4084,
      "import": 4085,
      "Ġhyp": 4086,
      "ĠMany": 4087,
      "Ġregulations": 4088,
      "You": 4089,
      "Ġmicro": 4090,
      "rays": 4091,
      "Ġemerging": 4092,
      "Ġheight": 4093,
      "Ġsimply": 4094,
      "ĠSchool": 4095,
      "ĠOff": 4096,
      "OR": 4097,
      "ĠUnderstanding": 4098,
      "Ġsou": 4099,
      "Ġpiv": 4100,
      "Ġgather": 4101,
      "ĠSm": 4102,
      "ĠMe": 4103,
      "erate": 4104,
      "ctor": 4105,
      "Ġupdates": 4106,
      "Ġsituations": 4107,
      "Ġtown": 4108,
      "`,": 4109,
      "book": 4110,
      "Ġelev": 4111,
      "Ġprimarily": 4112,
      "Ġconcent": 4113,
      "Ġsmooth": 4114,
      "Ġtests": 4115,
      "Ġnor": 4116,
      "Ġprepar": 4117,
      "Ġideas": 4118,
      "bility": 4119,
      "oday": 4120,
      "Ġencompass": 4121,
      "Ġrules": 4122,
      "Ġcommand": 4123,
      "rag": 4124,
      "ept": 4125,
      "eline": 4126,
      "Ġalloc": 4127,
      "Ġrefer": 4128,
      "ĠQu": 4129,
      "Ġwritten": 4130,
      "ictions": 4131,
      "Ġworkers": 4132,
      "On": 4133,
      "Ġmitig": 4134,
      "Ġnation": 4135,
      "Ġboundaries": 4136,
      "fl": 4137,
      "Ġsports": 4138,
      "ĠCommun": 4139,
      "Ġprioritiz": 4140,
      "Ġath": 4141,
      "tition": 4142,
      "Ġresponsibility": 4143,
      "Ġconstra": 4144,
      "alle": 4145,
      "While": 4146,
      "Ġlayer": 4147,
      "ttp": 4148,
      "Ġsites": 4149,
      "ĠTrans": 4150,
      "Ġtree": 4151,
      "Ġreported": 4152,
      "Ġreplace": 4153,
      "Ġrecently": 4154,
      "Ġserver": 4155,
      "Ġminimize": 4156,
      "ĠUp": 4157,
      "Ġenhanced": 4158,
      "Ġletter": 4159,
      "Ġfederal": 4160,
      "Ġbirth": 4161,
      "ashing": 4162,
      "Ġstage": 4163,
      "Ġoperation": 4164,
      "ĠTrue": 4165,
      "Ġattempt": 4166,
      "IV": 4167,
      "ĊĊĠ": 4168,
      "aters": 4169,
      "Ġvo": 4170,
      "Ġdistribution": 4171,
      "ero": 4172,
      "Ġrecip": 4173,
      "Ġserious": 4174,
      "Ġround": 4175,
      "Ġprem": 4176,
      "Ġversati": 4177,
      "ritish": 4178,
      "td": 4179,
      "Ġfasc": 4180,
      "Ġaccordingly": 4181,
      "ĠGl": 4182,
      "Ġroom": 4183,
      "Ġadds": 4184,
      "Ġsimultaneously": 4185,
      "Ġaccurate": 4186,
      "div": 4187,
      "Ġtac": 4188,
      "Im": 4189,
      "hus": 4190,
      "Ġencourage": 4191,
      "ĠConsider": 4192,
      "aul": 4193,
      "Ġforces": 4194,
      "Ġvit": 4195,
      "Ġshown": 4196,
      "ĠHigh": 4197,
      "ĠEduc": 4198,
      "ighb": 4199,
      "Ġsupply": 4200,
      "Ġclosely": 4201,
      "while": 4202,
      "ĠDepartment": 4203,
      "Ġmil": 4204,
      "Ġfeedback": 4205,
      "arant": 4206,
      "Ġexamining": 4207,
      "utive": 4208,
      "Ġdivid": 4209,
      "Ġinternal": 4210,
      "off": 4211,
      "Ġintricate": 4212,
      "yles": 4213,
      "ried": 4214,
      "den": 4215,
      "oe": 4216,
      "amples": 4217,
      "room": 4218,
      "Ġcloud": 4219,
      "cient": 4220,
      "Ġmobile": 4221,
      "Ġtalent": 4222,
      "Ġrespective": 4223,
      "Ġpopulations": 4224,
      "Ġdialogue": 4225,
      "Ġaffected": 4226,
      "ĠScience": 4227,
      "istry": 4228,
      "Ġtiss": 4229,
      "Ġnotable": 4230,
      "Ġdemands": 4231,
      "Ġstatement": 4232,
      "essions": 4233,
      "tically": 4234,
      "Ġsevere": 4235,
      "Ġsatisfaction": 4236,
      "Ġ!": 4237,
      "endly": 4238,
      "Ġpharm": 4239,
      "function": 4240,
      "ils": 4241,
      "ĠHar": 4242,
      "ĠSimilarly": 4243,
      "Ġrestr": 4244,
      "Ġvot": 4245,
      "ĠOb": 4246,
      "Ġelectric": 4247,
      "hem": 4248,
      "ertif": 4249,
      "Ġcreativity": 4250,
      "Ġseparate": 4251,
      "Ġfem": 4252,
      "usion": 4253,
      "pped": 4254,
      "Ġ24": 4255,
      "Ġprefer": 4256,
      "Ġfiles": 4257,
      "Ġappreciation": 4258,
      "Ġbreat": 4259,
      "Ġapproximately": 4260,
      "Ġclient": 4261,
      "ĠEnc": 4262,
      "Ġdiet": 4263,
      "23": 4264,
      "Ġaudience": 4265,
      "Ġexercise": 4266,
      "Ġchoices": 4267,
      "sub": 4268,
      "amb": 4269,
      "class": 4270,
      "Ġreliable": 4271,
      "eff": 4272,
      "Ġpit": 4273,
      "Ġwatch": 4274,
      "Of": 4275,
      "Ġfish": 4276,
      "ĠBritish": 4277,
      "Ġarri": 4278,
      "Ġvariety": 4279,
      "Ġload": 4280,
      "Ġmanufacture": 4281,
      "Ġformer": 4282,
      "ogle": 4283,
      "Ġconcer": 4284,
      "Ġpoor": 4285,
      "Ġappeal": 4286,
      "ilos": 4287,
      "Ġrelease": 4288,
      "Ġtell": 4289,
      "Ġreverse": 4290,
      "Ġnecessit": 4291,
      "Ġdescribed": 4292,
      "Ġmount": 4293,
      "Ġdifferences": 4294,
      "Ġappreciate": 4295,
      "ĠGuid": 4296,
      "Ġasp": 4297,
      "ĠJapan": 4298,
      "Ġdecl": 4299,
      "Ġearth": 4300,
      "Ġcontroll": 4301,
      "Ġfrequency": 4302,
      "ky": 4303,
      "Ġcraft": 4304,
      "ĠEd": 4305,
      "Ġquan": 4306,
      "coming": 4307,
      "Ġcutting": 4308,
      "Ġhyd": 4309,
      "Ġpractical": 4310,
      "Ġrunning": 4311,
      "oly": 4312,
      "Ġgames": 4313,
      "Ġmatch": 4314,
      "Ġnavigating": 4315,
      "ĠAct": 4316,
      "onic": 4317,
      "isl": 4318,
      "Ġintellig": 4319,
      "Ġminutes": 4320,
      "Ġconfig": 4321,
      "cal": 4322,
      "iors": 4323,
      "Ġowners": 4324,
      "Ġsubstantial": 4325,
      "gn": 4326,
      "Ġlocated": 4327,
      "Ġarchitect": 4328,
      "Ġcompati": 4329,
      "auty": 4330,
      "ncy": 4331,
      "Ġfunctional": 4332,
      "Ġpan": 4333,
      "Ġstability": 4334,
      "ĠCor": 4335,
      "Ġfoundation": 4336,
      "Ġthing": 4337,
      "Ġexcess": 4338,
      "ĠInter": 4339,
      "Ġevolving": 4340,
      "Ġcourt": 4341,
      "Ġminimizing": 4342,
      "osen": 4343,
      "Ġobs": 4344,
      "load": 4345,
      "efore": 4346,
      "Ġ40": 4347,
      "Ġselecting": 4348,
      "Ġpun": 4349,
      "eters": 4350,
      "Ġerrors": 4351,
      "Des": 4352,
      "ultural": 4353,
      "Ġamb": 4354,
      "Ġcalls": 4355,
      "Ġsupporting": 4356,
      "ĠOp": 4357,
      "Finally": 4358,
      "ued": 4359,
      "atur": 4360,
      "Ġfast": 4361,
      "ocal": 4362,
      "ĠHer": 4363,
      "Ġincluded": 4364,
      "iration": 4365,
      "Ġcreates": 4366,
      "Ġchoosing": 4367,
      "'ve": 4368,
      "Ġthri": 4369,
      "asion": 4370,
      "Ġreports": 4371,
      "Ġrecommend": 4372,
      "Ġwond": 4373,
      "ives": 4374,
      "Ġbecoming": 4375,
      "Ġenthus": 4376,
      "IT": 4377,
      "ails": 4378,
      "Ġadvent": 4379,
      "Ġfacilitate": 4380,
      "Ġpresents": 4381,
      "Ġdatabase": 4382,
      "Ġrein": 4383,
      "Ġcarbon": 4384,
      "ersonal": 4385,
      "Ġconsequences": 4386,
      "Ġthous": 4387,
      "chol": 4388,
      "Ġbuy": 4389,
      "poses": 4390,
      "QL": 4391,
      "icians": 4392,
      "Ġdemonstrates": 4393,
      "Ġign": 4394,
      "Ġextreme": 4395,
      "Ġenthusi": 4396,
      "Ġapply": 4397,
      "Ġdefin": 4398,
      "Ġvision": 4399,
      "Script": 4400,
      "lig": 4401,
      "Ġfarm": 4402,
      "ask": 4403,
      "Ġstatic": 4404,
      "Ġotherwise": 4405,
      "Ġgiving": 4406,
      "Ġcompetition": 4407,
      "Ġconstruction": 4408,
      "Ġremaining": 4409,
      "Ġpassword": 4410,
      "ipped": 4411,
      "Ġfrequently": 4412,
      "Ġpen": 4413,
      "Ġtransportation": 4414,
      "li": 4415,
      "Ġreading": 4416,
      "Ġspecialized": 4417,
      "Ġreceived": 4418,
      "Ġmerely": 4419,
      "ĠKe": 4420,
      "Ġexplain": 4421,
      "Ġsac": 4422,
      "Ġresistance": 4423,
      "Ġmessages": 4424,
      "Ġneighb": 4425,
      "Ġleads": 4426,
      "Ġbrought": 4427,
      "ĠSw": 4428,
      "Ġarts": 4429,
      "Ġproduced": 4430,
      "point": 4431,
      "ĠEast": 4432,
      "ĠGra": 4433,
      "ĠIndia": 4434,
      "Ġtask": 4435,
      "Ġhosp": 4436,
      "Ġgenerated": 4437,
      "Ġmarkets": 4438,
      "ĠPresident": 4439,
      "Ġbeauti": 4440,
      "ĠOnce": 4441,
      "Ġtour": 4442,
      "Ġideal": 4443,
      "Ġdedication": 4444,
      "Ġ2011": 4445,
      "Ġhimself": 4446,
      "Ġeverything": 4447,
      "Ġsyn": 4448,
      "')": 4449,
      "Ġspecified": 4450,
      "Ġours": 4451,
      "ĠCalif": 4452,
      "ĠDav": 4453,
      "Ġprep": 4454,
      "Ġhous": 4455,
      "Ġactual": 4456,
      "Ġsolely": 4457,
      "ĠAut": 4458,
      "Ġunivers": 4459,
      "Ġbeauty": 4460,
      "Ġalthough": 4461,
      "arian": 4462,
      "Ġinterpret": 4463,
      "ĠChar": 4464,
      "Ġexciting": 4465,
      "ĠAssoci": 4466,
      "Ġexactly": 4467,
      "ingu": 4468,
      "Ġmiddle": 4469,
      "uman": 4470,
      "Ġnamed": 4471,
      "ups": 4472,
      "ĠSE": 4473,
      "Ġencourages": 4474,
      "ĠEuropean": 4475,
      "ĠIndian": 4476,
      "iteria": 4477,
      "Ġseems": 4478,
      "na": 4479,
      "Ġconfidence": 4480,
      "Ġscript": 4481,
      "Ġfront": 4482,
      "text": 4483,
      "Ġunf": 4484,
      "Ġhelping": 4485,
      "Ġpurposes": 4486,
      "Ġrecognize": 4487,
      "Ġox": 4488,
      "Ġang": 4489,
      "Ġplaces": 4490,
      "Ġextensive": 4491,
      "ounds": 4492,
      "nesses": 4493,
      "Ġdynamics": 4494,
      "ĠĊ": 4495,
      "Ġrepl": 4496,
      "Ġguarant": 4497,
      "ault": 4498,
      "Ġconsumer": 4499,
      "Ġbarri": 4500,
      "ula": 4501,
      "abet": 4502,
      "Ġalmost": 4503,
      "ĠRed": 4504,
      "Ġgoes": 4505,
      "Ġpolitics": 4506,
      "Ġtalk": 4507,
      "world": 4508,
      "Ġexceptional": 4509,
      "left": 4510,
      "Ġthemes": 4511,
      "Ġfindings": 4512,
      "Ġhighest": 4513,
      "ĠEurope": 4514,
      "Ġobjectives": 4515,
      "Ġexcellent": 4516,
      "Ġbudget": 4517,
      "Ġpow": 4518,
      "mental": 4519,
      "iff": 4520,
      "plit": 4521,
      "ought": 4522,
      "Ġfocused": 4523,
      "Ġfosters": 4524,
      "Ġtechnological": 4525,
      "idden": 4526,
      "Ġmachine": 4527,
      "Ġstatis": 4528,
      "Ġvirtual": 4529,
      "Ġbird": 4530,
      "ornia": 4531,
      "Ġanimal": 4532,
      "Ġrigorous": 4533,
      "oles": 4534,
      "Ġselection": 4535,
      "ĠSocial": 4536,
      "ĠCity": 4537,
      "umes": 4538,
      "Ġassistance": 4539,
      "40": 4540,
      "Create": 4541,
      "ĠKing": 4542,
      "uine": 4543,
      "wa": 4544,
      "requ": 4545,
      "Ġtheory": 4546,
      "aceu": 4547,
      "ĠJan": 4548,
      "Ġgenerations": 4549,
      "80": 4550,
      "year": 4551,
      "Ġcy": 4552,
      "Ġcommerc": 4553,
      "Ġindustries": 4554,
      "Ġsleep": 4555,
      "ĠInstitute": 4556,
      "Ġcommercial": 4557,
      "Ġabilities": 4558,
      "Ġevolution": 4559,
      "Ġanx": 4560,
      "Ġfollowed": 4561,
      "Ġexpected": 4562,
      "Ġshowc": 4563,
      "Ġrepresentation": 4564,
      "ĠGoogle": 4565,
      "Ġnight": 4566,
      "Ġsea": 4567,
      "Ġprices": 4568,
      "ographic": 4569,
      "Ġaims": 4570,
      "Ġacademic": 4571,
      "Com": 4572,
      "ius": 4573,
      "Ġpor": 4574,
      "Ġartis": 4575,
      "Ġletters": 4576,
      "Ġpassage": 4577,
      "Ġregional": 4578,
      "Ġnuc": 4579,
      "Ġquite": 4580,
      "icious": 4581,
      "uing": 4582,
      "ĠWest": 4583,
      "Ġdemoc": 4584,
      "Ġbeginning": 4585,
      "Ġwit": 4586,
      "Ġlost": 4587,
      "idential": 4588,
      "tra": 4589,
      "Ġfat": 4590,
      "Ġdang": 4591,
      "\");": 4592,
      "ok": 4593,
      "inated": 4594,
      "enty": 4595,
      "Ġrespond": 4596,
      "Ġbodies": 4597,
      "ama": 4598,
      "()`": 4599,
      "Ġstrengt": 4600,
      "Ġvast": 4601,
      "ĠDef": 4602,
      "Ġdiscipl": 4603,
      "Ġtransfer": 4604,
      "ĠChina": 4605,
      "Ġfine": 4606,
      "ĠNone": 4607,
      "Ġdead": 4608,
      "inent": 4609,
      "Ġalle": 4610,
      "ĠPart": 4611,
      "Ġgenetic": 4612,
      "Ġartists": 4613,
      "ded": 4614,
      "iny": 4615,
      "edom": 4616,
      "lude": 4617,
      "Ġaffect": 4618,
      "Ġdiscussions": 4619,
      "Ġdiseases": 4620,
      "Ġlic": 4621,
      "Ġvibr": 4622,
      "ocks": 4623,
      "Ġconsumption": 4624,
      "Ġconsistently": 4625,
      "Ġtransparency": 4626,
      "Ġranging": 4627,
      "Ġbelieve": 4628,
      "Ġvow": 4629,
      "Input": 4630,
      "Ġgenuine": 4631,
      "Ġinstr": 4632,
      "rench": 4633,
      "Ġ<<": 4634,
      "lean": 4635,
      "Ġpositions": 4636,
      "Ġenforce": 4637,
      "ributions": 4638,
      "Ġoverl": 4639,
      "Ġnearly": 4640,
      "ira": 4641,
      "Ġalph": 4642,
      "ĠBar": 4643,
      "Ġlibraries": 4644,
      "Ġgetting": 4645,
      "ĠColle": 4646,
      "Ġinjury": 4647,
      "ception": 4648,
      "Ġunit": 4649,
      "Ġoccurs": 4650,
      "CA": 4651,
      "erve": 4652,
      "icit": 4653,
      "oses": 4654,
      "Ġcool": 4655,
      "Ġidentifying": 4656,
      "Ġfundamental": 4657,
      "Ġourselves": 4658,
      "cil": 4659,
      "ino": 4660,
      "ĠMet": 4661,
      "Ġintegrating": 4662,
      "Ġrecursive": 4663,
      "coh": 4664,
      "Ġshift": 4665,
      "Ġappears": 4666,
      "Ġphen": 4667,
      "used": 4668,
      "Ġitem": 4669,
      "ĠLaw": 4670,
      "ses": 4671,
      "Ġ2008": 4672,
      "Ġjustice": 4673,
      "ĠCreate": 4674,
      "ags": 4675,
      "Ġincreases": 4676,
      "Ġhumans": 4677,
      "Ġutilizing": 4678,
      "Ġball": 4679,
      "ĠWill": 4680,
      "Ġtele": 4681,
      "ĠAustral": 4682,
      "Ġperhaps": 4683,
      "Ġremote": 4684,
      "ĠKey": 4685,
      "Ġattack": 4686,
      "rupt": 4687,
      "fri": 4688,
      "hema": 4689,
      "level": 4690,
      "Output": 4691,
      "Ġleave": 4692,
      "Ġrise": 4693,
      "Ġimpacts": 4694,
      "Ġexperiment": 4695,
      "Ġdelivering": 4696,
      "Ġingredients": 4697,
      "Ġpoll": 4698,
      "atically": 4699,
      "Ġachieving": 4700,
      "Ġodd": 4701,
      "Ġcriteria": 4702,
      "45": 4703,
      "reet": 4704,
      "Ġdesigns": 4705,
      "Ġfootball": 4706,
      "ĠCalifornia": 4707,
      "Ġincome": 4708,
      "Ġagencies": 4709,
      "Ġsexual": 4710,
      "Ġcrypt": 4711,
      "incip": 4712,
      "Ġdivisible": 4713,
      "Ġperiods": 4714,
      "Ġconvert": 4715,
      "Ġscenarios": 4716,
      "Ġsem": 4717,
      "isp": 4718,
      "urren": 4719,
      "ibly": 4720,
      "Ġvic": 4721,
      "Ġrecognition": 4722,
      "Ġcausing": 4723,
      "ĠBoth": 4724,
      "Ġ1000": 4725,
      "Ġtransition": 4726,
      "Ġopening": 4727,
      "Ġfeet": 4728,
      "lam": 4729,
      "Ġchosen": 4730,
      "Ġvariables": 4731,
      "Ġlowercase": 4732,
      "---": 4733,
      "cean": 4734,
      "raw": 4735,
      "Ġancient": 4736,
      "Ġregardless": 4737,
      "Ġsentence": 4738,
      "Ġphone": 4739,
      "Ġfresh": 4740,
      "Ġproductivity": 4741,
      "itor": 4742,
      "Ġexperts": 4743,
      "Ġattend": 4744,
      "Ġcontributes": 4745,
      "Ġcopy": 4746,
      "Ġmother": 4747,
      "Ġmanip": 4748,
      "ĠIniti": 4749,
      "Ġregions": 4750,
      "Ġgeneration": 4751,
      "Ġsessions": 4752,
      "result": 4753,
      "Ġteachers": 4754,
      "aur": 4755,
      "Ġaid": 4756,
      "iling": 4757,
      "ĊĠĠĠĠĠĠĠĠĊĠĠĠĠĠĠĠ": 4758,
      "Ġsubsequ": 4759,
      "Ġthreats": 4760,
      "60": 4761,
      "Ġloyal": 4762,
      "avors": 4763,
      "Ġgraph": 4764,
      "nel": 4765,
      "Ġreasons": 4766,
      "Ġlever": 4767,
      "Ġapplied": 4768,
      "lines": 4769,
      "water": 4770,
      "ulture": 4771,
      "Ġsigns": 4772,
      "Ġparent": 4773,
      "ĠAfrican": 4774,
      "ĠGovern": 4775,
      "Ġperspective": 4776,
      "uses": 4777,
      "Ġdiversity": 4778,
      "unting": 4779,
      "ĠMain": 4780,
      "Ġmutual": 4781,
      "elt": 4782,
      "ĠAug": 4783,
      "Ġmetal": 4784,
      "Ġprotoc": 4785,
      "Ġ!=": 4786,
      "uk": 4787,
      "Ġmatters": 4788,
      "Ġcontrast": 4789,
      "Ġcompelling": 4790,
      "Ġencouraging": 4791,
      "Ġforeign": 4792,
      "Ġrapidly": 4793,
      "Ġclinical": 4794,
      "RE": 4795,
      "Ġreference": 4796,
      "Ġprove": 4797,
      "Ġasc": 4798,
      "Ġimpressive": 4799,
      "culate": 4800,
      "Ġwebsites": 4801,
      "Ġintegrity": 4802,
      "Ġaccuracy": 4803,
      "www": 4804,
      "Ġmot": 4805,
      "Ġexamples": 4806,
      "mitted": 4807,
      "tity": 4808,
      "Ġpresented": 4809,
      "Ġtechnique": 4810,
      "Ġadvancements": 4811,
      "With": 4812,
      "Ġvent": 4813,
      "Ġsynt": 4814,
      "egu": 4815,
      "Ġimmers": 4816,
      "Ġemergency": 4817,
      "eck": 4818,
      "ĠTips": 4819,
      "rief": 4820,
      "Ġelim": 4821,
      "Ġsequence": 4822,
      "max": 4823,
      "sp": 4824,
      "Ġswe": 4825,
      "Ġdistribut": 4826,
      "Ġatmosphere": 4827,
      "NT": 4828,
      "inter": 4829,
      "ĠVir": 4830,
      "Ġsolar": 4831,
      "Ġattract": 4832,
      "ommod": 4833,
      "Ġdomain": 4834,
      "down": 4835,
      "iety": 4836,
      "next": 4837,
      "zz": 4838,
      "Ġpray": 4839,
      "ĠHT": 4840,
      "Ġfulf": 4841,
      "ĠDespite": 4842,
      "Ġhom": 4843,
      "Ġethical": 4844,
      "uilding": 4845,
      "cop": 4846,
      "Ġegg": 4847,
      "Ġkeeping": 4848,
      "Ġsusp": 4849,
      "ĠMarch": 4850,
      "Ġoffice": 4851,
      "Ġexploration": 4852,
      "Ġprotein": 4853,
      "Un": 4854,
      "Ġstack": 4855,
      "iven": 4856,
      "ifications": 4857,
      "Ġteaching": 4858,
      "Ġ2009": 4859,
      "Ġwellbeing": 4860,
      "Ġahead": 4861,
      "Ġdisorders": 4862,
      "Ġattrac": 4863,
      "Ġ60": 4864,
      "Ġnegoti": 4865,
      "ashington": 4866,
      "Name": 4867,
      "Ġdark": 4868,
      "Ġphilos": 4869,
      "Ġpreserving": 4870,
      "Ġdiscussion": 4871,
      "ĠPress": 4872,
      "osystem": 4873,
      "Ġblog": 4874,
      "Ġcombination": 4875,
      "Ind": 4876,
      "[]": 4877,
      "Ġrequest": 4878,
      "Ġupdate": 4879,
      "ĠJavaScript": 4880,
      "Ġcharacteristics": 4881,
      "Ġking": 4882,
      "anation": 4883,
      "ĠBo": 4884,
      "Ġquery": 4885,
      "ham": 4886,
      "Ġwood": 4887,
      "ĠAng": 4888,
      "Ġrevers": 4889,
      "Ġeconomy": 4890,
      "Ġconstraints": 4891,
      "List": 4892,
      "uge": 4893,
      "Ġcertif": 4894,
      "Ġtherefore": 4895,
      "ĠIsra": 4896,
      "Ġmeeting": 4897,
      "house": 4898,
      "Ġplaced": 4899,
      "Ġwrite": 4900,
      "anges": 4901,
      "Ġblue": 4902,
      "Ġbox": 4903,
      "Ġimmediate": 4904,
      "bit": 4905,
      "Ġregist": 4906,
      "Ġemotions": 4907,
      "Ġsustainability": 4908,
      "ellect": 4909,
      "Ġpregn": 4910,
      "rows": 4911,
      "Ġrare": 4912,
      "Ġminimum": 4913,
      "Ġannoun": 4914,
      "Ġreveal": 4915,
      "Ġmast": 4916,
      "Ġfacilities": 4917,
      "undred": 4918,
      "Ġsorting": 4919,
      "Ġcampaigns": 4920,
      "Ġwon": 4921,
      "Ġmeets": 4922,
      "Ġassets": 4923,
      "pril": 4924,
      "Ġoptimize": 4925,
      "arity": 4926,
      "Ġbott": 4927,
      "Ġprecise": 4928,
      "Ġlik": 4929,
      "olve": 4930,
      "ĠToday": 4931,
      "Ġcorpor": 4932,
      "Ġsafegu": 4933,
      "ĠWeb": 4934,
      "Prime": 4935,
      "Ġlists": 4936,
      "ĠProv": 4937,
      "Ġtouch": 4938,
      "Ġdry": 4939,
      "Ġadver": 4940,
      "Ġopin": 4941,
      "ided": 4942,
      "thern": 4943,
      "Ġcolors": 4944,
      "ĠProt": 4945,
      "Ġremark": 4946,
      "Ġaccommod": 4947,
      "rich": 4948,
      "Ġfascinating": 4949,
      "inst": 4950,
      "Ġreality": 4951,
      "Ġ2007": 4952,
      "Ġmatrix": 4953,
      "Ġmoving": 4954,
      "Ġbul": 4955,
      "Ġparty": 4956,
      "Ġmember": 4957,
      "Ġdescending": 4958,
      "Ġstaying": 4959,
      "faces": 4960,
      "unning": 4961,
      "unately": 4962,
      "overs": 4963,
      "Ġminor": 4964,
      "Ġlimitations": 4965,
      "Ġlot": 4966,
      "Ġseemingly": 4967,
      "Ġregulatory": 4968,
      "aceutical": 4969,
      "Ġintervention": 4970,
      "Ġrealm": 4971,
      "ratic": 4972,
      "Ġstarted": 4973,
      "Ġroad": 4974,
      "Ġencount": 4975,
      "rest": 4976,
      "eric": 4977,
      "ishes": 4978,
      "Ġrely": 4979,
      "Ġstands": 4980,
      "Ġassist": 4981,
      "Ġbehaviors": 4982,
      "Ġlayers": 4983,
      "Ġaesthetic": 4984,
      "100": 4985,
      "And": 4986,
      "edge": 4987,
      "ĠJour": 4988,
      "Ġdefined": 4989,
      "Ġidentified": 4990,
      "Ġtreatments": 4991,
      "known": 4992,
      "ĠEducation": 4993,
      "hand": 4994,
      "Ġleaving": 4995,
      "Ġadequ": 4996,
      "Ġsimpl": 4997,
      "ĠSince": 4998,
      "lick": 4999,
      "Ġmedicine": 5000,
      "cont": 5001,
      "Ġconsiderations": 5002,
      "ĠPark": 5003,
      "xic": 5004,
      "Ġsocietal": 5005,
      "expected": 5006,
      "eks": 5007,
      "Ġburn": 5008,
      "Ġserving": 5009,
      "____": 5010,
      "Ġinjuries": 5011,
      "ĠGuidelines": 5012,
      "Ġschol": 5013,
      "Ġrule": 5014,
      "roup": 5015,
      "Ġsummer": 5016,
      "Ġduplicate": 5017,
      "Ġfilm": 5018,
      "och": 5019,
      "Ġupdated": 5020,
      "edia": 5021,
      "Ġcorrectly": 5022,
      "ĠII": 5023,
      "ĠRiver": 5024,
      "Ġbelong": 5025,
      "Ġconcerning": 5026,
      "Ġcommonly": 5027,
      "Ġalternatives": 5028,
      "Ġtap": 5029,
      "Ġfellow": 5030,
      "unte": 5031,
      "Ġjournal": 5032,
      "Ġgender": 5033,
      "Ġseg": 5034,
      "cohol": 5035,
      "idth": 5036,
      "Ġscale": 5037,
      "Ġmodified": 5038,
      "Ġlessons": 5039,
      "Ġappearance": 5040,
      "ĠSee": 5041,
      "Ġdemonstrated": 5042,
      "Ġalgorithms": 5043,
      "bal": 5044,
      "Ġbacter": 5045,
      "ĠSur": 5046,
      "Ġcoop": 5047,
      "eries": 5048,
      "Ġstd": 5049,
      "ĠMc": 5050,
      "ĠUltimately": 5051,
      "ĠChild": 5052,
      "semb": 5053,
      "bl": 5054,
      "Ġacid": 5055,
      "Ġperforming": 5056,
      "Ġlasting": 5057,
      "Ġdefine": 5058,
      "Ġpassion": 5059,
      "Ġcombined": 5060,
      "Ġbeg": 5061,
      "Ġchance": 5062,
      "Ġvisitors": 5063,
      "ulated": 5064,
      "ĠWashington": 5065,
      "ĠProf": 5066,
      "Ġacknowled": 5067,
      "Ġfirm": 5068,
      "Ġbank": 5069,
      "Ġrevenue": 5070,
      "Ġstored": 5071,
      "Ġencounter": 5072,
      "Ġoccup": 5073,
      "acies": 5074,
      "Ġago": 5075,
      "Ġanalyzing": 5076,
      "ĠIS": 5077,
      "Ġdeal": 5078,
      "assion": 5079,
      "24": 5080,
      "Ġtur": 5081,
      "ĠAv": 5082,
      "ĠMo": 5083,
      "ĠHere": 5084,
      "ensity": 5085,
      "Ġuseful": 5086,
      "Ġgained": 5087,
      "Ġaccompl": 5088,
      "Ġgam": 5089,
      "Ġtrig": 5090,
      "timate": 5091,
      "ĠCounty": 5092,
      "ĠProgram": 5093,
      "].": 5094,
      "Ġsoph": 5095,
      "ĠSoci": 5096,
      "flow": 5097,
      "------------": 5098,
      "Ġdecades": 5099,
      "Ġpreviously": 5100,
      "Ġsoon": 5101,
      "Ġrenew": 5102,
      "ĠVol": 5103,
      "Ġsuccessfully": 5104,
      "related": 5105,
      "ĠJune": 5106,
      "Ġveget": 5107,
      "Ġpartnerships": 5108,
      "++)": 5109,
      "Ġecosystem": 5110,
      "orrow": 5111,
      "rieved": 5112,
      "He": 5113,
      "Ġproactive": 5114,
      "Ġinstances": 5115,
      "Ġ[]": 5116,
      "Ġolder": 5117,
      "ĠId": 5118,
      "Ġsurpr": 5119,
      "Ġcurrently": 5120,
      "Ġdoub": 5121,
      "ĠCong": 5122,
      "Ġlegisl": 5123,
      "Ġqualities": 5124,
      "ĠJewish": 5125,
      "ivery": 5126,
      "rate": 5127,
      "Ġfilled": 5128,
      "Ġwaters": 5129,
      "Ġstyles": 5130,
      "Ġprepared": 5131,
      "such": 5132,
      "oneous": 5133,
      "Ġentertain": 5134,
      "ĠThen": 5135,
      "Ġexchange": 5136,
      "99": 5137,
      "Ġexpans": 5138,
      "Ġdelivery": 5139,
      "Ġfigures": 5140,
      "Ġphenomen": 5141,
      "ams": 5142,
      "Ġtrying": 5143,
      "Ġdocuments": 5144,
      "cores": 5145,
      "ĠRegular": 5146,
      "Additionally": 5147,
      "ĠEff": 5148,
      "ĠData": 5149,
      "arding": 5150,
      "ĠDesign": 5151,
      "Ġdouble": 5152,
      "Ġice": 5153,
      "rees": 5154,
      "Ġcities": 5155,
      "Ġhundred": 5156,
      "eless": 5157,
      "Ġisol": 5158,
      "essor": 5159,
      "ĠMy": 5160,
      "ague": 5161,
      "Ġdistance": 5162,
      "Ġhabit": 5163,
      "Ġmig": 5164,
      "ĠSept": 5165,
      "Ġunexpected": 5166,
      "Ġsave": 5167,
      "rol": 5168,
      "anted": 5169,
      "indrome": 5170,
      "exts": 5171,
      "Â°": 5172,
      "Ġmel": 5173,
      "Ġstop": 5174,
      "ĠSet": 5175,
      "ĠCour": 5176,
      "Ġdevelopments": 5177,
      "hab": 5178,
      "Ġgar": 5179,
      "Ġspect": 5180,
      "ĠFrench": 5181,
      "Ġrot": 5182,
      "Ġinteraction": 5183,
      "Ġdiscovered": 5184,
      "Ġprofound": 5185,
      "Ġfacing": 5186,
      "ĊĠĠĠĠĠĠĠĠĠĠĠĠĠĠĠĠĠĠĠ": 5187,
      "Ġpet": 5188,
      "ĠDevelopment": 5189,
      "oma": 5190,
      "hern": 5191,
      "Ġboasts": 5192,
      "Ġcoverage": 5193,
      "Ġstraight": 5194,
      "Ġvacc": 5195,
      "MS": 5196,
      "rical": 5197,
      "icted": 5198,
      "ondon": 5199,
      "Ġsector": 5200,
      "ĠValue": 5201,
      "Tr": 5202,
      "ĠEl": 5203,
      "Ġaffecting": 5204,
      "ĠCap": 5205,
      "Ġ2013": 5206,
      "Ġbeautiful": 5207,
      "Ġvibrant": 5208,
      "lands": 5209,
      "yd": 5210,
      "Ġbinary": 5211,
      "ĠMost": 5212,
      "Ġaccessibility": 5213,
      "ĠRemember": 5214,
      "ĠPri": 5215,
      "ĠPublic": 5216,
      "Ġchronic": 5217,
      "][": 5218,
      "Ġlisten": 5219,
      "Ġinterested": 5220,
      "Ġeasier": 5221,
      "Ġmoments": 5222,
      "Ġlatest": 5223,
      "ĠBal": 5224,
      "ĠOf": 5225,
      "Ġrecovery": 5226,
      "Ġexpert": 5227,
      "Ġsmart": 5228,
      "Ġclaims": 5229,
      "ĠAssociation": 5230,
      "Val": 5231,
      "mber": 5232,
      "Ġcogn": 5233,
      "Ġcold": 5234,
      "Ġempathy": 5235,
      "Ġconventional": 5236,
      "iosity": 5237,
      "Ġnu": 5238,
      "Ġvill": 5239,
      "Ġregularly": 5240,
      "Ġviolence": 5241,
      "ĠAugust": 5242,
      "ĠAre": 5243,
      "Ġintellect": 5244,
      "Ġmovements": 5245,
      "ĠOrgan": 5246,
      "Ġuncertain": 5247,
      "ĠSpecific": 5248,
      "Ġanswer": 5249,
      "These": 5250,
      "Ġheavy": 5251,
      "Ġdomes": 5252,
      "Ġinterven": 5253,
      "Ġexamination": 5254,
      "Ġinitially": 5255,
      "Ġarrange": 5256,
      "met": 5257,
      "Ġbab": 5258,
      "Ġannual": 5259,
      "Ġadults": 5260,
      "Ġeffectiveness": 5261,
      "Ġemployed": 5262,
      "ĠManagement": 5263,
      "Ġvehicle": 5264,
      "Ġcompliance": 5265,
      "90": 5266,
      "eding": 5267,
      "ratives": 5268,
      "Ġanyone": 5269,
      "anning": 5270,
      "Ġfeat": 5271,
      "Ġliqu": 5272,
      "uls": 5273,
      "Ġwealth": 5274,
      "Ġattacks": 5275,
      "Ġpossibilities": 5276,
      "Ġheavily": 5277,
      "Ġ:": 5278,
      "emic": 5279,
      "gery": 5280,
      "Ġcommitted": 5281,
      "Ġconflict": 5282,
      "Ġopt": 5283,
      "unt": 5284,
      "Ġcontract": 5285,
      "ĠJuly": 5286,
      "iciency": 5287,
      "Ġsophistic": 5288,
      "sel": 5289,
      "table": 5290,
      "vis": 5291,
      "Ġnurt": 5292,
      "urd": 5293,
      "tery": 5294,
      "Ġbarriers": 5295,
      "Ġic": 5296,
      "Ġhear": 5297,
      "apes": 5298,
      "Ġbrings": 5299,
      "Ġconducted": 5300,
      "Ġexecution": 5301,
      "Cl": 5302,
      "dis": 5303,
      "long": 5304,
      "top": 5305,
      "Ġfight": 5306,
      "ĠSol": 5307,
      "Ġrecognizing": 5308,
      "Col": 5309,
      "Element": 5310,
      "Ġfans": 5311,
      "ĠApril": 5312,
      "Ġhealing": 5313,
      "Ġprincip": 5314,
      "Ġscreen": 5315,
      "Ġanxiety": 5316,
      "atin": 5317,
      "Ġmonitor": 5318,
      "Ġdirection": 5319,
      "Ġfigure": 5320,
      "Ġconfigur": 5321,
      "ĠOct": 5322,
      "Ġamounts": 5323,
      "Ġintelligence": 5324,
      "itage": 5325,
      "Ġfer": 5326,
      "Ġexists": 5327,
      "Ġweeks": 5328,
      "pectives": 5329,
      "Ġemployee": 5330,
      "Ġcorresponding": 5331,
      "lined": 5332,
      "Ġnorth": 5333,
      "sole": 5334,
      "ovember": 5335,
      "Ġcountless": 5336,
      "Ġtrend": 5337,
      "Ġreduces": 5338,
      "Ġrelatively": 5339,
      "Ġindependent": 5340,
      "etit": 5341,
      "ĠWord": 5342,
      "ĠDo": 5343,
      "Ġdiss": 5344,
      "Ġpric": 5345,
      "Ġfreedom": 5346,
      "Ġnarratives": 5347,
      "Ġbillion": 5348,
      "ĠAPI": 5349,
      "orthern": 5350,
      "Ġcoast": 5351,
      "Example": 5352,
      "DA": 5353,
      "Ġcompet": 5354,
      "Ġtruth": 5355,
      "eyond": 5356,
      "Ġviews": 5357,
      "rogen": 5358,
      "Ġanticip": 5359,
      "Ġinterview": 5360,
      "ĠStrateg": 5361,
      "rem": 5362,
      "Ġli": 5363,
      "Ġaccounts": 5364,
      "Ġconnected": 5365,
      "Ġinteresting": 5366,
      "Ġimmediately": 5367,
      "Ġshall": 5368,
      "Ġcomprom": 5369,
      "Ġnothing": 5370,
      "Ġscore": 5371,
      "Ġresponses": 5372,
      "Ġcompetit": 5373,
      "Ġdiam": 5374,
      "Ġcompatibility": 5375,
      "Ġbol": 5376,
      "Ġcontributions": 5377,
      "Ġrock": 5378,
      "Ġengaged": 5379,
      "Ġpoly": 5380,
      "Ġtemperatures": 5381,
      ".'": 5382,
      "Ġslight": 5383,
      "ĠChurch": 5384,
      "Ġstronger": 5385,
      "ĠJanuary": 5386,
      "\";": 5387,
      "Ġhair": 5388,
      "Ġcolon": 5389,
      "Ġmarks": 5390,
      "Ġpreventing": 5391,
      "abetes": 5392,
      "Is": 5393,
      "Ġmiles": 5394,
      "ecause": 5395,
      "ĠCoun": 5396,
      "Ġremarkable": 5397,
      "Ġtit": 5398,
      "ĠAir": 5399,
      "Ġprev": 5400,
      "Ġofferings": 5401,
      "urg": 5402,
      "agers": 5403,
      "neys": 5404,
      "Ġpages": 5405,
      "Ġhttp": 5406,
      "uction": 5407,
      "rict": 5408,
      "Ġartist": 5409,
      "ĠRel": 5410,
      "ĠRef": 5411,
      "Ġprobably": 5412,
      "Ġnested": 5413,
      "ĠAI": 5414,
      "Ġserved": 5415,
      "Ġaccessible": 5416,
      "Ġimprovements": 5417,
      "ipping": 5418,
      "Ġleveraging": 5419,
      "outs": 5420,
      "Ġhidden": 5421,
      "Ġmetrics": 5422,
      "Ġparticipation": 5423,
      "Ġscene": 5424,
      "Ġurban": 5425,
      "Ġtissue": 5426,
      "Ġshed": 5427,
      "Ġwent": 5428,
      "Ġinfection": 5429,
      "Ġclasses": 5430,
      "Ġofficials": 5431,
      "ship": 5432,
      "vision": 5433,
      "ĠDay": 5434,
      "ĠEnviron": 5435,
      "Ġlinks": 5436,
      "ĠCommon": 5437,
      "ĠJournal": 5438,
      "CE": 5439,
      "Ġmagn": 5440,
      "empl": 5441,
      "Ġdeeply": 5442,
      "Ġ>=": 5443,
      "Ġthousands": 5444,
      "'.": 5445,
      "Ġintended": 5446,
      "Ġ23": 5447,
      "Ġentry": 5448,
      "Ġ2000": 5449,
      "ĠExper": 5450,
      "size": 5451,
      "Ġconfirm": 5452,
      "Ġestablishing": 5453,
      "ĠIsrael": 5454,
      "uous": 5455,
      "Ġteach": 5456,
      "Ġmerg": 5457,
      "Ġinteract": 5458,
      "Ġ</": 5459,
      "Ġminimal": 5460,
      "Ġdrugs": 5461,
      "Ġreputation": 5462,
      "body": 5463,
      "Ġhit": 5464,
      "Ġenhances": 5465,
      "Ġevaluate": 5466,
      "Ġfeelings": 5467,
      "Ġdegree": 5468,
      "ĠHistory": 5469,
      "friendly": 5470,
      "onents": 5471,
      "Ġoperational": 5472,
      "ĠCollege": 5473,
      "era": 5474,
      "ĠEst": 5475,
      "Ġscr": 5476,
      "Ġdoctor": 5477,
      "Ġeventually": 5478,
      "Ġenforcement": 5479,
      "ented": 5480,
      "abe": 5481,
      "Ġinters": 5482,
      "Ġtransformation": 5483,
      "Ġinstitution": 5484,
      "ĠDem": 5485,
      "Ġ22": 5486,
      "ubs": 5487,
      "Expl": 5488,
      "Ġharness": 5489,
      "cons": 5490,
      "ĠSan": 5491,
      "Ġimpl": 5492,
      "ache": 5493,
      "ĠMore": 5494,
      "ĠUN": 5495,
      "angle": 5496,
      "Ġsolve": 5497,
      "Ġgives": 5498,
      "Ġimplemented": 5499,
      "Ġeight": 5500,
      "Ġconv": 5501,
      "Ġcompassion": 5502,
      "Ġample": 5503,
      "Ġcollege": 5504,
      "vert": 5505,
      "Ġ21": 5506,
      "Ġindustrial": 5507,
      "Number": 5508,
      "AL": 5509,
      "from": 5510,
      "Ġ...": 5511,
      "ĠDNA": 5512,
      "conn": 5513,
      "ĠCanada": 5514,
      "lects": 5515,
      "Ġtactics": 5516,
      "Ġpharmaceutical": 5517,
      "ĠRetrieved": 5518,
      "Ġprioritize": 5519,
      "ĠKeep": 5520,
      "pperc": 5521,
      "ĠPower": 5522,
      "Ġsubsequent": 5523,
      "vest": 5524,
      "Ġyouth": 5525,
      "Ġupper": 5526,
      "Ġspent": 5527,
      "ĠDavid": 5528,
      "ĠSociety": 5529,
      "PS": 5530,
      "backs": 5531,
      "entist": 5532,
      "Ġfoods": 5533,
      "Ġinner": 5534,
      "start": 5535,
      "Ġstages": 5536,
      "Ġdealing": 5537,
      "ĠStep": 5538,
      "Ġwidely": 5539,
      "elihood": 5540,
      "ET": 5541,
      "othe": 5542,
      "ĠLear": 5543,
      "Ġappoint": 5544,
      "Ġclearly": 5545,
      "Ġinspiration": 5546,
      "Enter": 5547,
      "ĠSeptember": 5548,
      "SON": 5549,
      "lity": 5550,
      "ushing": 5551,
      "tee": 5552,
      "Ġreleased": 5553,
      "Ġsupports": 5554,
      "ĠAfrica": 5555,
      "Ġtum": 5556,
      "ara": 5557,
      "70": 5558,
      "nes": 5559,
      "Ġask": 5560,
      "aint": 5561,
      "ĠNe": 5562,
      "Ġnotes": 5563,
      "Ġrelax": 5564,
      "Ġ2006": 5565,
      "Ġeyes": 5566,
      "Ġhighlighting": 5567,
      "Ġ26": 5568,
      "ello": 5569,
      "ĠAmericans": 5570,
      "Ġbreast": 5571,
      "IS": 5572,
      "ĠLondon": 5573,
      "Ġanalyze": 5574,
      "Ġauthorities": 5575,
      "Ġselected": 5576,
      "Ġfailure": 5577,
      "Ġphilosoph": 5578,
      "Re": 5579,
      "Ġacts": 5580,
      "Ġagric": 5581,
      "Ġsumm": 5582,
      "eanwhile": 5583,
      "Ġlikelihood": 5584,
      "ether": 5585,
      "Ġvar": 5586,
      "Ġdepart": 5587,
      "Ġparamount": 5588,
      "ppercase": 5589,
      "dict": 5590,
      "Ġcatch": 5591,
      "ĠBr": 5592,
      "agues": 5593,
      "Ġknowing": 5594,
      "letes": 5595,
      "Ġindicate": 5596,
      "ss": 5597,
      "Ġtang": 5598,
      "Ġvig": 5599,
      "Ġchances": 5600,
      "icks": 5601,
      "Ġagg": 5602,
      "ourage": 5603,
      "Ġmaximize": 5604,
      "Ġple": 5605,
      "Ġmist": 5606,
      "Ġarrays": 5607,
      "Ġscre": 5608,
      "Ġplayed": 5609,
      "Ġdil": 5610,
      "color": 5611,
      "ĠPaul": 5612,
      "ED": 5613,
      "Once": 5614,
      "Ġcry": 5615,
      "ĠDon": 5616,
      "Ġunn": 5617,
      "inding": 5618,
      "road": 5619,
      "ĠSQL": 5620,
      "ogen": 5621,
      "Ġresolution": 5622,
      "Ġperspectives": 5623,
      "ĠFam": 5624,
      "Ġunits": 5625,
      "Ġsoil": 5626,
      "Ġremo": 5627,
      "Ġadaptability": 5628,
      "Ġfilt": 5629,
      "antic": 5630,
      "omb": 5631,
      "ida": 5632,
      "ivity": 5633,
      "Ġwear": 5634,
      "Ġvalidate": 5635,
      "html": 5636,
      "ticul": 5637,
      "istent": 5638,
      "ĠDire": 5639,
      "Ġparameters": 5640,
      "iology": 5641,
      "Ġchurch": 5642,
      "Ġlanguages": 5643,
      "Ġfunds": 5644,
      "Ġcomplement": 5645,
      "Ġlocations": 5646,
      "anking": 5647,
      "Ġinterface": 5648,
      "Ġevaluation": 5649,
      "Ġadequate": 5650,
      "RA": 5651,
      "page": 5652,
      "Ġstim": 5653,
      "ĠMat": 5654,
      "ĠEg": 5655,
      "aker": 5656,
      "Ġmedium": 5657,
      "Ġvolume": 5658,
      "Ġradio": 5659,
      "Ġconversations": 5660,
      "ĠGerman": 5661,
      "33": 5662,
      "Ġconduct": 5663,
      "ĠGr": 5664,
      "Ġprotecting": 5665,
      "Ġactively": 5666,
      "Ġhoriz": 5667,
      "Ġsymbol": 5668,
      "lements": 5669,
      "ĠFibonacci": 5670,
      "Ġsaw": 5671,
      "Ġlibrary": 5672,
      "mark": 5673,
      "ĠSun": 5674,
      "riage": 5675,
      "ĠColl": 5676,
      "Ġholds": 5677,
      "Ġengineering": 5678,
      "aught": 5679,
      "Ġexcessive": 5680,
      "Ġproceed": 5681,
      "ĠSch": 5682,
      "Ġtracking": 5683,
      "Ġpassed": 5684,
      "Ġplanet": 5685,
      "raction": 5686,
      "pace": 5687,
      "Ġcoming": 5688,
      "ĠMor": 5689,
      "ĠJust": 5690,
      "Ġkids": 5691,
      "Ġadvice": 5692,
      "Ġfib": 5693,
      "Ġreb": 5694,
      "Ġinval": 5695,
      "Ġextended": 5696,
      "Ġexclusive": 5697,
      "Ġloyalty": 5698,
      "Ġhomes": 5699,
      "Ġhaz": 5700,
      "Ġclick": 5701,
      "fulness": 5702,
      "Ġoffic": 5703,
      "luding": 5704,
      "Ġeast": 5705,
      "Ġthread": 5706,
      "Ġentities": 5707,
      "Ġintroduced": 5708,
      "Ġsouth": 5709,
      "Ġdro": 5710,
      "ĠMal": 5711,
      "Ġbeliefs": 5712,
      "Em": 5713,
      "HA": 5714,
      "Sh": 5715,
      "itch": 5716,
      "Ġmul": 5717,
      "Ġwinter": 5718,
      "Ġreaders": 5719,
      "prene": 5720,
      "Ġfilter": 5721,
      "Ġbasis": 5722,
      "Ġcandidates": 5723,
      "Ġartistic": 5724,
      "hors": 5725,
      "Ġmer": 5726,
      "ecutive": 5727,
      "ĠIP": 5728,
      "Ġtradition": 5729,
      "Ġagency": 5730,
      "Ġcrim": 5731,
      "Ġpromising": 5732,
      "reprene": 5733,
      "Ġuns": 5734,
      "Ġparticipate": 5735,
      "Ġattributes": 5736,
      "Ġpair": 5737,
      "uted": 5738,
      "Ġarise": 5739,
      "Ġcommunicate": 5740,
      "Ġexplo": 5741,
      "Ġformed": 5742,
      "Ġunderscores": 5743,
      "ĠDi": 5744,
      "ĠList": 5745,
      "ĠGreen": 5746,
      "ĠUtil": 5747,
      "ĠEns": 5748,
      "Ġemployment": 5749,
      "Ġdetailed": 5750,
      "prof": 5751,
      "Ġmechanism": 5752,
      "Ġconversion": 5753,
      "Ġcook": 5754,
      "acles": 5755,
      "Under": 5756,
      "olute": 5757,
      "ĠPort": 5758,
      "Ġstrict": 5759,
      "Ġavailability": 5760,
      "Ġnuclear": 5761,
      "ĠHuman": 5762,
      "Ġroof": 5763,
      "Ġmodify": 5764,
      "Ġassessment": 5765,
      "CC": 5766,
      "Ġband": 5767,
      "ĠHouse": 5768,
      "Ġ=>": 5769,
      "Ġemissions": 5770,
      "Ġdiscrim": 5771,
      "Ġcrafting": 5772,
      "Ġgrad": 5773,
      "Ġaccurately": 5774,
      "Ġdifficulty": 5775,
      "Ġpurchase": 5776,
      "ĠDecember": 5777,
      "ĠService": 5778,
      "Res": 5779,
      "Ġsong": 5780,
      "olved": 5781,
      "ĠEv": 5782,
      "Ġconsistency": 5783,
      "Ġauthority": 5784,
      "Ġvehicles": 5785,
      "Ġartif": 5786,
      "Ġbutton": 5787,
      "Ġcaptiv": 5788,
      "Ġequipped": 5789,
      "Ġglass": 5790,
      "Ġcourses": 5791,
      "Ġinternet": 5792,
      "Ġscenario": 5793,
      "Ġintellectual": 5794,
      "HE": 5795,
      "orks": 5796,
      "atively": 5797,
      "Ġdepartment": 5798,
      "Ġloans": 5799,
      "Ġsuppl": 5800,
      "Ġnarrative": 5801,
      "eted": 5802,
      "Ġoverw": 5803,
      "Ġpractition": 5804,
      "cho": 5805,
      "ĠFound": 5806,
      "Ġ28": 5807,
      "enders": 5808,
      "Ġ2005": 5809,
      "mal": 5810,
      "node": 5811,
      "Ġsell": 5812,
      "Ġspot": 5813,
      "Ġrequests": 5814,
      "Ġfocuses": 5815,
      "board": 5816,
      "Ġstruggle": 5817,
      "men": 5818,
      "see": 5819,
      "Ġalt": 5820,
      "78": 5821,
      ":\",": 5822,
      "itory": 5823,
      "Ġalcohol": 5824,
      "ĠWestern": 5825,
      "Ġapplying": 5826,
      "Ġanything": 5827,
      "Ġextends": 5828,
      "Ġinvestors": 5829,
      "ĠEngland": 5830,
      "Ġcycle": 5831,
      "ocurren": 5832,
      "obal": 5833,
      "Ġcultures": 5834,
      "Ġdetermining": 5835,
      "can": 5836,
      "isdom": 5837,
      "Ġthrow": 5838,
      "ĠPrac": 5839,
      "rick": 5840,
      "Ġgovernments": 5841,
      "ĠWilliam": 5842,
      "uro": 5843,
      "Ġtaste": 5844,
      "ĠMa": 5845,
      "reek": 5846,
      "ĠUsing": 5847,
      "opping": 5848,
      "Ġtitle": 5849,
      "Ġstunning": 5850,
      "Ġchain": 5851,
      "ĠRoman": 5852,
      "Ġpromo": 5853,
      "Ġclassic": 5854,
      "Ġmuscle": 5855,
      "Id": 5856,
      "with": 5857,
      "Ġlux": 5858,
      "Ġgot": 5859,
      "Ġvoid": 5860,
      "ĠPal": 5861,
      "ĠLa": 5862,
      "Ġpromises": 5863,
      "Ġlifest": 5864,
      "Ġpicture": 5865,
      "ĠSpecifically": 5866,
      "Ġdomestic": 5867,
      "iller": 5868,
      "ĠDel": 5869,
      "ĠUnion": 5870,
      "Ġroutine": 5871,
      "26": 5872,
      "oke": 5873,
      "Ġnations": 5874,
      "ĠNovember": 5875,
      "ibl": 5876,
      "Ġfemale": 5877,
      "Ġprotocols": 5878,
      "Ġdental": 5879,
      "ulating": 5880,
      "phone": 5881,
      "Ġgenes": 5882,
      "Ġcognitive": 5883,
      "pread": 5884,
      "ĠFin": 5885,
      "izations": 5886,
      "Ġorganic": 5887,
      "Ġoccasion": 5888,
      "Ġcombining": 5889,
      "Ġvalidation": 5890,
      "MA": 5891,
      "oding": 5892,
      "Ġintrig": 5893,
      "Ġmanaged": 5894,
      "Ġprovider": 5895,
      "Ġvisibility": 5896,
      "Ġboost": 5897,
      "Ġbrands": 5898,
      "Furthermore": 5899,
      "Ph": 5900,
      "ander": 5901,
      "exic": 5902,
      "ĠSecond": 5903,
      "Ġobserved": 5904,
      "but": 5905,
      "Ġfaster": 5906,
      "Ġgard": 5907,
      "Ġmeticul": 5908,
      "Ġorganizational": 5909,
      "ĠIslam": 5910,
      "Ġovers": 5911,
      "ologist": 5912,
      "Ġexpenses": 5913,
      "Ġ||": 5914,
      "Ġpul": 5915,
      "ani": 5916,
      "ums": 5917,
      "ĠDisc": 5918,
      "Ġdispar": 5919,
      "Ġreceiving": 5920,
      "ĠGeneral": 5921,
      "ĠSk": 5922,
      "Ġsuitable": 5923,
      "Ġplaying": 5924,
      "ĠMedical": 5925,
      "Ġiterate": 5926,
      "Ġvarying": 5927,
      "len": 5928,
      "ĠÂ": 5929,
      "Ġtack": 5930,
      "Ġbad": 5931,
      "Ġmort": 5932,
      "Ġresidents": 5933,
      "Ġmanual": 5934,
      "rapy": 5935,
      "Ġreporting": 5936,
      "Ġstrengths": 5937,
      "Ġpip": 5938,
      "ĠPlay": 5939,
      "Ġcompetitors": 5940,
      "After": 5941,
      "ube": 5942,
      "Ġexplicit": 5943,
      "Ġwrong": 5944,
      "Ġesc": 5945,
      "Ġcritic": 5946,
      "Array": 5947,
      "aper": 5948,
      "iant": 5949,
      "ĠFort": 5950,
      "Ġmillions": 5951,
      "Ġstrengthen": 5952,
      "Ġap": 5953,
      "Ġborn": 5954,
      "ĠCustom": 5955,
      "Ġcounsel": 5956,
      "Ġsilver": 5957,
      "ln": 5958,
      "ĠMich": 5959,
      "ĠNA": 5960,
      "Ġresponsibilities": 5961,
      "Ġtrial": 5962,
      "Ġincorporate": 5963,
      "Ġlandscapes": 5964,
      "27": 5965,
      "lor": 5966,
      "Ġcooking": 5967,
      "ĠCD": 5968,
      "Ġperm": 5969,
      "apping": 5970,
      "cies": 5971,
      "Ġdram": 5972,
      "ĠTex": 5973,
      "itivity": 5974,
      "Ġwilling": 5975,
      "Ġlimits": 5976,
      "Ġdivine": 5977,
      "Ġparticipating": 5978,
      "Ġanalytics": 5979,
      "CD": 5980,
      "ker": 5981,
      "Ġtut": 5982,
      "Ġwoman": 5983,
      "ĠRead": 5984,
      "Ġcharge": 5985,
      "ĠExpl": 5986,
      "Ġrevolution": 5987,
      "Ġliterature": 5988,
      "Ġsoc": 5989,
      "Ġinclusive": 5990,
      "Ġcurren": 5991,
      "Ġcuriosity": 5992,
      "Ġaccountability": 5993,
      "Ġhosting": 5994,
      "Ġadvertis": 5995,
      "inf": 5996,
      "Ġfruit": 5997,
      "arter": 5998,
      "ĠCre": 5999,
      "Ġmemor": 6000,
      "olitical": 6001,
      "Ġdeploy": 6002,
      "Ġraised": 6003,
      "ĠAlso": 6004,
      "Ġutilize": 6005,
      "Ġconvenience": 6006,
      "Ġframework": 6007,
      "rection": 6008,
      "Ġmathema": 6009,
      "Ġcrafts": 6010,
      "oad": 6011,
      "tes": 6012,
      "ford": 6013,
      "Ġproducing": 6014,
      "ĠCouncil": 6015,
      "ĠMary": 6016,
      "ressed": 6017,
      "Ġroll": 6018,
      "Ġfees": 6019,
      "Ġpopularity": 6020,
      "Ġcredibility": 6021,
      "Ġascending": 6022,
      "29": 6023,
      "px": 6024,
      "Ġce": 6025,
      "Ġstock": 6026,
      "ĠOur": 6027,
      "Ġstatements": 6028,
      "Ġfeaturing": 6029,
      "vance": 6030,
      "Ġeat": 6031,
      "ĠNow": 6032,
      "Ġtransactions": 6033,
      "Ġboard": 6034,
      "Ġappealing": 6035,
      "Ġdiscovery": 6036,
      "35": 6037,
      "mod": 6038,
      "inger": 6039,
      "Ġbed": 6040,
      "roduce": 6041,
      "econd": 6042,
      "Ġpolice": 6043,
      "Ġlearned": 6044,
      "Ġdrawing": 6045,
      "Ġrepeated": 6046,
      "Ġoverwhel": 6047,
      "Ġsenti": 6048,
      "ica": 6049,
      "Ġdemonstrating": 6050,
      "Ġsalary": 6051,
      "Ġsuperior": 6052,
      "ROM": 6053,
      "OT": 6054,
      "Ġstem": 6055,
      "direct": 6056,
      "Ġglance": 6057,
      "Ġvitamin": 6058,
      "rup": 6059,
      "Ġease": 6060,
      "rain": 6061,
      "Ġproperly": 6062,
      "Ġembrace": 6063,
      "Ġabsor": 6064,
      "ĠBlack": 6065,
      "ha": 6066,
      "irms": 6067,
      "Ġtraditions": 6068,
      "Ġobst": 6069,
      "Ġedge": 6070,
      "Ġpersonnel": 6071,
      "Ġdiscussing": 6072,
      "Ġrecommended": 6073,
      "pet": 6074,
      "Ġcards": 6075,
      "Ġment": 6076,
      "Ġcompare": 6077,
      "Ġdecimal": 6078,
      "Ġindicates": 6079,
      "Ġcategories": 6080,
      "Ġwitness": 6081,
      "Ġrace": 6082,
      "inese": 6083,
      "Ġhardware": 6084,
      "herence": 6085,
      "Ġmap": 6086,
      "Ġmaster": 6087,
      "ĠLeg": 6088,
      "ĠInformation": 6089,
      "Ġraw": 6090,
      "Ġphase": 6091,
      "Ġtrees": 6092,
      "Ġvoice": 6093,
      "lar": 6094,
      "Ġseven": 6095,
      "Ġformal": 6096,
      "Ġformation": 6097,
      "Ġrecognized": 6098,
      "idespread": 6099,
      "Ġthoughtful": 6100,
      "Ġrepresenting": 6101,
      "ĠHTML": 6102,
      "abel": 6103,
      "ĠIT": 6104,
      "titution": 6105,
      "Ġimmune": 6106,
      "Ġobserv": 6107,
      "64": 6108,
      "Ġreaching": 6109,
      "ĠHave": 6110,
      "Ġarticles": 6111,
      "Introduction": 6112,
      "Ġcapture": 6113,
      "Ġpricing": 6114,
      "Ġready": 6115,
      "Ġoptimization": 6116,
      "Ġzero": 6117,
      "Ġexpanding": 6118,
      "Ġillustrate": 6119,
      "Ġderived": 6120,
      "uce": 6121,
      "Ġwisdom": 6122,
      "lete": 6123,
      "ĠPat": 6124,
      "Ġentreprene": 6125,
      "Ġdiabetes": 6126,
      "Ġintricacies": 6127,
      "ĠTechnology": 6128,
      "ĠWater": 6129,
      "arent": 6130,
      "ĠJSON": 6131,
      "Ġleader": 6132,
      "Ġreflects": 6133,
      "Ġcharacterized": 6134,
      "ĠChristians": 6135,
      "Ġcultivating": 6136,
      "Ġvulnerable": 6137,
      "Ġreferred": 6138,
      "ĠValueError": 6139,
      "tile": 6140,
      "ĠBen": 6141,
      "Ġacce": 6142,
      "Ġfeeling": 6143,
      "ĠAmong": 6144,
      "Ġmotor": 6145,
      "Ġaren": 6146,
      "Ġinterventions": 6147,
      "free": 6148,
      "Ġfather": 6149,
      "Ġbonds": 6150,
      "Ġexempl": 6151,
      "Ġtransc": 6152,
      "Ġdesigning": 6153,
      "Ġevaluating": 6154,
      "28": 6155,
      "App": 6156,
      "Ġuppercase": 6157,
      "ancer": 6158,
      "Ġreturned": 6159,
      "println": 6160,
      "oral": 6161,
      "uccess": 6162,
      "Ġtrading": 6163,
      "Ġwhereas": 6164,
      "Ġholistic": 6165,
      "Ġwarr": 6166,
      "Ġ27": 6167,
      "Ġexperim": 6168,
      "ypes": 6169,
      "Ġsubjects": 6170,
      "ashion": 6171,
      "Ġaudio": 6172,
      "Ġ,": 6173,
      "Ġfollows": 6174,
      "ĠConn": 6175,
      "Ġmemories": 6176,
      "bruary": 6177,
      "Ġgradu": 6178,
      "Ġdatas": 6179,
      "ĠSub": 6180,
      "Ġworksh": 6181,
      "box": 6182,
      "Ġcrow": 6183,
      "isis": 6184,
      "Ġconsists": 6185,
      "Ġconnect": 6186,
      "Ġinvestigation": 6187,
      "Ġdream": 6188,
      "stone": 6189,
      "ĠJames": 6190,
      "Ġtargeted": 6191,
      "Ġfunding": 6192,
      "Ġargue": 6193,
      "Ġjoin": 6194,
      "Ġmanufacturers": 6195,
      "Ġbirds": 6196,
      "Ġdefense": 6197,
      "Ġpsychological": 6198,
      "Ġwonder": 6199,
      "rab": 6200,
      "Ġexcept": 6201,
      "Ġremoved": 6202,
      "Ġdistingu": 6203,
      "Ġende": 6204,
      "Ġcombat": 6205,
      "Ġtrou": 6206,
      "ĠMicro": 6207,
      "lst": 6208,
      "ĠGreat": 6209,
      "never": 6210,
      "Ġcenturies": 6211,
      "Ġcompletely": 6212,
      "Ġmissing": 6213,
      "Ġproposed": 6214,
      "eutic": 6215,
      "arp": 6216,
      "ĠHand": 6217,
      "Ġnoting": 6218,
      "Ġdisput": 6219,
      "Ġjur": 6220,
      "overty": 6221,
      "Ġagents": 6222,
      "Ġgenerating": 6223,
      "Ġspeech": 6224,
      "Ġperceived": 6225,
      "ĠIdentif": 6226,
      "nings": 6227,
      "state": 6228,
      "ĠMexic": 6229,
      "oper": 6230,
      "ĠYet": 6231,
      "Ġdelicate": 6232,
      "Ġ2004": 6233,
      "ecessary": 6234,
      "Ġtopic": 6235,
      "Ġpayment": 6236,
      "instance": 6237,
      "rust": 6238,
      "Ġwidespread": 6239,
      "ago": 6240,
      "ryption": 6241,
      "RL": 6242,
      "lower": 6243,
      "ĠEven": 6244,
      "Ġgoods": 6245,
      "Ġnorms": 6246,
      "Ġmic": 6247,
      "ĠBusiness": 6248,
      "Ġconservation": 6249,
      "Ġaddresses": 6250,
      "Ġsugar": 6251,
      "Ġdestro": 6252,
      "ĠOctober": 6253,
      "udes": 6254,
      "rated": 6255,
      "Ġtrib": 6256,
      "Ġast": 6257,
      "ourse": 6258,
      "Ġcrisis": 6259,
      "Ġentirely": 6260,
      "Ġpurchasing": 6261,
      "ĠMuslim": 6262,
      "Ġathletes": 6263,
      "current": 6264,
      "produc": 6265,
      "roph": 6266,
      "Ġchecking": 6267,
      "Ġadopting": 6268,
      "idity": 6269,
      "ĠSen": 6270,
      "Ġdetect": 6271,
      "Ġindicating": 6272,
      "ona": 6273,
      "Ġnative": 6274,
      "Ġauthors": 6275,
      "Ġelif": 6276,
      "ographical": 6277,
      "199": 6278,
      "Ġexistence": 6279,
      "ĠPerform": 6280,
      "Ġscholars": 6281,
      "BC": 6282,
      "Ġfrag": 6283,
      "Ġinclus": 6284,
      "Ġdisapp": 6285,
      "Ġscal": 6286,
      "Ġoutdo": 6287,
      "Ġmoist": 6288,
      "Ġthoughts": 6289,
      "Acc": 6290,
      "stream": 6291,
      "ĠMuse": 6292,
      "Ġthanks": 6293,
      "Ġ194": 6294,
      "Ġcorner": 6295,
      "Ġhabits": 6296,
      "Sum": 6297,
      "field": 6298,
      "Ġtip": 6299,
      "rep": 6300,
      "Ġheard": 6301,
      "Ġjoint": 6302,
      "ĠEnergy": 6303,
      "Ġattempts": 6304,
      "Ġenterpr": 6305,
      "New": 6306,
      "OS": 6307,
      "RI": 6308,
      "itz": 6309,
      "ician": 6310,
      "bed": 6311,
      "istan": 6312,
      "Ġextend": 6313,
      "Ġadministration": 6314,
      "Ġempowerment": 6315,
      "Ġcryptocurren": 6316,
      "Let": 6317,
      "Ġmouth": 6318,
      "Ġoblig": 6319,
      "Ġmotion": 6320,
      "Ġloan": 6321,
      "Ġelectricity": 6322,
      "Ġenthusiasts": 6323,
      "Ġrent": 6324,
      "cel": 6325,
      "ado": 6326,
      "Ġnoted": 6327,
      "ĠRepublic": 6328,
      "Ġmir": 6329,
      "ĠSal": 6330,
      "Ġsignal": 6331,
      "Ġsurgery": 6332,
      "ĠConf": 6333,
      "theless": 6334,
      "Ġpaid": 6335,
      "Ġlaun": 6336,
      "Ġcultivate": 6337,
      "Ġdimensions": 6338,
      "ĠTwo": 6339,
      "ĠCourt": 6340,
      "Ġdispl": 6341,
      "Ġmolec": 6342,
      "Ġcovered": 6343,
      "lets": 6344,
      "Ġsuit": 6345,
      "Ġinflamm": 6346,
      "Ġnearby": 6347,
      "spec": 6348,
      "Ġborder": 6349,
      "asp": 6350,
      "Ġnull": 6351,
      "Invalid": 6352,
      "Ġaccum": 6353,
      "tism": 6354,
      "Ġcro": 6355,
      "oub": 6356,
      "ĠMeanwhile": 6357,
      "Ġkit": 6358,
      "ĠChinese": 6359,
      "Ġprayer": 6360,
      "Ġreached": 6361,
      "Ġhop": 6362,
      "Ġforth": 6363,
      "Ġvict": 6364,
      "soft": 6365,
      "Ġretrie": 6366,
      "ĠCho": 6367,
      "Ġworked": 6368,
      "Ġ80": 6369,
      "Ġdetermined": 6370,
      "ĠInternet": 6371,
      "Ġflexible": 6372,
      "Ġinvolvement": 6373,
      "Ġarchitecture": 6374,
      "Ġreversed": 6375,
      "Ġnurturing": 6376,
      "Ġsand": 6377,
      "Ġwel": 6378,
      "Ġdoll": 6379,
      "enth": 6380,
      "Ġasked": 6381,
      "Ġincident": 6382,
      "Ġfavorite": 6383,
      "Ġtoxic": 6384,
      "eles": 6385,
      "ĠLife": 6386,
      "Ġprepare": 6387,
      "Ġrows": 6388,
      "Ġpractitioners": 6389,
      "mans": 6390,
      "telling": 6391,
      "style": 6392,
      "ĠRob": 6393,
      "Ġmitigate": 6394,
      "():": 6395,
      "ologists": 6396,
      "const": 6397,
      "Ġintegrated": 6398,
      "Ġemphasis": 6399,
      "ĠAND": 6400,
      "Ġbright": 6401,
      "cast": 6402,
      "Ġpand": 6403,
      "Ġvess": 6404,
      "ressing": 6405,
      "Ġestate": 6406,
      "Ġemphasizing": 6407,
      "Ġprecision": 6408,
      "oin": 6409,
      "Ġmand": 6410,
      "ĠString": 6411,
      "Ġprominent": 6412,
      "Ġoperate": 6413,
      "Ġinputs": 6414,
      "Ġaccompan": 6415,
      "otic": 6416,
      "ĠPol": 6417,
      "Ġperformed": 6418,
      "Ġmessaging": 6419,
      "grade": 6420,
      "ĠHIV": 6421,
      "ĠNever": 6422,
      "Ġflavor": 6423,
      "Ġstriking": 6424,
      "Cont": 6425,
      "Ġhyper": 6426,
      "ĠReturn": 6427,
      "Ġversatile": 6428,
      "ĠSEO": 6429,
      "ĠInitial": 6430,
      "Ġbottom": 6431,
      "inning": 6432,
      "Ġsought": 6433,
      "Ġunw": 6434,
      "ensus": 6435,
      "Ġretain": 6436,
      "othing": 6437,
      "arsh": 6438,
      "Ġexperiencing": 6439,
      "Ġfacilitating": 6440,
      "Ġabsolute": 6441,
      "Ġteacher": 6442,
      "->": 6443,
      "rific": 6444,
      "ĠGroup": 6445,
      "Ġnotice": 6446,
      "Ġlongest": 6447,
      "ĠExp": 6448,
      "Ġorigin": 6449,
      "32": 6450,
      "inity": 6451,
      "aria": 6452,
      "Ġtold": 6453,
      "asive": 6454,
      "ĠSer": 6455,
      "Ġreduction": 6456,
      "Ġpositively": 6457,
      "Ġstrike": 6458,
      "Ġdocumentation": 6459,
      "ĠTime": 6460,
      "ĠMount": 6461,
      "Ġabuse": 6462,
      "weight": 6463,
      "Ġdigit": 6464,
      "Ġpivotal": 6465,
      "Ġreinfor": 6466,
      "Ġinvestments": 6467,
      "Ġrecommendations": 6468,
      "All": 6469,
      "nam": 6470,
      "Ġsnow": 6471,
      "Ġreform": 6472,
      "ille": 6473,
      "inder": 6474,
      "Ġbeneficial": 6475,
      "Ġvideos": 6476,
      "Ġconflicts": 6477,
      "ĠGermany": 6478,
      "Ġslightly": 6479,
      "connected": 6480,
      "Ġly": 6481,
      "rote": 6482,
      "Ġvigil": 6483,
      "etary": 6484,
      "Ġsport": 6485,
      "Ġmeat": 6486,
      "ĠArch": 6487,
      "Ġstrive": 6488,
      "Ġparameter": 6489,
      "Ġcomfortable": 6490,
      "Ġpp": 6491,
      "âĢ¢": 6492,
      "Ġturned": 6493,
      "65": 6494,
      "Ġsizes": 6495,
      "Ġmov": 6496,
      "ĠDiv": 6497,
      "Ġempow": 6498,
      "ĠInteg": 6499,
      "points": 6500,
      "John": 6501,
      "Ġlens": 6502,
      "apers": 6503,
      "Ġtrain": 6504,
      "ĠExample": 6505,
      "Ġtreated": 6506,
      "Ġacknowledging": 6507,
      "Ġcriminal": 6508,
      "ygen": 6509,
      "Ġcomposition": 6510,
      "ĠOut": 6511,
      "Ġmanif": 6512,
      "ĊĠĠĊĠ": 6513,
      "Ġinstallation": 6514,
      "Ġimagine": 6515,
      "Ġcooperation": 6516,
      "zy": 6517,
      "Ġca": 6518,
      "orge": 6519,
      "Ġaspiring": 6520,
      "Some": 6521,
      "uit": 6522,
      "wood": 6523,
      "Ġsample": 6524,
      "ulf": 6525,
      "Ġ2003": 6526,
      "Ġskilled": 6527,
      "ĠCommission": 6528,
      "Ġsummary": 6529,
      "ĠSy": 6530,
      "Ġstudying": 6531,
      "Ġ&&": 6532,
      "ĠEmbr": 6533,
      "Despite": 6534,
      "Before": 6535,
      "onal": 6536,
      "Ġphr": 6537,
      "Ġaccomplish": 6538,
      "Ġtips": 6539,
      "Ġ195": 6540,
      "Ġblend": 6541,
      "Ġlearners": 6542,
      "Ġlighting": 6543,
      "Ġemphasizes": 6544,
      "Ġstatistics": 6545,
      "Ġsweet": 6546,
      "ns": 6547,
      "Ġson": 6548,
      "uling": 6549,
      "Ġisinstance": 6550,
      "ĠBet": 6551,
      "Ġcentered": 6552,
      "Ġmarg": 6553,
      "ĠAccess": 6554,
      "tw": 6555,
      "ĠBel": 6556,
      "Ġleaves": 6557,
      "rences": 6558,
      "Ġgrade": 6559,
      "Ġlabel": 6560,
      "qr": 6561,
      "Ġspring": 6562,
      "Ġprison": 6563,
      "ears": 6564,
      "Ġreflection": 6565,
      "Ġperformances": 6566,
      "Ġsupported": 6567,
      "Ġelectronic": 6568,
      "Ġseconds": 6569,
      "Ġtherapeutic": 6570,
      "Ġsufficient": 6571,
      "rec": 6572,
      "Ġmath": 6573,
      "ĠCare": 6574,
      "ighter": 6575,
      "Ġadult": 6576,
      "Ġoccurrences": 6577,
      "Ġvolunte": 6578,
      "LECT": 6579,
      "Ġoverlook": 6580,
      "Time": 6581,
      "Ġtun": 6582,
      "Ġju": 6583,
      "Ġmarked": 6584,
      "Ġcenters": 6585,
      "Ġmatches": 6586,
      "Ġstarts": 6587,
      "Ġexpansion": 6588,
      "Beyond": 6589,
      "rian": 6590,
      "overning": 6591,
      "Ġexposed": 6592,
      "Ġmajority": 6593,
      "Ġsounds": 6594,
      "Ġcategory": 6595,
      "Ġbacteria": 6596,
      "CS": 6597,
      "Gu": 6598,
      "rew": 6599,
      "Ġcast": 6600,
      "isd": 6601,
      "Ġbrief": 6602,
      "Ġmerge": 6603,
      "Ġdied": 6604,
      "Ġsecuring": 6605,
      "Ġcompleted": 6606,
      "Ġhousehold": 6607,
      "Ġownership": 6608,
      "Ġsophisticated": 6609,
      "Ġnic": 6610,
      "Ġparalle": 6611,
      "Ġattor": 6612,
      "Ġradiation": 6613,
      "Ġreviews": 6614,
      "Ġriver": 6615,
      "ĠTexas": 6616,
      "za": 6617,
      "umin": 6618,
      "Ġkn": 6619,
      "Ġkeys": 6620,
      "Ġconnecting": 6621,
      ".\")": 6622,
      "Ġcertainly": 6623,
      "iday": 6624,
      "uster": 6625,
      "Ġcompens": 6626,
      "ĠOnly": 6627,
      "Ġargument": 6628,
      "Ġvirus": 6629,
      "Ġdurability": 6630,
      "Ġshifts": 6631,
      "Ġincred": 6632,
      "Ġruns": 6633,
      "Ġoccurred": 6634,
      "Ġsavings": 6635,
      "Ġframeworks": 6636,
      "Ġindeed": 6637,
      "ĠSecurity": 6638,
      "Ġpreparation": 6639,
      "Us": 6640,
      "asure": 6641,
      "uting": 6642,
      "ĠRich": 6643,
      "Ġstanding": 6644,
      "Ġbelieved": 6645,
      "Ġnarrow": 6646,
      "Ġera": 6647,
      "Ġseamlessly": 6648,
      "Ġchemicals": 6649,
      "Ġinstrument": 6650,
      "Ġentertainment": 6651,
      ",'": 6652,
      "ĠFace": 6653,
      "ĠNetwor": 6654,
      "Ġraises": 6655,
      "Ġentails": 6656,
      "Ġdigits": 6657,
      "ĠFlor": 6658,
      "ĠFebruary": 6659,
      "Americ": 6660,
      "LA": 6661,
      "Ġbone": 6662,
      "Ġorganized": 6663,
      "ĠReview": 6664,
      "fac": 6665,
      "iveness": 6666,
      "Ġelection": 6667,
      "ĠKnow": 6668,
      "ĠAsia": 6669,
      "Ġsurvey": 6670,
      "Ġchanged": 6671,
      "ĠVirgin": 6672,
      "lock": 6673,
      "Ġstars": 6674,
      "Ġunity": 6675,
      "Ġdisorder": 6676,
      "Ġtimely": 6677,
      "Ġpersons": 6678,
      "Ġseasoned": 6679,
      "Ġreminder": 6680,
      "Ġpivot": 6681,
      "ste": 6682,
      "using": 6683,
      "ĠFore": 6684,
      "ĠNode": 6685,
      "ĠAtl": 6686,
      "ĠCentral": 6687,
      "HER": 6688,
      "ruption": 6689,
      "Ġ90": 6690,
      "iblical": 6691,
      "Hello": 6692,
      "erior": 6693,
      "Ġpure": 6694,
      "ĠSaf": 6695,
      "Ġcontrac": 6696,
      "agine": 6697,
      "Ġshowed": 6698,
      "Ġinspire": 6699,
      "Ġpredict": 6700,
      "mun": 6701,
      "Ġsession": 6702,
      "orrect": 6703,
      "ĠWhite": 6704,
      "Ġ2001": 6705,
      "ĠFranc": 6706,
      "Ġacceler": 6707,
      "netic": 6708,
      "Ġdesigners": 6709,
      "Ġachieved": 6710,
      "scale": 6711,
      "No": 6712,
      "find": 6713,
      "omas": 6714,
      "ria": 6715,
      "ĠMem": 6716,
      "Ġcolleagues": 6717,
      "Ġcontrols": 6718,
      "Ġelectrical": 6719,
      "Ġgrace": 6720,
      "onomy": 6721,
      "Ġdegrees": 6722,
      "ME": 6723,
      "onge": 6724,
      "employ": 6725,
      "Ġprevention": 6726,
      "Ġrad": 6727,
      "Ġprofit": 6728,
      "ĠAnaly": 6729,
      "Ġimmense": 6730,
      "ĠAustralia": 6731,
      "Ġrelying": 6732,
      "Ġgoverning": 6733,
      "chain": 6734,
      "ĠFollow": 6735,
      "ĠLord": 6736,
      "Ġmedian": 6737,
      "Ġpool": 6738,
      "Ġinfluencing": 6739,
      "wing": 6740,
      "Ġsed": 6741,
      "Ġbow": 6742,
      "ĠAS": 6743,
      "ĠMake": 6744,
      "Ġtemporary": 6745,
      "ĠMedicine": 6746,
      "Ġinstructions": 6747,
      "38": 6748,
      "DF": 6749,
      "under": 6750,
      "Ġrewards": 6751,
      "ĠBay": 6752,
      "Ġimper": 6753,
      "ogether": 6754,
      "ĠSte": 6755,
      "asm": 6756,
      "Ġlung": 6757,
      "ĠSam": 6758,
      "ĠNon": 6759,
      "uality": 6760,
      "Ġinteractive": 6761,
      "Ġrefine": 6762,
      "Ġdiscussed": 6763,
      "Ġurl": 6764,
      "Ġreveals": 6765,
      "Ġbaby": 6766,
      "manship": 6767,
      "nti": 6768,
      "inner": 6769,
      "ĠRather": 6770,
      "Ġsections": 6771,
      "Ġdivision": 6772,
      "Ġillness": 6773,
      "Ġproteins": 6774,
      "Ġobstacles": 6775,
      "ÃŃ": 6776,
      "Ġmale": 6777,
      "ĠBible": 6778,
      "ĠLook": 6779,
      "taining": 6780,
      "Ġtargets": 6781,
      "Ġreligion": 6782,
      "ĠJews": 6783,
      "anes": 6784,
      "ĠDist": 6785,
      "avas": 6786,
      "Ġpatience": 6787,
      "Ġestimated": 6788,
      "Ġthrive": 6789,
      "Ġvowels": 6790,
      "Ġunnecessary": 6791,
      "lin": 6792,
      "inant": 6793,
      "iled": 6794,
      "Ġgem": 6795,
      "Ġgave": 6796,
      "ĠMiss": 6797,
      "Ġversions": 6798,
      "Ġreliability": 6799,
      "Ġexercises": 6800,
      "Ġdiagnosis": 6801,
      "Ġadventure": 6802,
      "Ġadvertising": 6803,
      "']": 6804,
      "unk": 6805,
      "oval": 6806,
      "Ġheritage": 6807,
      "ĠArt": 6808,
      "Ġemotion": 6809,
      "Ġpromotes": 6810,
      "Ġsacrific": 6811,
      "tims": 6812,
      "root": 6813,
      "ĠTur": 6814,
      "uests": 6815,
      "Ġtransmission": 6816,
      "Ġ190": 6817,
      "Ġautomatically": 6818,
      "Ġprospects": 6819,
      "Ġacquis": 6820,
      "ĠMuseum": 6821,
      "cher": 6822,
      "gs": 6823,
      "ĠSa": 6824,
      "Ġhelped": 6825,
      "Ġteeth": 6826,
      "Ġtreating": 6827,
      "Ġfrequent": 6828,
      "Ġcomprehension": 6829,
      "Ġconstantly": 6830,
      "From": 6831,
      "hetics": 6832,
      "iform": 6833,
      "ĠIran": 6834,
      "ordinary": 6835,
      "Ġreputable": 6836,
      "Ġwaiting": 6837,
      "Ġpremium": 6838,
      "Ġbegins": 6839,
      "bi": 6840,
      "Ġfashion": 6841,
      "ĠID": 6842,
      "ocking": 6843,
      "Ġwhenever": 6844,
      "ĠStand": 6845,
      "Ġ35": 6846,
      "Ġfinance": 6847,
      "BN": 6848,
      "Ġpush": 6849,
      "isher": 6850,
      "Ġhour": 6851,
      "Ġgets": 6852,
      "Ġelig": 6853,
      "plicated": 6854,
      "Ġremained": 6855,
      "Ġpressing": 6856,
      "Ġallevi": 6857,
      "Ġwrote": 6858,
      "roid": 6859,
      "Ġthick": 6860,
      "ocument": 6861,
      "udden": 6862,
      "ulty": 6863,
      "Ġcollaborative": 6864,
      "Ġcorporate": 6865,
      "band": 6866,
      "oon": 6867,
      "Ġsen": 6868,
      "Ġocean": 6869,
      "Ġstead": 6870,
      "Ġven": 6871,
      "Ġ29": 6872,
      "ĠVi": 6873,
      "ĠRev": 6874,
      "Ġversatility": 6875,
      "Cons": 6876,
      "core": 6877,
      "Ġwire": 6878,
      "udd": 6879,
      "agram": 6880,
      "Ġvisually": 6881,
      "Ġclassroom": 6882,
      "Ġstorytelling": 6883,
      "ĠGovernment": 6884,
      "Ġther": 6885,
      "ĠBrit": 6886,
      "ĠAcadem": 6887,
      "Ġcryst": 6888,
      "Ġgir": 6889,
      "ota": 6890,
      "ĠPost": 6891,
      "ĊĠĠĠĠĠĠĠĠĠ": 6892,
      "Ġ===": 6893,
      "Ġdilig": 6894,
      "Ġlifestyle": 6895,
      "faceted": 6896,
      "ES": 6897,
      "Ġalter": 6898,
      "ĠHol": 6899,
      "Ġeleg": 6900,
      "Ġorders": 6901,
      "ta": 6902,
      "tors": 6903,
      "Ġsides": 6904,
      "Ġdetermination": 6905,
      "Ġexpressions": 6906,
      "Ġfixed": 6907,
      "Ġneighbor": 6908,
      "Gen": 6909,
      "Ġsurve": 6910,
      "Ġspeaking": 6911,
      "Ġpunct": 6912,
      "VID": 6913,
      "Ġcash": 6914,
      "ĠSl": 6915,
      "ĠWork": 6916,
      "ĠNum": 6917,
      "example": 6918,
      "anged": 6919,
      "Ġimmig": 6920,
      "sembly": 6921,
      "ĠMr": 6922,
      "Ġdepends": 6923,
      "Ġbreaking": 6924,
      "Ġposts": 6925,
      "ĠPeople": 6926,
      "Ġcontrolled": 6927,
      "yr": 6928,
      "Ġcher": 6929,
      "ĠCode": 6930,
      "umps": 6931,
      "Ġyellow": 6932,
      "ĠMass": 6933,
      "ĠWind": 6934,
      "Ġeveryday": 6935,
      "Ġpreserve": 6936,
      "Ġpick": 6937,
      "Ġpoverty": 6938,
      "Ġcalculates": 6939,
      "qrt": 6940,
      "Ġrac": 6941,
      "actors": 6942,
      "Ġsubtle": 6943,
      "Ġfinally": 6944,
      "Ġcontrovers": 6945,
      "Ġdidn": 6946,
      "Ġprocedure": 6947,
      "Ġmemorable": 6948,
      "well": 6949,
      "alled": 6950,
      "Ġdescription": 6951,
      "Ġretail": 6952,
      "ĠViet": 6953,
      "Ġoperators": 6954,
      "Ġtargeting": 6955,
      "ĠIsland": 6956,
      "Next": 6957,
      "US": 6958,
      "racy": 6959,
      "Ġcere": 6960,
      "ola": 6961,
      "Ġsucceed": 6962,
      "hesis": 6963,
      "Ġflat": 6964,
      "Ġoperator": 6965,
      "Please": 6966,
      "dep": 6967,
      "ture": 6968,
      "ref": 6969,
      "erved": 6970,
      "otes": 6971,
      "ĠCath": 6972,
      "Ġoral": 6973,
      "ocation": 6974,
      "venues": 6975,
      "ruits": 6976,
      "fortunately": 6977,
      "Ġreflecting": 6978,
      "ĠServices": 6979,
      "Ġtangible": 6980,
      "75": 6981,
      "IA": 6982,
      "erves": 6983,
      "Ġdating": 6984,
      "Ġtypical": 6985,
      "Ġphenomenon": 6986,
      "alysis": 6987,
      "Ġthr": 6988,
      "Ġforget": 6989,
      "Ġwhom": 6990,
      "Ġincidents": 6991,
      "lessly": 6992,
      "Ġallocation": 6993,
      "ĠCongress": 6994,
      "Ġtutorial": 6995,
      "crib": 6996,
      "attle": 6997,
      "Ġfont": 6998,
      "Ġrender": 6999,
      "Ġrating": 7000,
      "ieties": 7001,
      "ĠNews": 7002,
      "Ġfloor": 7003,
      "De": 7004,
      "rete": 7005,
      "Ġstated": 7006,
      "Ġdesire": 7007,
      "ĠPhys": 7008,
      "Ġadoption": 7009,
      "Ġdiscrimination": 7010,
      "gl": 7011,
      "gers": 7012,
      "Ġpartner": 7013,
      "Ġlived": 7014,
      "Ġhousing": 7015,
      "Ġoxygen": 7016,
      "Ġinher": 7017,
      "hering": 7018,
      "Ġneuro": 7019,
      "ĠUK": 7020,
      "Ġrecyc": 7021,
      "Ġenduring": 7022,
      "worth": 7023,
      "Ġessence": 7024,
      "Ġgrand": 7025,
      "ĠIndeed": 7026,
      "Ġfloat": 7027,
      "dri": 7028,
      "Ġsend": 7029,
      "Ġeating": 7030,
      "Ġtraum": 7031,
      "primes": 7032,
      "tify": 7033,
      "ĠSpace": 7034,
      "Ġavoiding": 7035,
      "BD": 7036,
      "Ġcomplications": 7037,
      "ĠMag": 7038,
      "ĠBecause": 7039,
      "Ġpresident": 7040,
      "Ġdepos": 7041,
      "Ġextraordinary": 7042,
      "Ġfirms": 7043,
      "Ġupcoming": 7044,
      "Ġinterconnected": 7045,
      "Ġexpensive": 7046,
      "Ġdetection": 7047,
      "Ġrelevance": 7048,
      "ĠEstabl": 7049,
      "Count": 7050,
      "Ġreactions": 7051,
      "essage": 7052,
      "ĠPers": 7053,
      "ĠDet": 7054,
      "ords": 7055,
      "Ġinvent": 7056,
      "merce": 7057,
      "Ġ500": 7058,
      "Ġcomputing": 7059,
      "ĠPhil": 7060,
      "Ġdestroy": 7061,
      "ki": 7062,
      "plom": 7063,
      "Ġleverage": 7064,
      "Ġdispos": 7065,
      "Ġcoaches": 7066,
      "Ġpassing": 7067,
      "Ġbattle": 7068,
      "Ġbus": 7069,
      "ĠPlus": 7070,
      "Ġassume": 7071,
      "ĠAnother": 7072,
      "Ġharmful": 7073,
      "ĠFrance": 7074,
      "Ġmotivation": 7075,
      "ĠRussia": 7076,
      "Ġinvalid": 7077,
      "sal": 7078,
      "Ġfan": 7079,
      "Ġenem": 7080,
      "ĠPersonal": 7081,
      "Ġunlike": 7082,
      "Ġperman": 7083,
      "Ġservers": 7084,
      "Ġcohes": 7085,
      "Ġcoaching": 7086,
      "aturally": 7087,
      "Rec": 7088,
      "ocol": 7089,
      "ĠFunction": 7090,
      "Ġmusical": 7091,
      "Ġsubstance": 7092,
      "onomic": 7093,
      "gi": 7094,
      "erb": 7095,
      "Ġprints": 7096,
      "Ġlistening": 7097,
      "console": 7098,
      "Ġdefault": 7099,
      "Ġfinds": 7100,
      "Ġ2002": 7101,
      "Ġemploying": 7102,
      "Ġnetworking": 7103,
      "Ġmilk": 7104,
      "bing": 7105,
      "lers": 7106,
      "nic": 7107,
      "oys": 7108,
      "itter": 7109,
      "Ġfoss": 7110,
      "ĠBas": 7111,
      "Ġjobs": 7112,
      "Ġwait": 7113,
      "tices": 7114,
      "Ġintroduce": 7115,
      "luded": 7116,
      "ĠVis": 7117,
      "oven": 7118,
      "Ġ45": 7119,
      "parts": 7120,
      "Ġlargely": 7121,
      "Ġtrials": 7122,
      "Ġalignment": 7123,
      "ka": 7124,
      "last": 7125,
      "rum": 7126,
      "Ġselling": 7127,
      "Ġrh": 7128,
      "Ġflavors": 7129,
      "Ġconsiderable": 7130,
      "Ġdepression": 7131,
      "Ġnecessarily": 7132,
      "Ġinnovations": 7133,
      "Ġachievements": 7134,
      "bor": 7135,
      "Ġdates": 7136,
      "acific": 7137,
      "Ġguests": 7138,
      "ĠLike": 7139,
      "ĠKore": 7140,
      "Ġmedications": 7141,
      "Ġlosses": 7142,
      "avascript": 7143,
      "Ġcomment": 7144,
      "Ġsubstring": 7145,
      "Ġattending": 7146,
      "Ġ70": 7147,
      "Ġtrip": 7148,
      "ĠClass": 7149,
      "ĠSum": 7150,
      "ĠWomen": 7151,
      "ĠRights": 7152,
      "ĠGre": 7153,
      "Ġdisp": 7154,
      "Ġshel": 7155,
      "Ġpackage": 7156,
      "sorted": 7157,
      "]:": 7158,
      "Ġtes": 7159,
      "Ġfold": 7160,
      "Ġborrow": 7161,
      "ĠBi": 7162,
      "Ġhearing": 7163,
      "Ġconscious": 7164,
      "Ġdisplays": 7165,
      "Ġraising": 7166,
      "Ġhumanity": 7167,
      "Ġpaint": 7168,
      "ĠEmploy": 7169,
      "Ġsteel": 7170,
      "36": 7171,
      "zed": 7172,
      "itis": 7173,
      "ĠGold": 7174,
      "Ġpeak": 7175,
      "Ġflour": 7176,
      "Ġgrapp": 7177,
      "Ġactors": 7178,
      "ndrome": 7179,
      "Ġdrop": 7180,
      "Ġneck": 7181,
      "ĠĠĠĠĠĠĠĠ": 7182,
      "Ġforced": 7183,
      "resent": 7184,
      "email": 7185,
      "ĠCommit": 7186,
      "ĠExamples": 7187,
      "Ġarguments": 7188,
      "Char": 7189,
      "Ġcolumns": 7190,
      "ĠOffice": 7191,
      "cell": 7192,
      "ĠCr": 7193,
      "Ġperpet": 7194,
      "Ġmanner": 7195,
      "Ġkid": 7196,
      "Ġrati": 7197,
      "Ġpromise": 7198,
      "ĠProduc": 7199,
      "party": 7200,
      "Ġcollected": 7201,
      "Ġportion": 7202,
      "Ġpandemic": 7203,
      "ael": 7204,
      "alph": 7205,
      "Ġfab": 7206,
      "Ġnodes": 7207,
      "igen": 7208,
      "ĠLou": 7209,
      "berg": 7210,
      "obb": 7211,
      "Ġdecided": 7212,
      "Ġsurfaces": 7213,
      "Ġcoal": 7214,
      "Ġagreements": 7215,
      "ĠCollabor": 7216,
      "CO": 7217,
      "edy": 7218,
      "ĠRober": 7219,
      "ĠJud": 7220,
      "Ġinsight": 7221,
      "Ġcurric": 7222,
      "Ġsuppor": 7223,
      "Ġvector": 7224,
      "Ġemerged": 7225,
      "Ġbiological": 7226,
      "Ġpictures": 7227,
      "Ġinclusivity": 7228,
      "LL": 7229,
      "Sub": 7230,
      "element": 7231,
      "public": 7232,
      "Ġreaction": 7233,
      "Ġgun": 7234,
      "pled": 7235,
      "ĠStart": 7236,
      "Ġhospit": 7237,
      "Ġintriguing": 7238,
      "HERE": 7239,
      "AP": 7240,
      "Ġsubmit": 7241,
      "ĠProject": 7242,
      "Ġrepresented": 7243,
      "Ġfewer": 7244,
      "Ġbringing": 7245,
      "Ġdogs": 7246,
      "Ġpenal": 7247,
      "first": 7248,
      "javascript": 7249,
      "type": 7250,
      "Ġsamples": 7251,
      "rooms": 7252,
      "Ġstable": 7253,
      "uts": 7254,
      "Ġnotion": 7255,
      "Ġexcite": 7256,
      "Ġfishing": 7257,
      "ette": 7258,
      "Ġstores": 7259,
      "Ġcrime": 7260,
      "Ġvisible": 7261,
      "Ġmultifaceted": 7262,
      "Ġholding": 7263,
      "ĠHistor": 7264,
      "ĠInitialize": 7265,
      "da": 7266,
      "Ġsold": 7267,
      "Ġcompos": 7268,
      "ĠDig": 7269,
      "ubble": 7270,
      "ieve": 7271,
      "ĠColor": 7272,
      "Ġtransformative": 7273,
      "Ġtight": 7274,
      "Ġwall": 7275,
      "Ġbrow": 7276,
      "Ġnoise": 7277,
      "Ġliquid": 7278,
      "ĠFacebook": 7279,
      "Ġsin": 7280,
      "Ġreward": 7281,
      "Ġnone": 7282,
      "ĠIter": 7283,
      "Ġcommunications": 7284,
      "Ġcleaning": 7285,
      "Ġmachines": 7286,
      "Ġjudg": 7287,
      "Ġsectors": 7288,
      "Ġexhibit": 7289,
      "Ġshowcasing": 7290,
      "ĠChildren": 7291,
      "Explanation": 7292,
      "ĠNevertheless": 7293,
      "gent": 7294,
      "ograp": 7295,
      "())": 7296,
      "Ġgrant": 7297,
      "ĠCompany": 7298,
      "Ġaffordable": 7299,
      "Ġdivided": 7300,
      "Ġuncertainty": 7301,
      "random": 7302,
      "itim": 7303,
      "Ġpreval": 7304,
      "Ġfamous": 7305,
      "ĠCalculate": 7306,
      "Ġcomparison": 7307,
      "nov": 7308,
      "Ġpushing": 7309,
      "Ġsecret": 7310,
      "Ġfactorial": 7311,
      "ĠAnn": 7312,
      "Ġgovernance": 7313,
      "Ġveter": 7314,
      "aughter": 7315,
      "Over": 7316,
      "Ġpropor": 7317,
      "ĠBro": 7318,
      "Ġjoy": 7319,
      "Ġsalt": 7320,
      "Ġadjustments": 7321,
      "Ġpursuing": 7322,
      "Ġhospital": 7323,
      "Ġstone": 7324,
      "Ġmeal": 7325,
      "Ġlogic": 7326,
      "Ġfailed": 7327,
      "Ġphotograph": 7328,
      "Ġrecursion": 7329,
      "Ġvictims": 7330,
      "Ġencountered": 7331,
      "ĠMicrosoft": 7332,
      ".;": 7333,
      "ders": 7334,
      "Ġcos": 7335,
      "omy": 7336,
      "Ġplenty": 7337,
      "Ġovercome": 7338,
      "Ġpolicym": 7339,
      "Ġhappen": 7340,
      "ĠRussian": 7341,
      "Ġcaptivating": 7342,
      "ĠFoundation": 7343,
      "PE": 7344,
      "tible": 7345,
      "Ġtoler": 7346,
      "Ġadherence": 7347,
      "ĠResp": 7348,
      "ĠControl": 7349,
      "');": 7350,
      "chers": 7351,
      "Ġnurs": 7352,
      "ĠAlex": 7353,
      "Ġplastic": 7354,
      "Ġrain": 7355,
      "Ġwindow": 7356,
      "Ġduplicates": 7357,
      "range": 7358,
      "estiv": 7359,
      "Ġpairs": 7360,
      "ĠFood": 7361,
      "Ġdishes": 7362,
      "Ġmeals": 7363,
      "Ġequity": 7364,
      "Ġturning": 7365,
      "Ġdebate": 7366,
      "Ġexpressed": 7367,
      "Ġmorning": 7368,
      "Ġgaming": 7369,
      "Ġsentiment": 7370,
      "31": 7371,
      "bles": 7372,
      "Ġfle": 7373,
      "Ġgall": 7374,
      "ĠArab": 7375,
      "ĠBre": 7376,
      "Ġemerge": 7377,
      "Ġampl": 7378,
      "Ġdestr": 7379,
      "Ġeggs": 7380,
      "pact": 7381,
      "uate": 7382,
      "Ġeager": 7383,
      "Ġgap": 7384,
      "Ġarm": 7385,
      "Ġindicators": 7386,
      "ascular": 7387,
      "ĠEnvironmental": 7388,
      "Understanding": 7389,
      "chen": 7390,
      "iat": 7391,
      "Ġpu": 7392,
      "Ġvs": 7393,
      "ĠFederal": 7394,
      "ĠWell": 7395,
      "ĠHen": 7396,
      "Ġconsole": 7397,
      "Ġscores": 7398,
      "Ġencryption": 7399,
      "($": 7400,
      "BA": 7401,
      "Ġreti": 7402,
      "Ġ(\"": 7403,
      "Ġfluct": 7404,
      "Ġdelight": 7405,
      "Ġmultipl": 7406,
      "ircraft": 7407,
      "ĠStudy": 7408,
      "Ġwalk": 7409,
      "Ġsurvival": 7410,
      "Ġresonate": 7411,
      "Ġpregnancy": 7412,
      "Ġarrangements": 7413,
      "34": 7414,
      "37": 7415,
      "TP": 7416,
      "heme": 7417,
      "anch": 7418,
      "ĠElect": 7419,
      "Ġresist": 7420,
      "ĠOld": 7421,
      "Ġmodifications": 7422,
      "Ġentered": 7423,
      "Ġshowing": 7424,
      "Ġforest": 7425,
      "Ġagreement": 7426,
      "ongevity": 7427,
      "Ġcodes": 7428,
      "adian": 7429,
      "ĠLong": 7430,
      "strings": 7431,
      "Ġerroneous": 7432,
      "Ġminds": 7433,
      "Ġsensitivity": 7434,
      "Ġlatter": 7435,
      "Ġdistributed": 7436,
      "mm": 7437,
      "Ġhorm": 7438,
      "Ġloved": 7439,
      "Ġshoot": 7440,
      "Ġworship": 7441,
      "ĠNF": 7442,
      "ĠPlan": 7443,
      "Ġprospective": 7444,
      "Ġrestrictions": 7445,
      "Ġprinciple": 7446,
      ".|": 7447,
      "39": 7448,
      "Ġiron": 7449,
      "Ġpump": 7450,
      "Ġfill": 7451,
      "Ġstreamline": 7452,
      "Ġempowering": 7453,
      "Ġadversity": 7454,
      "Ġentrepreneurs": 7455,
      "Ġaf": 7456,
      "itude": 7457,
      "ulum": 7458,
      "ername": 7459,
      "Ġgrass": 7460,
      "Ġiterates": 7461,
      "Ġconversation": 7462,
      "Ġdebt": 7463,
      "ĠReport": 7464,
      "step": 7465,
      "Ġrough": 7466,
      "ĠLastly": 7467,
      "Ġapparent": 7468,
      "Ġsignals": 7469,
      "criptions": 7470,
      "Ġsuffering": 7471,
      "Ġfluid": 7472,
      "Ġgradually": 7473,
      "ĠFlorida": 7474,
      "mid": 7475,
      "normal": 7476,
      "Ġenrich": 7477,
      "ĠMiddle": 7478,
      "ostic": 7479,
      "Ġcalculated": 7480,
      "Ġgreatly": 7481,
      "ĠEmp": 7482,
      "Ġfalls": 7483,
      "TC": 7484,
      "aser": 7485,
      "Ġrural": 7486,
      "orship": 7487,
      "Ġmanagers": 7488,
      "Ġrelief": 7489,
      "pection": 7490,
      "Ġviewers": 7491,
      "Ġduration": 7492,
      "Ġremoving": 7493,
      "atell": 7494,
      "ĠCur": 7495,
      "Ġcomments": 7496,
      "Ġcompris": 7497,
      "Ġmode": 7498,
      "Ġflood": 7499,
      "Ġmuscles": 7500,
      "Ġdance": 7501,
      "cep": 7502,
      "ĠGreek": 7503,
      "Ġimmun": 7504,
      "Exception": 7505,
      "Ġobjective": 7506,
      "Ġdefinition": 7507,
      "Ġwalls": 7508,
      "Ġbot": 7509,
      "iger": 7510,
      "uming": 7511,
      "Ġallerg": 7512,
      "ĠInf": 7513,
      "Ġintegral": 7514,
      "apped": 7515,
      "tification": 7516,
      "process": 7517,
      "Ġvolumes": 7518,
      "Ġtransforming": 7519,
      "Ġadopted": 7520,
      "Ġsuggested": 7521,
      "Ġpreparing": 7522,
      "Ġlicens": 7523,
      "ĠHome": 7524,
      "ĠGiven": 7525,
      "Ġapps": 7526,
      "Ġequival": 7527,
      "Ġaffects": 7528,
      "Ġhappens": 7529,
      "ĠEnsure": 7530,
      "Ġexplicitly": 7531,
      "Ġexcitement": 7532,
      "Ġsti": 7533,
      "Ġsour": 7534,
      "Ġconvey": 7535,
      "ĠSort": 7536,
      "ĠWild": 7537,
      "Ġweap": 7538,
      "Ġindices": 7539,
      "erring": 7540,
      "Ġmarine": 7541,
      "Ġinfluences": 7542,
      "Ġpercentage": 7543,
      "Ġpartnership": 7544,
      "ĠSmith": 7545,
      "));": 7546,
      "IP": 7547,
      "ffee": 7548,
      "Ġproven": 7549,
      "Ġoutcome": 7550,
      "Ġforming": 7551,
      "Ġprotected": 7552,
      "Ġapplicable": 7553,
      "ĠOnline": 7554,
      "Ġzone": 7555,
      "Ġcatering": 7556,
      "500": 7557,
      "test": 7558,
      "anish": 7559,
      "Ġnaturally": 7560,
      "igure": 7561,
      "Ġunless": 7562,
      "eger": 7563,
      "Ġcareers": 7564,
      "Ġpossibility": 7565,
      "ĠValley": 7566,
      "Ġconstitution": 7567,
      "Ġpalindrome": 7568,
      "ĠISBN": 7569,
      "Ġartificial": 7570,
      "AA": 7571,
      "iers": 7572,
      "medi": 7573,
      "Ġbiblical": 7574,
      "Ġstret": 7575,
      "Ġshut": 7576,
      "Ġvariations": 7577,
      "ĠAdminist": 7578,
      "ĠUnlike": 7579,
      "Ġequally": 7580,
      "ossible": 7581,
      "Ġpromptly": 7582,
      "Ġaesthetics": 7583,
      "kin": 7584,
      "Ġfif": 7585,
      "Ġwine": 7586,
      "Ġlooks": 7587,
      "ĠBuilding": 7588,
      "Ġadm": 7589,
      "Ġdestination": 7590,
      "Ġextremely": 7591,
      "Ã¡": 7592,
      "alt": 7593,
      "Ġpil": 7594,
      "amination": 7595,
      "ĠPsych": 7596,
      "ĠPolic": 7597,
      "Ġhandles": 7598,
      "inked": 7599,
      "ibrary": 7600,
      "ĠStudents": 7601,
      "Ġnecessitates": 7602,
      "Ġsafeguarding": 7603,
      "rators": 7604,
      "oning": 7605,
      "Ġdict": 7606,
      "ateral": 7607,
      "Ġextent": 7608,
      "Ġstructural": 7609,
      "Ġiteration": 7610,
      "ĠOpen": 7611,
      "ĠVirginia": 7612,
      "Ġtro": 7613,
      "oul": 7614,
      "olf": 7615,
      "chron": 7616,
      "ĠEconom": 7617,
      "inctive": 7618,
      "Ġmarriage": 7619,
      "Ġoptimizing": 7620,
      "anguage": 7621,
      "versely": 7622,
      "Ġembark": 7623,
      "Ġdescribe": 7624,
      "ĠCarol": 7625,
      "legal": 7626,
      "ĠCOVID": 7627,
      "matrix": 7628,
      "!\"": 7629,
      "Ġtooth": 7630,
      "Ġstat": 7631,
      "Ġprofile": 7632,
      "Ġoccurrence": 7633,
      "Ġharmon": 7634,
      "Ġinterpretation": 7635,
      "NS": 7636,
      "car": 7637,
      "Ġsudden": 7638,
      "esis": 7639,
      "ĠAnt": 7640,
      "reatment": 7641,
      "ĠChristianity": 7642,
      "Ġnuances": 7643,
      "Ġsupportive": 7644,
      "Ġgal": 7645,
      "Ġunp": 7646,
      "Ġregulation": 7647,
      "Ġculinary": 7648,
      "Ġbackgrounds": 7649,
      "ranch": 7650,
      "ĠGeorge": 7651,
      "Ġshifting": 7652,
      "Ġpreferred": 7653,
      "According": 7654,
      "Ġvote": 7655,
      "Ġdish": 7656,
      "Ġkil": 7657,
      "Ġconducting": 7658,
      "Ġpaths": 7659,
      "Ġsaying": 7660,
      "Ġmassive": 7661,
      "Ġconstitutes": 7662,
      "Ġadverse": 7663,
      "Ġdemocratic": 7664,
      "ĠIterate": 7665,
      "Se": 7666,
      "json": 7667,
      "heast": 7668,
      "uled": 7669,
      "Ġchief": 7670,
      "Ġtraits": 7671,
      "Ġmetals": 7672,
      "Ġmembr": 7673,
      "Ġfriend": 7674,
      "Ġoneself": 7675,
      "Ġdimin": 7676,
      "SELECT": 7677,
      "Ġnutrition": 7678,
      "Ġempowers": 7679,
      "eem": 7680,
      "rations": 7681,
      "Ġbold": 7682,
      "Ġlongevity": 7683,
      "igned": 7684,
      "Ġclarity": 7685,
      "Ġnewly": 7686,
      "Ġrepair": 7687,
      "Ġidentification": 7688,
      "198": 7689,
      "Ġindependence": 7690,
      "Ġweaknesses": 7691,
      "Ġworkshops": 7692,
      "Ġinflammation": 7693,
      "Ġcir": 7694,
      "ora": 7695,
      "itors": 7696,
      "Ġfro": 7697,
      "Ġwed": 7698,
      "ecurity": 7699,
      "Ġworry": 7700,
      "Ġhelpful": 7701,
      "titudes": 7702,
      "Ġends": 7703,
      "Ġcounterparts": 7704,
      "Ġsnipp": 7705,
      "ĠMarketing": 7706,
      "dem": 7707,
      "Ġcas": 7708,
      "Ġpra": 7709,
      "Ġmoved": 7710,
      "icking": 7711,
      "oted": 7712,
      "Ġintense": 7713,
      "Ġinclusion": 7714,
      "ĠGal": 7715,
      "ulties": 7716,
      "paralle": 7717,
      "Ġbuildings": 7718,
      "Ġinitiative": 7719,
      "Ġdrawn": 7720,
      "ĠGlobal": 7721,
      "label": 7722,
      "Ġwider": 7723,
      "Ġisland": 7724,
      "Ġparad": 7725,
      "Ġparticles": 7726,
      "Ġsmallest": 7727,
      "Ġroute": 7728,
      "discipl": 7729,
      "Ġtexts": 7730,
      "Ġbanks": 7731,
      "Ġspend": 7732,
      "Ġpersonalized": 7733,
      "Ġdangerous": 7734,
      "dig": 7735,
      "lining": 7736,
      "ĠCivil": 7737,
      "ĠURL": 7738,
      "Ġtheme": 7739,
      "Ġ31": 7740,
      "pring": 7741,
      "Ġinspired": 7742,
      "Ġframe": 7743,
      "Ġmoral": 7744,
      "Ġjurisd": 7745,
      "aten": 7746,
      "ĠEvery": 7747,
      "Ġweigh": 7748,
      "Ġpeers": 7749,
      "vious": 7750,
      "Ġlegacy": 7751,
      "Ġcomputers": 7752,
      "ĠQue": 7753,
      "Ġadopt": 7754,
      "win": 7755,
      "Ġawa": 7756,
      "Ġstic": 7757,
      "Ġnorthern": 7758,
      "Ġgod": 7759,
      "ĠSuccess": 7760,
      "ĠHel": 7761,
      "elfare": 7762,
      "Ġdifferenti": 7763,
      "ĠProcess": 7764,
      "ĠAtt": 7765,
      "Ġprinted": 7766,
      "Ġbalanced": 7767,
      "Ġcovering": 7768,
      "Ġexcellence": 7769,
      "Ġoutdoor": 7770,
      ".).": 7771,
      "DP": 7772,
      "ias": 7773,
      "ĠBook": 7774,
      "Ġintu": 7775,
      "ĠLabor": 7776,
      "Ġbutter": 7777,
      "Ġadvances": 7778,
      "Ġ2020": 7779,
      "Ġbridge": 7780,
      "Ġpayments": 7781,
      "ĠEngine": 7782,
      "Ġrooted": 7783,
      "Ġbuyers": 7784,
      "Ġopinions": 7785,
      "cest": 7786,
      "tious": 7787,
      "Ġwidth": 7788,
      "ĠCam": 7789,
      "Ġshopping": 7790,
      "Ġcann": 7791,
      "forward": 7792,
      "agraph": 7793,
      "Ġpreced": 7794,
      "Ġremoval": 7795,
      "Ġcarried": 7796,
      "ĠExt": 7797,
      "Ġwildlife": 7798,
      "ĠNASA": 7799,
      "oubted": 7800,
      "American": 7801,
      "ĠPlease": 7802,
      "Ġquarter": 7803,
      "Ġ},": 7804,
      "Ġelectron": 7805,
      "Ġtalents": 7806,
      "Ġuniversal": 7807,
      "Sort": 7808,
      "rement": 7809,
      "Ġpose": 7810,
      "user": 7811,
      "rand": 7812,
      "Ġprohib": 7813,
      "Ġship": 7814,
      "Ġformats": 7815,
      "Ġautomated": 7816,
      "ĠSuper": 7817,
      "Ġcardi": 7818,
      "Ġattractive": 7819,
      "ĠBritain": 7820,
      "kers": 7821,
      "ror": 7822,
      "Ġfelt": 7823,
      "acent": 7824,
      "ĠCSS": 7825,
      "Ġcomparing": 7826,
      "Ġpret": 7827,
      "Ġsubt": 7828,
      "Ġtempl": 7829,
      "Ġsearching": 7830,
      "Ġlaunch": 7831,
      "Ġwriters": 7832,
      "Ġobtained": 7833,
      "Ġguarantees": 7834,
      "ĠAvoid": 7835,
      "Ġmoisture": 7836,
      "rons": 7837,
      "atever": 7838,
      "ĠCase": 7839,
      "ĠPacific": 7840,
      "ĠLake": 7841,
      "Ġdiplom": 7842,
      "Ġloops": 7843,
      "Ġaffili": 7844,
      "Ġyounger": 7845,
      "which": 7846,
      "Ġcouple": 7847,
      "Ġpowers": 7848,
      "Ġopinion": 7849,
      "Ġvegetables": 7850,
      "Ġiconic": 7851,
      "ĠCatholic": 7852,
      "Node": 7853,
      "Pl": 7854,
      "item": 7855,
      "ĠMart": 7856,
      "ĠProper": 7857,
      "Ġfacility": 7858,
      "III": 7859,
      "Ġblockchain": 7860,
      "Ġdisciplines": 7861,
      "oubtedly": 7862,
      "Ġnet": 7863,
      "Ġmole": 7864,
      "ĠRequ": 7865,
      "Ġconstructive": 7866,
      "Ġgeographical": 7867,
      "Ġniche": 7868,
      "TE": 7869,
      "Table": 7870,
      "mp": 7871,
      "Ġtheore": 7872,
      "ancies": 7873,
      "Ġinser": 7874,
      "title": 7875,
      "Ġpersonality": 7876,
      "ports": 7877,
      "Ġfacts": 7878,
      "Ġexceed": 7879,
      "ĠRemove": 7880,
      "Ġcamera": 7881,
      "AM": 7882,
      "eath": 7883,
      "Ġstew": 7884,
      "Ġinten": 7885,
      "agon": 7886,
      "Ġbeneath": 7887,
      "cules": 7888,
      "Ġ1999": 7889,
      "Ġmechanical": 7890,
      "Ġpriorities": 7891,
      "Ġphotos": 7892,
      "Ġsuggesting": 7893,
      "Ġheightened": 7894,
      "ĠLearning": 7895,
      "vy": 7896,
      "uty": 7897,
      "Ġattitude": 7898,
      "Ġsupplement": 7899,
      "ographics": 7900,
      "Ġcollaborations": 7901,
      "ycle": 7902,
      "Ġthoroughly": 7903,
      "ini": 7904,
      "ĠSign": 7905,
      "Ġcarries": 7906,
      "metic": 7907,
      "Ġtexture": 7908,
      "Ġhistoric": 7909,
      "Ġdisplayed": 7910,
      "author": 7911,
      "ya": 7912,
      "ione": 7913,
      "Ġspending": 7914,
      "Ġprotective": 7915,
      "what": 7916,
      "Ġauthenticity": 7917,
      "ĠSpecial": 7918,
      "Ġsouthern": 7919,
      "Guid": 7920,
      "55": 7921,
      "Ġelections": 7922,
      "Ġinfections": 7923,
      "Ġdistinctive": 7924,
      "Ġentering": 7925,
      "icken": 7926,
      "Ġlegitim": 7927,
      "Ġshapes": 7928,
      "check": 7929,
      "Ġmilest": 7930,
      "ĠMexico": 7931,
      "Ġprimes": 7932,
      "Ġ1990": 7933,
      "Ġinspiring": 7934,
      "['": 7935,
      "onym": 7936,
      "Ġped": 7937,
      "quare": 7938,
      "Ġwhites": 7939,
      "ĠEnd": 7940,
      "0000": 7941,
      "They": 7942,
      "Ġ32": 7943,
      "ĠImpro": 7944,
      "Ġsuscep": 7945,
      "Ġauthentication": 7946,
      "irable": 7947,
      "Ġfulfill": 7948,
      "Ġmastering": 7949,
      "Ġofficers": 7950,
      "Ac": 7951,
      "RM": 7952,
      "Ġil": 7953,
      "Ġwish": 7954,
      "search": 7955,
      "reshold": 7956,
      "ĠMac": 7957,
      "Ġintr": 7958,
      "----------": 7959,
      "ĠChic": 7960,
      "Ġkeeps": 7961,
      "Ġtrusted": 7962,
      "Ġantib": 7963,
      "ĠPrint": 7964,
      "no": 7965,
      "rating": 7966,
      "Ġtiny": 7967,
      "lective": 7968,
      "Ġhuge": 7969,
      "ĠMD": 7970,
      "ĠVer": 7971,
      "Ġformula": 7972,
      "appy": 7973,
      "Ġgaining": 7974,
      "ĠJapanese": 7975,
      "Ġphilosophy": 7976,
      "Ġmolecular": 7977,
      "Ġmarginal": 7978,
      "ading": 7979,
      "Ġarmy": 7980,
      "Ġmeant": 7981,
      "Ġinterior": 7982,
      "Ġengines": 7983,
      "Ġgreatest": 7984,
      "Ġnavigation": 7985,
      "ĠMedia": 7986,
      "Ġexpanded": 7987,
      "ĠSystems": 7988,
      "Ġfluctu": 7989,
      "01": 7990,
      "Date": 7991,
      "Ġbear": 7992,
      "ĠBer": 7993,
      "Ġrestaur": 7994,
      "ING": 7995,
      "Ġmanifest": 7996,
      "Ġpunctuation": 7997,
      "ĠCommittee": 7998,
      "rid": 7999,
      "west": 8000,
      "Ġfurn": 8001,
      "ĠGet": 8002,
      "Ġabstr": 8003,
      "elled": 8004,
      "Ġunderst": 8005,
      "Ġchildhood": 8006,
      "ycl": 8007,
      "ĠDemoc": 8008,
      "even": 8009,
      "front": 8010,
      "Ġsan": 8011,
      "abin": 8012,
      "Ġshot": 8013,
      "Ġsharp": 8014,
      "ĠGood": 8015,
      "Ġabund": 8016,
      "nowned": 8017,
      "ĠWhy": 8018,
      "error": 8019,
      "Ġrecorded": 8020,
      "driven": 8021,
      "Ġpolicymakers": 8022,
      "Ġaircraft": 8023,
      "Ġsplit": 8024,
      "ald": 8025,
      "ĠBefore": 8026,
      "Ġchrom": 8027,
      "Ġneut": 8028,
      "Ġexcer": 8029,
      "kins": 8030,
      "sen": 8031,
      "Ġconstruct": 8032,
      "ĠCancer": 8033,
      "Ġring": 8034,
      "Ġunt": 8035,
      "Ġoutlined": 8036,
      "Ġmuse": 8037,
      "Ġbrother": 8038,
      "Ġbelievers": 8039,
      "address": 8040,
      "ĠTake": 8041,
      "ardless": 8042,
      "ailing": 8043,
      "Ġkept": 8044,
      "ĠAdv": 8045,
      "Ġtestament": 8046,
      "Ġmerged": 8047,
      "fast": 8048,
      "Ġwest": 8049,
      "Ġamongst": 8050,
      "Ġluxury": 8051,
      "Ġobservations": 8052,
      "inates": 8053,
      "Ġstation": 8054,
      "ĠSov": 8055,
      "Ġrub": 8056,
      "Ġspac": 8057,
      "Ġcalling": 8058,
      "Ġdrinking": 8059,
      "Ġundoubtedly": 8060,
      "Ġhighlighted": 8061,
      "Ġfitness": 8062,
      "Ġcandidate": 8063,
      "Ġalphabe": 8064,
      "Ġagricultural": 8065,
      "Ġsupplies": 8066,
      "ĠFrancis": 8067,
      "Data": 8068,
      "alian": 8069,
      "Ġmamm": 8070,
      "Ġnest": 8071,
      "Ġgains": 8072,
      "ĠRad": 8073,
      "Ġkilled": 8074,
      "tified": 8075,
      "ĠAppro": 8076,
      "ĠAssess": 8077,
      "ĠUpon": 8078,
      "Value": 8079,
      "CH": 8080,
      "TM": 8081,
      "Ġplease": 8082,
      "itarian": 8083,
      "Ġclosed": 8084,
      "Ġroots": 8085,
      "Ġprofiles": 8086,
      "Ġtaxes": 8087,
      "ĠCommunity": 8088,
      "Ġrespectively": 8089,
      "Ġske": 8090,
      "Ġgent": 8091,
      "through": 8092,
      "ĠBY": 8093,
      "ĠNatural": 8094,
      "ĠVict": 8095,
      "Ġcounty": 8096,
      "Ġdelay": 8097,
      "Ġrising": 8098,
      "Ġemployers": 8099,
      "Ġcombines": 8100,
      "ĠContin": 8101,
      "Ġanswers": 8102,
      "Ġlaboratory": 8103,
      "Ġgathering": 8104,
      "ĠNetwork": 8105,
      "Ġacquisition": 8106,
      "ye": 8107,
      "Ġgro": 8108,
      "ĠMi": 8109,
      "ĠStay": 8110,
      "Ġreturning": 8111,
      "Ġmodule": 8112,
      "Ġdiscipline": 8113,
      "Ġdepartments": 8114,
      "\"]": 8115,
      "AD": 8116,
      "Ġpin": 8117,
      "entral": 8118,
      "Ġshares": 8119,
      "Ġcompeting": 8120,
      "aph": 8121,
      "ĠLatin": 8122,
      "Ġuniform": 8123,
      "Ġscope": 8124,
      "ouraging": 8125,
      "Ġwanted": 8126,
      "Ġhouses": 8127,
      "Ġuniversities": 8128,
      "Ġoverwhelming": 8129,
      "paralleled": 8130,
      "Ps": 8131,
      "Ġax": 8132,
      "Ġgaps": 8133,
      "Ġcong": 8134,
      "occ": 8135,
      "Ġdecline": 8136,
      "Ġsky": 8137,
      "Ġdirector": 8138,
      "Ġdomains": 8139,
      "Ġconcentration": 8140,
      "ĠCharles": 8141,
      "Ġguarantee": 8142,
      "Ġpollution": 8143,
      "ĠAcademy": 8144,
      "igenous": 8145,
      "sue": 8146,
      "Ġcovers": 8147,
      "ĠMath": 8148,
      "iest": 8149,
      "Ġmedication": 8150,
      "Ġprofessor": 8151,
      "Ġdriven": 8152,
      "Ġtraveling": 8153,
      "Ġdoubt": 8154,
      "eal": 8155,
      "estic": 8156,
      "orse": 8157,
      "isons": 8158,
      "Ġunparalleled": 8159,
      "Ġcontributed": 8160,
      "Ġlimiting": 8161,
      "Ġcourts": 8162,
      "Why": 8163,
      "ĠSpirit": 8164,
      "Ġpaying": 8165,
      "Ġopposition": 8166,
      "Ġcelebrate": 8167,
      "Ġquantity": 8168,
      "Ġannounced": 8169,
      "Ġrenewable": 8170,
      "ĠEffective": 8171,
      "Ġsocieties": 8172,
      "During": 8173,
      "riting": 8174,
      "war": 8175,
      "zen": 8176,
      "Ġsight": 8177,
      "Ġfra": 8178,
      "Ġwelfare": 8179,
      "Ġban": 8180,
      "Ġconsecutive": 8181,
      "plex": 8182,
      "Ġlisted": 8183,
      "ĠEnter": 8184,
      "Ġshowcase": 8185,
      "Ġbiology": 8186,
      "oxide": 8187,
      "Ġmobility": 8188,
      "Ġreplacement": 8189,
      "ĠLouis": 8190,
      "rary": 8191,
      "ypt": 8192,
      "oned": 8193,
      "Ġmac": 8194,
      "ĠAD": 8195,
      "Ġexac": 8196,
      "Ġchat": 8197,
      "oga": 8198,
      "Ġschem": 8199,
      "Ġinterp": 8200,
      "lecting": 8201,
      "Ġconcerned": 8202,
      "ttps": 8203,
      "ĠSupport": 8204,
      "Ġvoices": 8205,
      "ĠStrategies": 8206,
      "Ġintersection": 8207,
      "Ġtow": 8208,
      "ethe": 8209,
      "Ġplain": 8210,
      "Ġclub": 8211,
      "Ġreproduc": 8212,
      "Ġmeasured": 8213,
      "Ġtailor": 8214,
      "Ġschedules": 8215,
      "Ġdecrease": 8216,
      "button": 8217,
      "disciplinary": 8218,
      "draw": 8219,
      "Ġrom": 8220,
      "Ġrenowned": 8221,
      "ĠCamp": 8222,
      "ĠBit": 8223,
      "Ġchamp": 8224,
      "Ġdoors": 8225,
      "Ġresulted": 8226,
      "Ġrepresentatives": 8227,
      "Ġutility": 8228,
      "Ġshowcases": 8229,
      "Ġinstruments": 8230,
      "ville": 8231,
      "orter": 8232,
      "Ġwaves": 8233,
      "that": 8234,
      "Ġarms": 8235,
      "thening": 8236,
      "Ġzones": 8237,
      "Ġassessments": 8238,
      "ĠImplementing": 8239,
      "ĠRecogn": 8240,
      "Ġperception": 8241,
      "ĠRobert": 8242,
      "Ġexcerpt": 8243,
      "inery": 8244,
      "Ġfly": 8245,
      "Ġfruits": 8246,
      "Ġwife": 8247,
      "Ġspark": 8248,
      "Ġknows": 8249,
      "Ġsecondary": 8250,
      "password": 8251,
      "Ġcycles": 8252,
      "Although": 8253,
      "specific": 8254,
      "Ġsnippet": 8255,
      "Ġexacerb": 8256,
      "Ġtension": 8257,
      "Ġthin": 8258,
      "Ġstreet": 8259,
      "terior": 8260,
      "throp": 8261,
      "Ġlocally": 8262,
      "Ġdistrict": 8263,
      "Ġ186": 8264,
      "Ġspeak": 8265,
      "Ġmixed": 8266,
      "Ġfarmers": 8267,
      "Ġastr": 8268,
      "Ġwet": 8269,
      "arn": 8270,
      "economic": 8271,
      "Ġnorm": 8272,
      "ĠTim": 8273,
      "sem": 8274,
      "Ġ($": 8275,
      "Ġuniversity": 8276,
      "Ġaband": 8277,
      "Ġdism": 8278,
      "Ġembed": 8279,
      "ĠSea": 8280,
      "Ġreplaced": 8281,
      "Ġcompensation": 8282,
      "Ref": 8283,
      "erals": 8284,
      "Ġtheories": 8285,
      "andom": 8286,
      "iances": 8287,
      "Ġcollections": 8288,
      "Ġswim": 8289,
      "Ġpsychology": 8290,
      "Ġgarden": 8291,
      "Ġpermanent": 8292,
      "Ġfabric": 8293,
      "rat": 8294,
      "Ġaward": 8295,
      "Ġorient": 8296,
      "ĠMont": 8297,
      "Ġcompounds": 8298,
      "Ġincorrect": 8299,
      "ĠThomas": 8300,
      "Ġcharges": 8301,
      "Ġwebpage": 8302,
      "ĠUsers": 8303,
      "Ġepis": 8304,
      "Ġneighborhood": 8305,
      "ij": 8306,
      "oom": 8307,
      "ita": 8308,
      "Ġgear": 8309,
      "emper": 8310,
      "ĠPot": 8311,
      "Ġadhering": 8312,
      "Ġrecon": 8313,
      "ĠConversely": 8314,
      "That": 8315,
      "Ġthoughtfully": 8316,
      "Ġdifficulties": 8317,
      "Ġconvenient": 8318,
      "Ġrevealed": 8319,
      "Ġconfiguration": 8320,
      "Ġbrown": 8321,
      "ĠType": 8322,
      "eping": 8323,
      "Ġunderm": 8324,
      "Ġbuying": 8325,
      "Ġdefensive": 8326,
      "Ġpracticing": 8327,
      "Ġaccepted": 8328,
      "Ġannounce": 8329,
      "Ġcraftsmanship": 8330,
      "Or": 8331,
      "laim": 8332,
      "Ġnine": 8333,
      "vering": 8334,
      "Ġupl": 8335,
      "ĠLead": 8336,
      "Ġhash": 8337,
      "Ġsyndrome": 8338,
      "Ġdiscourse": 8339,
      "Ġtherapies": 8340,
      "trans": 8341,
      "Ġassigned": 8342,
      "Ġattempting": 8343,
      "Ġstraightforward": 8344,
      "Ġbond": 8345,
      "adow": 8346,
      "oster": 8347,
      "Ġuniverse": 8348,
      "Ġtwenty": 8349,
      "Ġcorn": 8350,
      "Ġdirectory": 8351,
      "Ġpresentation": 8352,
      "Ġelected": 8353,
      "ĠAmaz": 8354,
      "Ġstruggles": 8355,
      "Index": 8356,
      "Ġsegment": 8357,
      "Ġwarrant": 8358,
      "Ab": 8359,
      "FF": 8360,
      "Ġtu": 8361,
      "tian": 8362,
      "Ġdie": 8363,
      "ĠPan": 8364,
      "ĠPenn": 8365,
      "Ġdoor": 8366,
      "Ġfeels": 8367,
      "Ġdiving": 8368,
      "ĠClin": 8369,
      "Ġbattery": 8370,
      "Ġregistration": 8371,
      "________": 8372,
      "Ġcontracts": 8373,
      "Many": 8374,
      "Ġstre": 8375,
      "ĠPM": 8376,
      "Ġages": 8377,
      "Ġstudied": 8378,
      "Ġcommunic": 8379,
      "Ġrequirement": 8380,
      "Stud": 8381,
      "Ġowner": 8382,
      "Ġintroduction": 8383,
      "Ġaspir": 8384,
      "True": 8385,
      "See": 8386,
      "tier": 8387,
      "Ġmerc": 8388,
      "Ġconcrete": 8389,
      "Str": 8390,
      "Ġdecreased": 8391,
      "Ġbolst": 8392,
      "inem": 8393,
      "ĠHall": 8394,
      "Ġresid": 8395,
      "Ġorganisms": 8396,
      "Ġdrives": 8397,
      "Ġelevate": 8398,
      "Ġvowel": 8399,
      "Ġlegislation": 8400,
      "Ġhundreds": 8401,
      "Ġrelaxation": 8402,
      "48": 8403,
      "95": 8404,
      "oking": 8405,
      "var": 8406,
      "ania": 8407,
      "ĠAp": 8408,
      "ĠHam": 8409,
      "Ġdisrupt": 8410,
      "Ġincrement": 8411,
      "defined": 8412,
      "Ġopponents": 8413,
      "Ġencompasses": 8414,
      "Ġmolecules": 8415,
      "\").": 8416,
      "Eff": 8417,
      "code": 8418,
      "otion": 8419,
      "rates": 8420,
      "vals": 8421,
      "Ġbrows": 8422,
      "Ġdust": 8423,
      "ĠASC": 8424,
      "Ġasset": 8425,
      "Ġdownload": 8426,
      "Ġlawy": 8427,
      "ĠStudies": 8428,
      "Ġadministrative": 8429,
      "Ġmeasurements": 8430,
      "ĠModern": 8431,
      "Ã¶": 8432,
      "iders": 8433,
      "ĠIII": 8434,
      "ĠEth": 8435,
      "ĠLim": 8436,
      "Ġrecre": 8437,
      "Ġdelicious": 8438,
      "Ġmoves": 8439,
      "ĠImport": 8440,
      "Ġinstruction": 8441,
      "Ġthriving": 8442,
      "requency": 8443,
      "ĠEgypt": 8444,
      "night": 8445,
      "sm": 8446,
      "hend": 8447,
      "Ġinhib": 8448,
      "Ġincenti": 8449,
      "Ġattach": 8450,
      "Ġcoffee": 8451,
      "Ġbeloved": 8452,
      "Ġeducators": 8453,
      "Ġprosper": 8454,
      "Ġordinary": 8455,
      "Ġschedule": 8456,
      "Ġmanipulation": 8457,
      "Ġescape": 8458,
      "Ġcrowd": 8459,
      "Ġparallel": 8460,
      "Per": 8461,
      "file": 8462,
      "Ġtag": 8463,
      "iner": 8464,
      "etry": 8465,
      "Ġinches": 8466,
      "Ġ{}": 8467,
      "ĠColumb": 8468,
      "Ġcounts": 8469,
      "Ġmeetings": 8470,
      "Ġequivalent": 8471,
      "((": 8472,
      "Last": 8473,
      "bur": 8474,
      "made": 8475,
      "Ġtheology": 8476,
      "unique": 8477,
      "Ġchart": 8478,
      "ĠEval": 8479,
      "nee": 8480,
      "Ġdefend": 8481,
      "Ġdivide": 8482,
      "Ġbalancing": 8483,
      "Ġpurchases": 8484,
      "Ġinstalled": 8485,
      "person": 8486,
      "ĠPop": 8487,
      "opy": 8488,
      "ĠEss": 8489,
      "Ġunknown": 8490,
      "Ġtransf": 8491,
      "Ġ300": 8492,
      "Ġdecor": 8493,
      "Ġpressures": 8494,
      "brew": 8495,
      "Ġvulnerabilities": 8496,
      "Ġcaptured": 8497,
      "Ġnegotiations": 8498,
      "Ġencounters": 8499,
      "Ġrhyth": 8500,
      "Ġmood": 8501,
      "ĠClear": 8502,
      "rip": 8503,
      "ĠLever": 8504,
      "Ġclothing": 8505,
      "Ġprecious": 8506,
      "Ġprogression": 8507,
      "Ġequitable": 8508,
      "Ġ75": 8509,
      "Ġbroken": 8510,
      "Ġinfluential": 8511,
      "Ġadaptation": 8512,
      "Ġvillage": 8513,
      "Ġmathematical": 8514,
      "IC": 8515,
      "mic": 8516,
      "Ġfort": 8517,
      "Ġunus": 8518,
      "Ġvisiting": 8519,
      "ĠReal": 8520,
      "Ġhabitat": 8521,
      "Ġtackle": 8522,
      "Ġcircul": 8523,
      "ĠSoviet": 8524,
      "disc": 8525,
      "solving": 8526,
      "Ġ__": 8527,
      "hered": 8528,
      "Ġnit": 8529,
      "Ġimaging": 8530,
      "Ġresili": 8531,
      "Ġindul": 8532,
      "obile": 8533,
      "Ġadvis": 8534,
      "Ġsafer": 8535,
      "Ġelsewhere": 8536,
      "Ġautomation": 8537,
      "Ġcarrying": 8538,
      "Ġtast": 8539,
      "asures": 8540,
      "ĠPH": 8541,
      "Ġranking": 8542,
      "ĠNations": 8543,
      "ĠNature": 8544,
      "Ġparagraph": 8545,
      "Ġfunctioning": 8546,
      "Ġgenre": 8547,
      "Ġinstant": 8548,
      "Ġfollowers": 8549,
      "Ġdemanding": 8550,
      "ĠChicago": 8551,
      "gu": 8552,
      "Ġforg": 8553,
      "abs": 8554,
      "ĠEqu": 8555,
      "ĠJose": 8556,
      "Ġscan": 8557,
      "Ġhealthier": 8558,
      "Ġgrasp": 8559,
      "Ġemphasize": 8560,
      "Ġdaunting": 8561,
      "ritten": 8562,
      "breaking": 8563,
      "uis": 8564,
      "width": 8565,
      "alk": 8566,
      "iture": 8567,
      "omic": 8568,
      "Ġlib": 8569,
      "ĠTor": 8570,
      "Ġimpossible": 8571,
      "Ġ36": 8572,
      "Ġvisits": 8573,
      "Ġpainting": 8574,
      "Ġconverted": 8575,
      "Ġstrain": 8576,
      "Ġcoupled": 8577,
      "Ġfilters": 8578,
      "IM": 8579,
      "RC": 8580,
      "gue": 8581,
      "lia": 8582,
      "ny": 8583,
      "ugh": 8584,
      "Ġtables": 8585,
      "organ": 8586,
      "Ġpets": 8587,
      "arking": 8588,
      "Ġproof": 8589,
      "ĠSou": 8590,
      "change": 8591,
      "ĠOper": 8592,
      "Ġgenerates": 8593,
      "Ġappropriately": 8594,
      "Ġpositioning": 8595,
      "Ġsubstances": 8596,
      "ById": 8597,
      "Ġethnic": 8598,
      "Ġtestim": 8599,
      "Ġfr": 8600,
      "Ġfant": 8601,
      "Ġmild": 8602,
      "ĠAri": 8603,
      "ĠMil": 8604,
      "Ġendless": 8605,
      "Ġultimate": 8606,
      "Ġperfectly": 8607,
      "Ġmountain": 8608,
      "Up": 8609,
      "lections": 8610,
      "acher": 8611,
      "ĠCross": 8612,
      "Ġasking": 8613,
      "ĠPo": 8614,
      "Ġspir": 8615,
      "ĠWithin": 8616,
      "Ġdrink": 8617,
      "Wor": 8618,
      "reed": 8619,
      "ĠTop": 8620,
      "heric": 8621,
      "Ġprovision": 8622,
      "cium": 8623,
      "Ġattached": 8624,
      "Ġtested": 8625,
      "Ġmeticulous": 8626,
      "Ġmortg": 8627,
      "ĠMichael": 8628,
      "Ġcaution": 8629,
      "PC": 8630,
      "Ġeco": 8631,
      "ĠPeter": 8632,
      "ĠBank": 8633,
      "Ġunion": 8634,
      "Ġtrained": 8635,
      "Ġdesignated": 8636,
      "Ġaccessories": 8637,
      "Ġversus": 8638,
      "Ġswitch": 8639,
      "ĠConstitution": 8640,
      "Ġengineers": 8641,
      "Ġacceptance": 8642,
      "ĠModel": 8643,
      "Ġalleviate": 8644,
      "real": 8645,
      "ett": 8646,
      "getElement": 8647,
      "Ġ2021": 8648,
      "commun": 8649,
      "viation": 8650,
      "brid": 8651,
      "Ġassociation": 8652,
      "Ġphotography": 8653,
      "ĠRegularly": 8654,
      "Ġinterviews": 8655,
      "ĠDigital": 8656,
      "getElementById": 8657,
      "AC": 8658,
      "Ġancest": 8659,
      "ĠBrown": 8660,
      "ĠStreet": 8661,
      "aken": 8662,
      "Ġcharm": 8663,
      "tility": 8664,
      "Ġroutines": 8665,
      "Ġdatabases": 8666,
      "ĠParty": 8667,
      "Ġdeals": 8668,
      "Ġplug": 8669,
      "Ġevolve": 8670,
      "Ġutilization": 8671,
      "coin": 8672,
      "ĠApplic": 8673,
      "ensional": 8674,
      "ATE": 8675,
      "gical": 8676,
      "mers": 8677,
      "this": 8678,
      "Ġcontents": 8679,
      "oolean": 8680,
      "Ġaddressed": 8681,
      "Ġpolitic": 8682,
      "Ġupdating": 8683,
      "Ġnewsp": 8684,
      "Ġcyber": 8685,
      ".||": 8686,
      "Given": 8687,
      "orph": 8688,
      "omal": 8689,
      "Ġliver": 8690,
      "Ġster": 8691,
      "Ġattitudes": 8692,
      "ials": 8693,
      "Ġevident": 8694,
      "ĠStar": 8695,
      "Ġdecade": 8696,
      "everal": 8697,
      "Ġgratitude": 8698,
      "Ġdoctors": 8699,
      "Ġdrivers": 8700,
      "Ġsustained": 8701,
      "123": 8702,
      "Ġpredic": 8703,
      "Ġterror": 8704,
      "Ġoverlooked": 8705,
      "AN": 8706,
      "Most": 8707,
      "icacy": 8708,
      "ĠCast": 8709,
      "riad": 8710,
      "forget": 8711,
      "Ġmeasuring": 8712,
      "ĠSpanish": 8713,
      "Ġcircle": 8714,
      "irty": 8715,
      "umph": 8716,
      "ĠPak": 8717,
      "Ġretention": 8718,
      "Ġtwice": 8719,
      "Ġcustomized": 8720,
      "Ġ[\"": 8721,
      "Ġenjoying": 8722,
      "Ġstreams": 8723,
      "Ġattribute": 8724,
      "ĠFirstly": 8725,
      "Ġobligations": 8726,
      "BT": 8727,
      "SD": 8728,
      "UR": 8729,
      "ien": 8730,
      "main": 8731,
      "erie": 8732,
      "Ġmold": 8733,
      "Ġhus": 8734,
      "abil": 8735,
      "Ġintake": 8736,
      "Ġunable": 8737,
      "Ġclar": 8738,
      "Ġmetab": 8739,
      "ĠAnalysis": 8740,
      "ocket": 8741,
      "Ġwalking": 8742,
      "Ġcontrolling": 8743,
      "Ġunfold": 8744,
      "Ġharnessing": 8745,
      "Ġexperiments": 8746,
      "49": 8747,
      "Reg": 8748,
      "bar": 8749,
      "eat": 8750,
      "Ġfu": 8751,
      "Ġnan": 8752,
      "ĠCat": 8753,
      "Ġneither": 8754,
      "Ġuphold": 8755,
      "----------------------------": 8756,
      "Ġguiding": 8757,
      "Ġassessing": 8758,
      "Ġaffordability": 8759,
      "Ġhydrogen": 8760,
      "tail": 8761,
      "Ġprolong": 8762,
      "ĠEp": 8763,
      "Ġdisrup": 8764,
      "ĠForce": 8765,
      "ĠIndust": 8766,
      "Ġappeared": 8767,
      "Ġintroducing": 8768,
      "Ġrecipe": 8769,
      "Ġpanel": 8770,
      "Ġsurprise": 8771,
      "Ġlaunched": 8772,
      "47": 8773,
      "Sp": 8774,
      "Ġwants": 8775,
      "izable": 8776,
      "Ġplate": 8777,
      "Ġmostly": 8778,
      "Ġfounded": 8779,
      "Ġmusicians": 8780,
      "Ġtempor": 8781,
      "Ġdescribes": 8782,
      "ĠEarly": 8783,
      "Ġvulnerability": 8784,
      "Ġcooling": 8785,
      "Ġendeavors": 8786,
      "Ġjudgment": 8787,
      "ca": 8788,
      "alities": 8789,
      "plicity": 8790,
      "oids": 8791,
      "Ġ1998": 8792,
      "Ġexecutive": 8793,
      "Ġhonor": 8794,
      "ĠMusic": 8795,
      "Ġsegments": 8796,
      "Ġconfigurations": 8797,
      "Ġtitles": 8798,
      "Ġvictory": 8799,
      "ih": 8800,
      "Ġgif": 8801,
      "Ġconference": 8802,
      "irt": 8803,
      "ĠBudd": 8804,
      "ĠLin": 8805,
      "Ġposes": 8806,
      "Ġdecide": 8807,
      "Ġreleases": 8808,
      "Ġmenu": 8809,
      "Ġphysically": 8810,
      "Ġpresenting": 8811,
      "Ġfinancing": 8812,
      "Ġpriority": 8813,
      "ĠApple": 8814,
      "Ġverify": 8815,
      "Ġjoining": 8816,
      "Ġtransparent": 8817,
      "Ġteachings": 8818,
      "Ġgentle": 8819,
      "forgettable": 8820,
      "iable": 8821,
      "roke": 8822,
      "unic": 8823,
      "ĠFind": 8824,
      "ĠHoly": 8825,
      "ĠDou": 8826,
      "ĠLibrary": 8827,
      "ĠUk": 8828,
      "Ġcream": 8829,
      "Ġgrown": 8830,
      "Ġfaces": 8831,
      "Ġabsence": 8832,
      "ĠCanadian": 8833,
      "Ġpursuit": 8834,
      "ispens": 8835,
      "Color": 8836,
      "Ġschemes": 8837,
      "ION": 8838,
      "Ġpod": 8839,
      "Ġwise": 8840,
      "ĠCS": 8841,
      "Ġvend": 8842,
      "Ġinviting": 8843,
      "ĠChall": 8844,
      "ĠIndians": 8845,
      "notch": 8846,
      "ĠPhot": 8847,
      "Ġtravelers": 8848,
      "Ġpackages": 8849,
      "Ġignore": 8850,
      "Ġimmersive": 8851,
      "ĠIdentify": 8852,
      "Ġaccompanied": 8853,
      "ĠVictor": 8854,
      "ĠAmazon": 8855,
      "just": 8856,
      "eras": 8857,
      "Ġwestern": 8858,
      "ĠTool": 8859,
      "ĠDise": 8860,
      "ĠLocal": 8861,
      "ĠAltern": 8862,
      "azine": 8863,
      "Ġlisteners": 8864,
      "Ġcurrency": 8865,
      "Ġinventory": 8866,
      "host": 8867,
      "iro": 8868,
      "Ġut": 8869,
      "Ġtech": 8870,
      "Ġdentist": 8871,
      "entence": 8872,
      "Ġhal": 8873,
      "urb": 8874,
      "imp": 8875,
      "ĠTV": 8876,
      "ĠSar": 8877,
      "ĠMad": 8878,
      "Ġindispens": 8879,
      "Ġaccident": 8880,
      "Ġflight": 8881,
      "aware": 8882,
      "Ġissued": 8883,
      "Ġkeywords": 8884,
      "Ġopened": 8885,
      "Ġflowers": 8886,
      "Ġhorse": 8887,
      "Ġfossil": 8888,
      "IG": 8889,
      "Other": 8890,
      "ctic": 8891,
      "Ġbath": 8892,
      "ĠIll": 8893,
      "ĠPet": 8894,
      "ĠItalian": 8895,
      "position": 8896,
      "ĠSoft": 8897,
      "ĠGuide": 8898,
      "Ġ1980": 8899,
      "aj": 8900,
      "http": 8901,
      "Ġtrop": 8902,
      "ĠTimes": 8903,
      "ĠDE": 8904,
      "Ġrelation": 8905,
      "Ġpersistent": 8906,
      "Ġblocks": 8907,
      "Ġcars": 8908,
      "ierarch": 8909,
      "Ġprivile": 8910,
      "Numbers": 8911,
      "otherapy": 8912,
      "rot": 8913,
      "Ġlie": 8914,
      "Ġcomplicated": 8915,
      "Ġjump": 8916,
      "ĠCompan": 8917,
      "ursive": 8918,
      "Ġoptimized": 8919,
      "oxid": 8920,
      "Ġfalling": 8921,
      "Ġaligns": 8922,
      "Ġjoined": 8923,
      "Ġcriticism": 8924,
      "Ġvessels": 8925,
      "88": 8926,
      "ester": 8927,
      "Ġlose": 8928,
      "imer": 8929,
      "Ġstones": 8930,
      "child": 8931,
      "ĠLo": 8932,
      "Ġaccidents": 8933,
      "Ġmyriad": 8934,
      "ĠCarolina": 8935,
      "een": 8936,
      "Ġsatell": 8937,
      "urric": 8938,
      "ticle": 8939,
      "Ġunwa": 8940,
      "Ġarrest": 8941,
      "ensitive": 8942,
      "Ġposed": 8943,
      "Ġtransaction": 8944,
      "Ġdamaged": 8945,
      "Ġfeeding": 8946,
      "++;": 8947,
      "Ġrepeat": 8948,
      "average": 8949,
      "flo": 8950,
      "Ġcaught": 8951,
      "Ġpix": 8952,
      "ston": 8953,
      "ĠProm": 8954,
      "erence": 8955,
      "Ġtraject": 8956,
      "Ġmaintained": 8957,
      "nums": 8958,
      "Ġcelebration": 8959,
      "Ġadvocacy": 8960,
      "Ġvaccine": 8961,
      "Ġhazard": 8962,
      "Ġmicros": 8963,
      "Med": 8964,
      "rants": 8965,
      "uity": 8966,
      "itual": 8967,
      "Ġble": 8968,
      "stud": 8969,
      "ĠPay": 8970,
      "ĠRE": 8971,
      "Ġscheme": 8972,
      "Ġcrew": 8973,
      "Ġsurge": 8974,
      "commerce": 8975,
      "Ġbrid": 8976,
      "Ġdivis": 8977,
      "Ġaligned": 8978,
      "Ġindependently": 8979,
      "ĠAdministration": 8980,
      "HO": 8981,
      "split": 8982,
      "atches": 8983,
      "ĠMel": 8984,
      "ĠHosp": 8985,
      "Ġdisabilities": 8986,
      "Ġrepeti": 8987,
      "Ġagent": 8988,
      "Ġ2018": 8989,
      "yclop": 8990,
      "Ġindispensable": 8991,
      "Ġunwavering": 8992,
      "46": 8993,
      "piec": 8994,
      "Ġult": 8995,
      "Ġinhab": 8996,
      "Ġbones": 8997,
      "Ġmos": 8998,
      "acc": 8999,
      "idate": 9000,
      "ĠTre": 9001,
      "Ġproficiency": 9002,
      "ĠComput": 9003,
      "Ġlengths": 9004,
      "avigating": 9005,
      "ĠCloud": 9006,
      "Ġspeaks": 9007,
      "ĠBeh": 9008,
      "Ġdietary": 9009,
      "Ġtells": 9010,
      "Ġdollars": 9011,
      "fol": 9012,
      "sqrt": 9013,
      "Ġaqu": 9014,
      "Ġcart": 9015,
      "Ġfol": 9016,
      "Ġrej": 9017,
      "Ġhero": 9018,
      "Ġuncom": 9019,
      "Ġarmed": 9020,
      "Ġmanager": 9021,
      "Ġevolved": 9022,
      "Ġoffensive": 9023,
      "Ġ->": 9024,
      "Ġundergo": 9025,
      "Ġconfusion": 9026,
      "Ġcollaborate": 9027,
      "Ġmaximizing": 9028,
      "Add": 9029,
      "ĠFrank": 9030,
      "Ġdiagnostic": 9031,
      "Ġcollecting": 9032,
      "Ġfavorable": 9033,
      "Ġhonest": 9034,
      "Ġtelevision": 9035,
      "ĠProtection": 9036,
      "Ġharmonious": 9037,
      "Guideline": 9038,
      "Ultimately": 9039,
      "ĊĊ": 9040,
      "alog": 9041,
      "isation": 9042,
      "Ġreferences": 9043,
      "Ġthreshold": 9044,
      "Ġunpre": 9045,
      "Ġefficacy": 9046,
      "Ġinsuff": 9047,
      "gener": 9048,
      "ĠEncouraging": 9049,
      "Ġfunctionalities": 9050,
      "Ġmigration": 9051,
      "Ġtumor": 9052,
      "Ġcurriculum": 9053,
      "Ġcasual": 9054,
      "'m": 9055,
      "Ed": 9056,
      "Ġtick": 9057,
      "Ġsaving": 9058,
      "alindrome": 9059,
      "Ġbes": 9060,
      "Ġdensity": 9061,
      "asy": 9062,
      "redit": 9063,
      "Ġexceptions": 9064,
      "Ġviewing": 9065,
      "Ġadjacent": 9066,
      "Ġshaped": 9067,
      "Ġqualified": 9068,
      "Ġmagnetic": 9069,
      "Ġrecursively": 9070,
      "Ġaccommodate": 9071,
      "ĠHenry": 9072,
      "dated": 9073,
      "pati": 9074,
      "Ġmyth": 9075,
      "Ġhun": 9076,
      "Ġliber": 9077,
      "etts": 9078,
      "ĠMS": 9079,
      "Ġunforgettable": 9080,
      "ĠThough": 9081,
      "Ġtransformed": 9082,
      "Ġsafely": 9083,
      "Ġchannel": 9084,
      "Ġtimeless": 9085,
      "Ġtissues": 9086,
      "Ġcrafted": 9087,
      "calculate": 9088,
      "acle": 9089,
      "ĠAM": 9090,
      "ĠCard": 9091,
      "ĠBased": 9092,
      "anta": 9093,
      "avy": 9094,
      "Ġqueries": 9095,
      "Ġtransitions": 9096,
      "Ġexplanation": 9097,
      "teen": 9098,
      "Ġresponsive": 9099,
      "Ġtemp": 9100,
      "Ġoriginally": 9101,
[...]
