{
  "version": "1.0",
  "truncation": null,
  "padding": null,
  "added_tokens": [
    {
      "id": 0,
      "content": "<UNK>",
      "single_word": false,
      "lstrip": false,
      "rstrip": false,
      "normalized": false,
      "special": true
    },
    {
      "id": 1,
      "content": "<PAD>",
      "single_word": false,
      "lstrip": false,
      "rstrip": false,
      "normalized": false,
      "special": true
    },
    {
      "id": 2,
      "content": "<BOS>",
      "single_word": false,
      "lstrip": false,
      "rstrip": false,
      "normalized": false,
      "special": true
    },
    {
      "id": 3,
      "content": "<EOS>",
      "single_word": false,
      "lstrip": false,
      "rstrip": false,
      "normalized": false,
      "special": true
    }
  ],
  "normalizer": {
    "type": "NFKC"
  },
  "pre_tokenizer": {
    "type": "ByteLevel",
    "add_prefix_space": false,
    "trim_offsets": true,
    "use_regex": true
  },
  "post_processor": null,
  "decoder": {
    "type": "ByteLevel",
    "add_prefix_space": true,
    "trim_offsets": true,
    "use_regex": true
  },
  "model": {
    "type": "BPE",
    "dropout": null,
    "unk_token": null,
    "continuing_subword_prefix": null,
    "end_of_word_suffix": null,
    "fuse_unk": false,
    "byte_fallback": false,
    "ignore_merges": false,
    "vocab": {
      "<UNK>": 0,
      "<PAD>": 1,
      "<BOS>": 2,
      "<EOS>": 3,
      "!": 4,
      "\"": 5,
      "#": 6,
      "$": 7,
      "%": 8,
      "&": 9,
      "'": 10,
      "(": 11,
      ")": 12,
      "*": 13,
      "+": 14,
      ",": 15,
      "-": 16,
      ".": 17,
      "/": 18,
      "0": 19,
      "1": 20,
      "2": 21,
      "3": 22,
      "4": 23,
      "5": 24,
      "6": 25,
      "7": 26,
      "8": 27,
      "9": 28,
      ":": 29,
      ";": 30,
      "<": 31,
      "=": 32,
      ">": 33,
      "?": 34,
      "@": 35,
      "A": 36,
      "B": 37,
      "C": 38,
      "D": 39,
      "E": 40,
      "F": 41,
      "G": 42,
      "H": 43,
      "I": 44,
      "J": 45,
      "K": 46,
      "L": 47,
      "M": 48,
      "N": 49,
      "O": 50,
      "P": 51,
      "Q": 52,
      "R": 53,
      "S": 54,
      "T": 55,
      "U": 56,
      "V": 57,
      "W": 58,
      "X": 59,
      "Y": 60,
      "Z": 61,
      "[": 62,
      "\\": 63,
      "]": 64,
      "^": 65,
      "_": 66,
      "`": 67,
      "a": 68,
      "b": 69,
      "c": 70,
      "d": 71,
      "e": 72,
      "f": 73,
      "g": 74,
      "h": 75,
      "i": 76,
      "j": 77,
      "k": 78,
      "l": 79,
      "m": 80,
      "n": 81,
      "o": 82,
      "p": 83,
      "q": 84,
      "r": 85,
      "s": 86,
      "t": 87,
      "u": 88,
      "v": 89,
      "w": 90,
      "x": 91,
      "y": 92,
      "z": 93,
      "{": 94,
      "|": 95,
      "}": 96,
      "~": 97,
      "¡": 98,
      "¢": 99,
      "£": 100,
      "¤": 101,
      "¥": 102,
      "¦": 103,
      "§": 104,
      "¨": 105,
      "©": 106,
      "ª": 107,
      "«": 108,
      "¬": 109,
      "®": 110,
      "¯": 111,
      "°": 112,
      "±": 113,
      "²": 114,
      "³": 115,
      "´": 116,
      "µ": 117,
      "¶": 118,
      "·": 119,
      "¸": 120,
      "¹": 121,
      "º": 122,
      "»": 123,
      "¼": 124,
      "½": 125,
      "¾": 126,
      "¿": 127,
      "Â": 128,
      "Ã": 129,
      "Ä": 130,
      "Å": 131,
      "È": 132,
      "É": 133,
      "Ë": 134,
      "Î": 135,
      "Ï": 136,
      "Ð": 137,
      "Ñ": 138,
      "Ö": 139,
      "×": 140,
      "Ø": 141,
      "Ù": 142,
      "Ü": 143,
      "á": 144,
      "â": 145,
      "å": 146,
      "æ": 147,
      "ç": 148,
      "è": 149,
      "é": 150,
      "ï": 151,
      "ð": 152,
      "ĉ": 153,
      "Ċ": 154,
      "Ġ": 155,
      "Ģ": 156,
      "ģ": 157,
      "Ĥ": 158,
      "ĥ": 159,
      "Ħ": 160,
      "ħ": 161,
      "Ĩ": 162,
      "ĩ": 163,
      "Ī": 164,
      "ī": 165,
      "Ĭ": 166,
      "ĭ": 167,
      "Į": 168,
      "į": 169,
      "İ": 170,
      "ı": 171,
      "Ĳ": 172,
      "ĳ": 173,
      "Ĵ": 174,
      "ĵ": 175,
      "Ķ": 176,
      "ķ": 177,
      "ĸ": 178,
      "Ĺ": 179,
      "ĺ": 180,
      "Ļ": 181,
      "ļ": 182,
      "Ľ": 183,
      "ľ": 184,
      "Ŀ": 185,
      "ŀ": 186,
      "Ł": 187,
      "ł": 188,
      "Ń": 189,
      "in": 190,
      "Ġt": 191,
      "Ġa": 192,
      "er": 193,
      "es": 194,
      "on": 195,
      "en": 196,
      "ti": 197,
      "ing": 198,
      "Ġc": 199,
      "Ġs": 200,
      "or": 201,
      "Ġth": 202,
      "al": 203,
      "nd": 204,
      "re": 205,
      "Ġp": 206,
      "it": 207,
      "at": 208,
      "Ġo": 209,
      "Ġthe": 210,
      "an": 211,
      "Ġin": 212,
      "Ġf": 213,
      "Ġand": 214,
      "tion": 215,
      "ed": 216,
      "ro": 217,
      "is": 218,
      "ar": 219,
      "Ġd": 220,
      "Ġw": 221,
      "Ġm": 222,
      "le": 223,
      "Ġto": 224,
      "Ġb": 225,
      "ic": 226,
      "Ġe": 227,
      "ent": 228,
      "ou": 229,
      "Ġof": 230,
      "st": 231,
      "om": 232,
      "Ġh": 233,
      "ly": 234,
      "ation": 235,
      "ec": 236,
      "ac": 237,
      "Ġre": 238,
      "ve": 239,
      "ur": 240,
      "il": 241,
      "ers": 242,
      "et": 243,
      "ess": 244,
      "Ġl": 245,
      "id": 246,
      "--": 247,
      "ig": 248,
      "ce": 249,
      "ol": 250,
      "as": 251,
      "Ġcon": 252,
      "im": 253,
      "Ġu": 254,
      "th": 255,
      "Ġpro": 256,
      "el": 257,
      "ul": 258,
      "Ġn": 259,
      "Ġst": 260,
      "Ġr": 261,
      "Ġg": 262,
      "ir": 263,
      "ow": 264,
      "ment": 265,
      "Ġfor": 266,
      "Ġex": 267,
      "uc": 268,
      "ver": 269,
      "Ġcom": 270,
      "ate": 271,
      "ab": 272,
      "ity": 273,
      "ts": 274,
      "ra": 275,
      "ĠT": 276,
      "ith": 277,
      "Ġwh": 278,
      "Ġen": 279,
      "Ġv": 280,
      "us": 281,
      "ĠA": 282,
      "ut": 283,
      "Ġy": 284,
      "ag": 285,
      "Ġon": 286,
      "Ġwith": 287,
      "ter": 288,
      "Ġas": 289,
      "am": 290,
      "pp": 291,
      "qu": 292,
      "ay": 293,
      "os": 294,
      "if": 295,
      "ain": 296,
      "em": 297,
      "tic": 298,
      "ĠS": 299,
      "ion": 300,
      "ri": 301,
      "ĠC": 302,
      "Ġyou": 303,
      "Ġor": 304,
      "Ġal": 305,
      "----": 306,
      "igh": 307,
      "Ġac": 308,
      "oc": 309,
      "Ġit": 310,
      "ot": 311,
      "ad": 312,
      "for": 313,
      "'s": 314,
      "ĠTh": 315,
      "ations": 316,
      "Ġbe": 317,
      "tive": 318,
      "iz": 319,
      "and": 320,
      "Ġch": 321,
      "ke": 322,
      "di": 323,
      "un": 324,
      "Ġan": 325,
      "Ġres": 326,
      "ting": 327,
      "ance": 328,
      "pl": 329,
      "Ġis": 330,
      "Ġad": 331,
      "ust": 332,
      "Ġle": 333,
      "Ġde": 334,
      "ies": 335,
      "ĠB": 336,
      "ure": 337,
      "Ġthat": 338,
      "ch": 339,
      "Ġim": 340,
      "per": 341,
      "Ġcomp": 342,
      "rou": 343,
      "od": 344,
      "tions": 345,
      "ĠI": 346,
      "ial": 347,
      "um": 348,
      "iti": 349,
      "Ġcan": 350,
      "Ġtheir": 351,
      "Ġint": 352,
      "op": 353,
      "ous": 354,
      "pec": 355,
      "ĠM": 356,
      "ap": 357,
      "vid": 358,
      "ĠP": 359,
      "ore": 360,
      "ding": 361,
      "ign": 362,
      "able": 363,
      "ves": 364,
      "ĠF": 365,
      "ant": 366,
      "og": 367,
      "ating": 368,
      "Ġcont": 369,
      "ist": 370,
      "enti": 371,
      "Ġse": 372,
      "all": 373,
      "age": 374,
      "Ġus": 375,
      "Ġpr": 376,
      "ort": 377,
      "Ġsh": 378,
      "gh": 379,
      "Ġinc": 380,
      "ally": 381,
      "ese": 382,
      "ĠW": 383,
      "king": 384,
      "ere": 385,
      "Ġyour": 386,
      "are": 387,
      "Ġpl": 388,
      "ip": 389,
      "ill": 390,
      "Ġtr": 391,
      "ence": 392,
      "Ġthis": 393,
      "Ġimp": 394,
      "ther": 395,
      "cess": 396,
      "Ġne": 397,
      "rom": 398,
      "Ġapp": 399,
      "ds": 400,
      "ine": 401,
      "form": 402,
      "enc": 403,
      "ff": 404,
      "Ġby": 405,
      "ans": 406,
      "Ġun": 407,
      "Ġem": 408,
      "Ġat": 409,
      "est": 410,
      "ile": 411,
      "Ġsuc": 412,
      "ĠE": 413,
      "ong": 414,
      "ach": 415,
      "Ġ(": 416,
      "ĠH": 417,
      "ĠD": 418,
      "ents": 419,
      "ge": 420,
      "Ġcons": 421,
      "Ġstr": 422,
      "Ġsu": 423,
      "ities": 424,
      "ost": 425,
      "ual": 426,
      "vel": 427,
      "act": 428,
      "ĠR": 429,
      "our": 430,
      "ens": 431,
      "ld": 432,
      "fer": 433,
      "ated": 434,
      "ments": 435,
      "--------": 436,
      "Ġdis": 437,
      "Ġwor": 438,
      "ility": 439,
      "uring": 440,
      "anc": 441,
      "Ġwe": 442,
      "ue": 443,
      "ors": 444,
      "ib": 445,
      "Ġcomm": 446,
      "iv": 447,
      "Ġfrom": 448,
      "Ġare": 449,
      "Ġpar": 450,
      "ast": 451,
      "Ġall": 452,
      "ific": 453,
      "duc": 454,
      "Ġhe": 455,
      "ight": 456,
      "out": 457,
      "ep": 458,
      "ĠL": 459,
      "ical": 460,
      "rough": 461,
      "Ġits": 462,
      "Ġab": 463,
      "Ġman": 464,
      "av": 465,
      "ks": 466,
      "ful": 467,
      "ome": 468,
      "her": 469,
      "Ġli": 470,
      "Ġinter": 471,
      "ud": 472,
      "nder": 473,
      "Ġthese": 474,
      "Ġcl": 475,
      "Ġcre": 476,
      "âĢ": 477,
      "Ġinto": 478,
      "ential": 479,
      "end": 480,
      "ĠG": 481,
      "Ġprovid": 482,
      "ary": 483,
      "ĠO": 484,
      "Ġro": 485,
      "Ġpre": 486,
      "Ġper": 487,
      "ech": 488,
      "Ġj": 489,
      "Ġsp": 490,
      "ures": 491,
      "Ġser": 492,
      "ail": 493,
      "over": 494,
      "ious": 495,
      "ven": 496,
      "lec": 497,
      "ive": 498,
      "ati": 499,
      "ire": 500,
      "ress": 501,
      "Ġsuch": 502,
      "ons": 503,
      "ie": 504,
      "ide": 505,
      "tim": 506,
      "Ġdes": 507,
      "oun": 508,
      "ear": 509,
      "ace": 510,
      "ates": 511,
      "Ġbo": 512,
      "tain": 513,
      "Ġunder": 514,
      "Ġthrough": 515,
      "Ġtra": 516,
      "Ġar": 517,
      "Ġrec": 518,
      "Ġme": 519,
      "tional": 520,
      "Ġbet": 521,
      "Ġexper": 522,
      "ell": 523,
      "ry": 524,
      "Ġop": 525,
      "Ġover": 526,
      "ose": 527,
      "Ġrel": 528,
      "ĠU": 529,
      "ĠN": 530,
      "ms": 531,
      "ack": 532,
      "Ġreg": 533,
      "Ġins": 534,
      "ark": 535,
      "Ġthey": 536,
      "ĠThe": 537,
      "ich": 538,
      "ten": 539,
      "ass": 540,
      "ning": 541,
      "ect": 542,
      "Ġincl": 543,
      "Ġfe": 544,
      "ish": 545,
      "ular": 546,
      "Ġam": 547,
      "echn": 548,
      "Ġsign": 549,
      "Ġup": 550,
      "ave": 551,
      "Ġlike": 552,
      "war": 553,
      "ult": 554,
      "ving": 555,
      "Ġma": 556,
      "ple": 557,
      "oo": 558,
      "ĠThis": 559,
      "Ġqu": 560,
      "ges": 561,
      "Ġhigh": 562,
      "we": 563,
      "Ġwhile": 564,
      "pport": 565,
      "olog": 566,
      "les": 567,
      "ative": 568,
      "Ġcol": 569,
      "lic": 570,
      "Ġens": 571,
      "Ġrem": 572,
      "ĠBy": 573,
      "ould": 574,
      "vol": 575,
      "ater": 576,
      "hip": 577,
      "velop": 578,
      "Ġtim": 579,
      "Ġeff": 580,
      "In": 581,
      "Ġtrans": 582,
      "Ġtechn": 583,
      "Ġacc": 584,
      "ions": 585,
      "ne": 586,
      "Ġass": 587,
      "ruc": 588,
      "Ġout": 589,
      "ia": 590,
      "ider": 591,
      "round": 592,
      "vic": 593,
      "Ġcommun": 594,
      "ind": 595,
      "rib": 596,
      "Ġconc": 597,
      "ĠWh": 598,
      "Ġsy": 599,
      "Ġspec": 600,
      "ene": 601,
      "ĠIn": 602,
      "als": 603,
      "Ġsc": 604,
      "ower": 605,
      "ase": 606,
      "Ġrep": 607,
      "Ġpot": 608,
      "ite": 609,
      "iqu": 610,
      "Ġour": 611,
      "oy": 612,
      "Ġpos": 613,
      "ateg": 614,
      "ween": 615,
      "stand": 616,
      "row": 617,
      "Ġmore": 618,
      "Ġrequ": 619,
      "ues": 620,
      "Ġbetween": 621,
      "Ġdevelop": 622,
      "Ġvar": 623,
      "ever": 624,
      "ph": 625,
      "Ġindi": 626,
      "Ġwhen": 627,
      "tr": 628,
      "Ġinst": 629,
      "eg": 630,
      "alth": 631,
      "Ġdisc": 632,
      "vidual": 633,
      "Ġexperi": 634,
      "ability": 635,
      "ory": 636,
      "tiv": 637,
      "Ġhas": 638,
      "Ġoff": 639,
      "Ġk": 640,
      "Ġindividual": 641,
      "Ġhave": 642,
      "Ġexpl": 643,
      "ased": 644,
      "one": 645,
      "Ġte": 646,
      "Ġadv": 647,
      "Ġhow": 648,
      "Ġabout": 649,
      "**": 650,
      "Ġsignific": 651,
      "Ġval": 652,
      "ted": 653,
      "Ġeng": 654,
      "Ġthem": 655,
      "Ġwill": 656,
      "Ġind": 657,
      "Ġplay": 658,
      "Ġmay": 659,
      "ging": 660,
      "Ġhel": 661,
      "now": 662,
      "its": 663,
      "iness": 664,
      "Ġpers": 665,
      "Ġlead": 666,
      "ub": 667,
      "ize": 668,
      "ences": 669,
      "Ġso": 670,
      "ound": 671,
      "ational": 672,
      "ond": 673,
      "Ġ2": 674,
      "stem": 675,
      "Ġconsider": 676,
      "so": 677,
      "Ġallow": 678,
      "Ġwithin": 679,
      "Ġprom": 680,
      "ll": 681,
      "art": 682,
      "Ġboth": 683,
      "elf": 684,
      "ĠAs": 685,
      "gan": 686,
      "Ġmain": 687,
      "arket": 688,
      "ĠâĢ": 689,
      "tical": 690,
      "ings": 691,
      "Ġduring": 692,
      "Ġwhich": 693,
      "Ġproduc": 694,
      "Ġprocess": 695,
      "Ġta": 696,
      "Ġdesign": 697,
      "Ġdec": 698,
      "Ġag": 699,
      "Ġhelp": 700,
      "pt": 701,
      "Ġnot": 702,
      "allen": 703,
      "Ġph": 704,
      "Ġthere": 705,
      "Ġstrateg": 706,
      "Ġtime": 707,
      "Ġnew": 708,
      "Ġhealth": 709,
      "urther": 710,
      "ĠCh": 711,
      "no": 712,
      "ness": 713,
      "ard": 714,
      "ering": 715,
      "Ġappro": 716,
      "res": 717,
      "Ġexam": 718,
      "lus": 719,
      "ata": 720,
      "Ġfin": 721,
      "Ġother": 722,
      "Ġsec": 723,
      "Ġmo": 724,
      "Ġneed": 725,
      "Ġvarious": 726,
      "ights": 727,
      "Ġinvol": 728,
      "Ġpotential": 729,
      "Ġchallen": 730,
      "Ġalso": 731,
      "ĠJ": 732,
      "ency": 733,
      "Ġincre": 734,
      "Ġsignificant": 735,
      "izing": 736,
      "Ġexp": 737,
      "ros": 738,
      "Ġdem": 739,
      "usiness": 740,
      "ital": 741,
      "Ġpartic": 742,
      "----------------": 743,
      "he": 744,
      "wor": 745,
      "Ġprof": 746,
      "Ġwho": 747,
      "Ġthan": 748,
      "low": 749,
      "Ġmod": 750,
      "Ġpres": 751,
      "ys": 752,
      "tern": 753,
      "Ġpol": 754,
      "Ġcare": 755,
      "get": 756,
      "Ġprac": 757,
      "Ġsome": 758,
      "Ġset": 759,
      "se": 760,
      "Ġ1": 761,
      "ise": 762,
      "ĠâĢĵ": 763,
      "ount": 764,
      "Ġbec": 765,
      "Ġbu": 766,
      "Ġone": 767,
      "Ġunderstand": 768,
      "Ġsoc": 769,
      "ines": 770,
      "ining": 771,
      "Ġmarket": 772,
      "dition": 773,
      "Ġke": 774,
      "yp": 775,
      "Ġdif": 776,
      "ĠFor": 777,
      "Ġsystem": 778,
      "ern": 779,
      "ough": 780,
      "Ġorgan": 781,
      "ently": 782,
      "ric": 783,
      "Ġcap": 784,
      "ribut": 785,
      "ved": 786,
      "ood": 787,
      "irst": 788,
      "Ġoffer": 789,
      "ĠAd": 790,
      "Ġdel": 791,
      "ustom": 792,
      "Ġbusiness": 793,
      "very": 794,
      "ized": 795,
      "Ġ-": 796,
      "aging": 797,
      "Ġresp": 798,
      "ately": 799,
      "Ġwhere": 800,
      "ective": 801,
      "ible": 802,
      "Ġev": 803,
      "Ġmed": 804,
      "Ġdata": 805,
      "Ġloc": 806,
      "por": 807,
      "agement": 808,
      "Ġsuccess": 809,
      "ak": 810,
      "Ġgen": 811,
      "Ġinform": 812,
      "Ġany": 813,
      "Ġess": 814,
      "ces": 815,
      "pect": 816,
      "ality": 817,
      "ances": 818,
      "ocus": 819,
      "Ġenc": 820,
      "Ġinf": 821,
      "Ġimpro": 822,
      "reat": 823,
      "Ġmet": 824,
      "Ġdo": 825,
      "ici": 826,
      "Ġadd": 827,
      "oin": 828,
      "ĠThese": 829,
      "abl": 830,
      "Ġsol": 831,
      "ĠSt": 832,
      "Ġsk": 833,
      "Ġknow": 834,
      "Ġref": 835,
      "owever": 836,
      ").": 837,
      "pportun": 838,
      "Ġdet": 839,
      "tit": 840,
      "ivers": 841,
      "Ġfost": 842,
      "ique": 843,
      "Ġfac": 844,
      "ages": 845,
      "Ġsur": 846,
      "ross": 847,
      "ily": 848,
      "emb": 849,
      "Ġenh": 850,
      "ication": 851,
      "Ġau": 852,
      "Ġmaintain": 853,
      "Ġimport": 854,
      "Ġgrow": 855,
      "Ġcustom": 856,
      "Ġvis": 857,
      "Ġprog": 858,
      "Ġwhat": 859,
      "ob": 860,
      "ands": 861,
      "Ġchan": 862,
      "Ġopportun": 863,
      "ci": 864,
      "Ġthose": 865,
      "less": 866,
      "ct": 867,
      "uding": 868,
      "ĠK": 869,
      "Ġservic": 870,
      "Ġfocus": 871,
      "Ġperson": 872,
      "lusion": 873,
      "vers": 874,
      "Ġwork": 875,
      "Ġperform": 876,
      "led": 877,
      "wards": 878,
      "Ġcomple": 879,
      "Ġno": 880,
      "Ġamong": 881,
      "Ġsim": 882,
      "Ġaccess": 883,
      "ition": 884,
      "Ġmin": 885,
      "Ġdiffer": 886,
      "ty": 887,
      "Ġmight": 888,
      "Ġsa": 889,
      "tics": 890,
      "ree": 891,
      "ays": 892,
      "old": 893,
      "Ġinves": 894,
      "Ġincluding": 895,
      "Ġsub": 896,
      "Ġbene": 897,
      "Ġgu": 898,
      "ild": 899,
      "Ġessential": 900,
      "rucial": 901,
      "ology": 902,
      "xt": 903,
      "Ġob": 904,
      "Ġorganiz": 905,
      "Ġent": 906,
      "Ġcrucial": 907,
      "Ġed": 908,
      "Ġworld": 909,
      "Ġco": 910,
      "Ġpower": 911,
      "ft": 912,
      "Ġrespons": 913,
      "Ġcontin": 914,
      "Ġunique": 915,
      "ural": 916,
      "own": 917,
      "Ġhis": 918,
      "ame": 919,
      "ources": 920,
      "Ġoften": 921,
      "Ġ20": 922,
      "par": 923,
      "Ġsee": 924,
      "ety": 925,
      "ĠV": 926,
      "fore": 927,
      "erg": 928,
      "Ġconf": 929,
      "iew": 930,
      "ather": 931,
      "ution": 932,
      "Ġcontribut": 933,
      "Ġbenef": 934,
      "ditional": 935,
      "ploy": 936,
      "ilities": 937,
      "Ġ\"": 938,
      "Ġspecific": 939,
      "Ġform": 940,
      "ties": 941,
      "Ġlong": 942,
      "Ġlet": 943,
      "up": 944,
      "arm": 945,
      "abor": 946,
      "Ġevery": 947,
      "Ġconn": 948,
      "Ġlear": 949,
      "ession": 950,
      "Ġremain": 951,
      "omes": 952,
      "Ġtyp": 953,
      "Ġid": 954,
      "Ġstud": 955,
      "utions": 956,
      "ols": 957,
      "),": 958,
      "br": 959,
      "line": 960,
      "Ġeven": 961,
      "ram": 962,
      "iron": 963,
      "unc": 964,
      "Ġprot": 965,
      "Ġbl": 966,
      "ĠHowever": 967,
      "ether": 968,
      "Ġif": 969,
      "oring": 970,
      "ath": 971,
      "Ġdue": 972,
      "ature": 973,
      "Ġrole": 974,
      "oreover": 975,
      "Ġpe": 976,
      "Ġapproach": 977,
      "aw": 978,
      "Ġcould": 979,
      "atform": 980,
      "Ġfact": 981,
      "ook": 982,
      "Ġbut": 983,
      "Ġsever": 984,
      "Ġindividuals": 985,
      "til": 986,
      "ared": 987,
      "ffor": 988,
      "Ġiss": 989,
      "uch": 990,
      "viron": 991,
      "cc": 992,
      "Ġmul": 993,
      "Ġeffective": 994,
      "ying": 995,
      "Ġidenti": 996,
      "Ġexperience": 997,
      "ics": 998,
      "iss": 999,
      "ollow": 1000,
      "iting": 1001,
      "Ġoper": 1002,
      "asing": 1003,
      "ĠIt": 1004,
      "egr": 1005,
      "ice": 1006,
      "Ġtowards": 1007,
      "Ġdevelopment": 1008,
      "Ġgener": 1009,
      "Ġav": 1010,
      "wn": 1011,
      "itive": 1012,
      "The": 1013,
      "Ġfl": 1014,
      "ditionally": 1015,
      "Ġaddress": 1016,
      "Ġoverall": 1017,
      "Ġdist": 1018,
      "Ġpur": 1019,
      "'t": 1020,
      "Ġher": 1021,
      "Ġrelations": 1022,
      "ili": 1023,
      "ection": 1024,
      "Ġskill": 1025,
      "Ġele": 1026,
      "Ġgl": 1027,
      "Ġacross": 1028,
      "Ġusing": 1029,
      "Ġplatform": 1030,
      "Ġenviron": 1031,
      "omm": 1032,
      "Ġrequire": 1033,
      "Ġear": 1034,
      "Ġoffers": 1035,
      "Ġpri": 1036,
      "ecess": 1037,
      "Ġeach": 1038,
      "Ġkey": 1039,
      "Ġchallenges": 1040,
      "Ġgo": 1041,
      "Ġequ": 1042,
      "Ġsaf": 1043,
      "Ġlif": 1044,
      "els": 1045,
      "Ġatt": 1046,
      "Ġcur": 1047,
      "nov": 1048,
      "Ġmust": 1049,
      "ord": 1050,
      "labor": 1051,
      "oci": 1052,
      "uss": 1053,
      "Ġprovide": 1054,
      "Ġteam": 1055,
      "fter": 1056,
      "acy": 1057,
      "ĠWith": 1058,
      "Ġmulti": 1059,
      "Ġfunc": 1060,
      "ang": 1061,
      "Ġbeh": 1062,
      "Ġopportunities": 1063,
      "Ġprofession": 1064,
      "Ġconclusion": 1065,
      "Ġest": 1066,
      "Ġensuring": 1067,
      "ibility": 1068,
      "Ġmany": 1069,
      "ĠĠ": 1070,
      "Ġpart": 1071,
      "ends": 1072,
      "erm": 1073,
      "Ġdecis": 1074,
      "Ġapplic": 1075,
      "Ġsm": 1076,
      "Ġinclud": 1077,
      "aking": 1078,
      "Ġdep": 1079,
      "Ġanal": 1080,
      "ases": 1081,
      "Ġgrowth": 1082,
      "Ġeduc": 1083,
      "Ġris": 1084,
      "Ġhum": 1085,
      "ertain": 1086,
      "Ġpromot": 1087,
      "Ġinnov": 1088,
      "ets": 1089,
      "Ġcompan": 1090,
      "Ġunderstanding": 1091,
      "Ġsupport": 1092,
      "Ġemploy": 1093,
      "iel": 1094,
      "ĠWhile": 1095,
      "Ġlo": 1096,
      "ling": 1097,
      "Ġfollow": 1098,
      "Ġpractic": 1099,
      "Ġreal": 1100,
      "hips": 1101,
      "Ġparticular": 1102,
      "Ġcult": 1103,
      "Ġmake": 1104,
      "Ġnum": 1105,
      "ogn": 1106,
      "Ġlevel": 1107,
      "Ġintegr": 1108,
      "str": 1109,
      "ablish": 1110,
      "Ġseveral": 1111,
      "con": 1112,
      "aus": 1113,
      "yond": 1114,
      "St": 1115,
      "Ġstand": 1116,
      "atch": 1117,
      "ris": 1118,
      "Ġexample": 1119,
      "Ġproviding": 1120,
      "Ġchar": 1121,
      "Ġensure": 1122,
      "Ġrele": 1123,
      "earch": 1124,
      "Ġstrategies": 1125,
      "Ġtw": 1126,
      "Ġrequir": 1127,
      "Ġcreate": 1128,
      "Ġback": 1129,
      "ants": 1130,
      "ĠAdditionally": 1131,
      "Ġaround": 1132,
      "Ġusers": 1133,
      "Ġcho": 1134,
      "ording": 1135,
      "Ġrepres": 1136,
      "cep": 1137,
      "Ġpop": 1138,
      "Ġdivers": 1139,
      "te": 1140,
      "Ġiniti": 1141,
      "Ġpersonal": 1142,
      "oura": 1143,
      "Ġreduc": 1144,
      "Ġfurther": 1145,
      "Ġresources": 1146,
      "ublic": 1147,
      "Ġindust": 1148,
      "ick": 1149,
      "Ġexplore": 1150,
      "Ġposs": 1151,
      "Ġnecess": 1152,
      "Ġcle": 1153,
      "ĠPro": 1154,
      "Ġown": 1155,
      "ects": 1156,
      "Ġbeen": 1157,
      "omp": 1158,
      "ape": 1159,
      "eng": 1160,
      "Ġthroughout": 1161,
      "ied": 1162,
      "Ġbr": 1163,
      "ically": 1164,
      "arding": 1165,
      "ization": 1166,
      "Ġsocial": 1167,
      "ĠEn": 1168,
      "ead": 1169,
      "day": 1170,
      "orpor": 1171,
      "Ġresearch": 1172,
      "ĠCon": 1173,
      "ental": 1174,
      "Ġdef": 1175,
      "aterial": 1176,
      "pects": 1177,
      "ew": 1178,
      "ĠY": 1179,
      "Ġweb": 1180,
      "more": 1181,
      "Ġassoci": 1182,
      "Ġdifferent": 1183,
      "ltim": 1184,
      "ug": 1185,
      "air": 1186,
      "Ġcollabor": 1187,
      "ination": 1188,
      "Ġprev": 1189,
      "Ġpractices": 1190,
      "Ġhist": 1191,
      "Ġinstance": 1192,
      "urthermore": 1193,
      "ories": 1194,
      "00": 1195,
      "raph": 1196,
      "Ġinformation": 1197,
      "Ġeffor": 1198,
      "ture": 1199,
      "Ġdi": 1200,
      "Ġservices": 1201,
      "Ġcar": 1202,
      "Ġagain": 1203,
      "Ġperformance": 1204,
      "ble": 1205,
      "Ġfam": 1206,
      "Ġcommit": 1207,
      "ism": 1208,
      "Ġproper": 1209,
      "Ġwell": 1210,
      "ner": 1211,
      "atures": 1212,
      "rand": 1213,
      "Ġinsights": 1214,
      "equ": 1215,
      "Ġcontro": 1216,
      "Ġext": 1217,
      "Ġcompon": 1218,
      "Ġtake": 1219,
      "Ġimm": 1220,
      "Ġsupp": 1221,
      "Ġfactors": 1222,
      "Ġbased": 1223,
      "Ġsch": 1224,
      "urn": 1225,
      "Ġmaterial": 1226,
      "Ġdig": 1227,
      "ĠMoreover": 1228,
      "Ġyear": 1229,
      "Ġjust": 1230,
      "Ġsystems": 1231,
      "und": 1232,
      "Ġpolic": 1233,
      "ware": 1234,
      "Ġinfl": 1235,
      "Ġactiv": 1236,
      "Ġestablish": 1237,
      "ense": 1238,
      "ancing": 1239,
      "Ġdiscuss": 1240,
      "Ġdire": 1241,
      "Ġleg": 1242,
      "other": 1243,
      "ike": 1244,
      "Ġmanagement": 1245,
      "lement": 1246,
      "Ġoptim": 1247,
      "Ġhand": 1248,
      "ps": 1249,
      "Ġneeds": 1250,
      "Ġaim": 1251,
      "Ġeffici": 1252,
      "ltimately": 1253,
      "ored": 1254,
      "Ġopen": 1255,
      "ength": 1256,
      "Ġissues": 1257,
      "ples": 1258,
      "ange": 1259,
      "ĠAn": 1260,
      "onstr": 1261,
      "Ġpass": 1262,
      "Ġallows": 1263,
      "ake": 1264,
      "Ġmus": 1265,
      "Ġimpact": 1266,
      "Ġbeyond": 1267,
      "Ġdown": 1268,
      "Ġidentif": 1269,
      "anced": 1270,
      "Ġtwo": 1271,
      "âĢĶ": 1272,
      "Ġcommunication": 1273,
      "avig": 1274,
      "Ġimprove": 1275,
      "ilar": 1276,
      "ier": 1277,
      "Ġend": 1278,
      "ward": 1279,
      "Ġresul": 1280,
      "fully": 1281,
      "hod": 1282,
      "##": 1283,
      "Ġmean": 1284,
      "to": 1285,
      "Ġplan": 1286,
      "Ġagainst": 1287,
      "Ġconsum": 1288,
      "ĠEx": 1289,
      "Ġbuil": 1290,
      "Ġdemonstr": 1291,
      "Step": 1292,
      "du": 1293,
      "ior": 1294,
      "Ġcomplex": 1295,
      "Ġbel": 1296,
      "go": 1297,
      "ancial": 1298,
      "Ġbefore": 1299,
      "Ġcri": 1300,
      "kes": 1301,
      "Ġfirst": 1302,
      "uture": 1303,
      "Ġtools": 1304,
      "Ġintern": 1305,
      "ock": 1306,
      "Ġbenefits": 1307,
      "Ġcost": 1308,
      "Ġbusinesses": 1309,
      "Ġconsist": 1310,
      "Ġalong": 1311,
      "Ġpublic": 1312,
      "Ġcreating": 1313,
      "Ġemp": 1314,
      "ĠAm": 1315,
      "Ġmon": 1316,
      "ensive": 1317,
      "iques": 1318,
      "Ġmost": 1319,
      "lect": 1320,
      "ĠFurthermore": 1321,
      "iving": 1322,
      "ĠUn": 1323,
      "Ġfostering": 1324,
      "Ġminim": 1325,
      "ledge": 1326,
      "Ġ**": 1327,
      "Ġcommunity": 1328,
      "struc": 1329,
      "Ġdri": 1330,
      "Ġassociated": 1331,
      "Ġdoes": 1332,
      "urity": 1333,
      "Ġcomes": 1334,
      "Ġgain": 1335,
      "Ġenvironment": 1336,
      "ditions": 1337,
      "hing": 1338,
      "Ġaff": 1339,
      "ade": 1340,
      "Ġcompe": 1341,
      "Ġshould": 1342,
      "Ġregarding": 1343,
      "Ġsignificantly": 1344,
      "Ġhighl": 1345,
      "Ġskills": 1346,
      "ĠCons": 1347,
      "Ġonline": 1348,
      "Ġtechnology": 1349,
      "ey": 1350,
      "Ġpati": 1351,
      "hie": 1352,
      "Ġmethod": 1353,
      "Ġachie": 1354,
      "ited": 1355,
      "Ġauth": 1356,
      "Ġfound": 1357,
      "Ġseeking": 1358,
      "Ġtop": 1359,
      "Ġaspects": 1360,
      "Ġinvest": 1361,
      "Ġbetter": 1362,
      "Ġcent": 1363,
      "ables": 1364,
      "Ġ&": 1365,
      "Ġwas": 1366,
      "Ġorganizations": 1367,
      "action": 1368,
      "Ġconcern": 1369,
      "ners": 1370,
      "tract": 1371,
      "Ġonly": 1372,
      "Ġspecial": 1373,
      "Ġvalue": 1374,
      "Ġlocal": 1375,
      "thers": 1376,
      "Ġuser": 1377,
      "arch": 1378,
      "Ġmaintaining": 1379,
      "Ġdigital": 1380,
      "Ġimportant": 1381,
      "Ġmarketing": 1382,
      "Ġinclude": 1383,
      "Ġfuture": 1384,
      "Ġanother": 1385,
      "arget": 1386,
      "To": 1387,
      "Ġway": 1388,
      "Ġdiverse": 1389,
      "tice": 1390,
      "amp": 1391,
      "Ġuse": 1392,
      "Ġguid": 1393,
      "Ġlife": 1394,
      "Ġlearning": 1395,
      "ian": 1396,
      "ex": 1397,
      "Ġmeas": 1398,
      "Ġfinancial": 1399,
      "Ġtraditional": 1400,
      "Ġrecogn": 1401,
      "Ġlim": 1402,
      "elves": 1403,
      "Ġtechniques": 1404,
      "Ġbro": 1405,
      "ilit": 1406,
      "Ġsit": 1407,
      "Ġexc": 1408,
      "Ġallowing": 1409,
      "ron": 1410,
      "Ġbre": 1411,
      "Ġincreasing": 1412,
      "ined": 1413,
      "Ġphys": 1414,
      "Ġful": 1415,
      "ĠOne": 1416,
      "Ġhuman": 1417,
      "ograph": 1418,
      "Ġmultiple": 1419,
      "Ġbecome": 1420,
      "ins": 1421,
      "Ġimportance": 1422,
      "etwor": 1423,
      "Ġavail": 1424,
      "ĠTo": 1425,
      "Ġproj": 1426,
      "lying": 1427,
      "Ġrequires": 1428,
      "ications": 1429,
      "aving": 1430,
      "Wh": 1431,
      "ĠWhen": 1432,
      "Ġnavig": 1433,
      "Ġencoura": 1434,
      "Ġimplement": 1435,
      "ĠLet": 1436,
      "Ġdeep": 1437,
      "Ġgre": 1438,
      "Ġstrong": 1439,
      "aling": 1440,
      "Ġinvolves": 1441,
      "Ġplatforms": 1442,
      "Ġsetting": 1443,
      "Ġinflu": 1444,
      "Ġes": 1445,
      "ield": 1446,
      "Ġconnec": 1447,
      "Ġcollec": 1448,
      "the": 1449,
      "Ġincorpor": 1450,
      "Ġcomb": 1451,
      "tives": 1452,
      "Ġdirect": 1453,
      "ember": 1454,
      "'re": 1455,
      "ually": 1456,
      "atives": 1457,
      "Ġparticip": 1458,
      "ced": 1459,
      "Ġleading": 1460,
      "Ġprovides": 1461,
      "ople": 1462,
      "Ġarti": 1463,
      "Ġquality": 1464,
      "Ġatten": 1465,
      "Ġfeatures": 1466,
      "Ġlar": 1467,
      "erous": 1468,
      "ists": 1469,
      "Ġprim": 1470,
      "self": 1471,
      "Ġaudi": 1472,
      "Ġafter": 1473,
      "xim": 1474,
      "ĠThrough": 1475,
      "Ġjour": 1476,
      "Ġtarget": 1477,
      "Ġcontribute": 1478,
      "yn": 1479,
      "Ġcor": 1480,
      "Ġknowledge": 1481,
      "ators": 1482,
      "As": 1483,
      "ending": 1484,
      "nother": 1485,
      "Ġbeing": 1486,
      "Ġothers": 1487,
      "care": 1488,
      "iec": 1489,
      "view": 1490,
      "Ġpresent": 1491,
      "Ġindustry": 1492,
      "Ġtrust": 1493,
      "Ġshow": 1494,
      "Ġstep": 1495,
      "ream": 1496,
      "ason": 1497,
      "ĠAl": 1498,
      "Ġanaly": 1499,
      "aring": 1500,
      "Ġoptions": 1501,
      "ergy": 1502,
      "Ġaspect": 1503,
      "Ġvalu": 1504,
      "Ġutil": 1505,
      "au": 1506,
      "Ġmen": 1507,
      "Ġstrength": 1508,
      "Ġstruc": 1509,
      "pir": 1510,
      "Ġtal": 1511,
      "Ġgover": 1512,
      "Ġgr": 1513,
      "One": 1514,
      "Ġbrand": 1515,
      "Ġrelationships": 1516,
      "Ġsuccessful": 1517,
      "Ġwhy": 1518,
      "ests": 1519,
      "Ġtail": 1520,
      "acing": 1521,
      "Ġwhether": 1522,
      "Ġcra": 1523,
      "Ġused": 1524,
      "ological": 1525,
      "alu": 1526,
      "pite": 1527,
      "cept": 1528,
      "Ġdeli": 1529,
      "Ġcertain": 1530,
      "Ġself": 1531,
      "oot": 1532,
      "Ġbal": 1533,
      "Ġprin": 1534,
      "Ġcomponents": 1535,
      "Ġadap": 1536,
      "Ġ3": 1537,
      "atis": 1538,
      "Ġremains": 1539,
      "Ġcli": 1540,
      "Ġstudents": 1541,
      "Ġdetail": 1542,
      "fact": 1543,
      "Ġlands": 1544,
      "Ġcontrol": 1545,
      "Ġefforts": 1546,
      "Ġmodern": 1547,
      "ber": 1548,
      "ards": 1549,
      "istic": 1550,
      "Ġregul": 1551,
      "Ġrepresent": 1552,
      "oint": 1553,
      "ef": 1554,
      "Ġrelev": 1555,
      "Ġaut": 1556,
      "ries": 1557,
      "Ġgra": 1558,
      "Ġprefer": 1559,
      "Ġelements": 1560,
      "Ġlevels": 1561,
      "Ġsoci": 1562,
      "Ġide": 1563,
      "Ġpeople": 1564,
      "ney": 1565,
      "ix": 1566,
      "Ġemo": 1567,
      "ĠIm": 1568,
      "Ġsurround": 1569,
      "Ġpoli": 1570,
      "Ġcontinu": 1571,
      "ooking": 1572,
      "Ġ201": 1573,
      "ustain": 1574,
      "Ġappre": 1575,
      "Ġpopular": 1576,
      "Ġnetwor": 1577,
      "Ġlandsc": 1578,
      "fic": 1579,
      "Ġthough": 1580,
      "actions": 1581,
      "Ġvers": 1582,
      "Ġseem": 1583,
      "Ġparticularly": 1584,
      "by": 1585,
      "Ġcr": 1586,
      "Ġcaus": 1587,
      "app": 1588,
      "Ġbest": 1589,
      "Ġlaw": 1590,
      "ger": 1591,
      "ices": 1592,
      ".,": 1593,
      "Ġ'": 1594,
      "encies": 1595,
      "âĢĻ": 1596,
      "elling": 1597,
      "Ġtransform": 1598,
      "Ġcount": 1599,
      "inal": 1600,
      "Ġeffectively": 1601,
      "Ġeducation": 1602,
      "Ġbroad": 1603,
      "isting": 1604,
      "Ġtoday": 1605,
      "Ġclear": 1606,
      "Ġmedia": 1607,
      "ink": 1608,
      "pr": 1609,
      "Ġded": 1610,
      "Ġconcerns": 1611,
      "Ġcour": 1612,
      "Ġpat": 1613,
      "Another": 1614,
      "term": 1615,
      "embers": 1616,
      "aces": 1617,
      "Ġserve": 1618,
      "roduc": 1619,
      "Ġret": 1620,
      "Ġnumerous": 1621,
      "acter": 1622,
      "osing": 1623,
      "oid": 1624,
      "Ġhome": 1625,
      "Ġappreci": 1626,
      "Ġpositive": 1627,
      "Ġview": 1628,
      "Ġsug": 1629,
      "Ġwould": 1630,
      "Ġexperiences": 1631,
      "Ġconditions": 1632,
      "Ġfollowing": 1633,
      "orts": 1634,
      "ee": 1635,
      "atic": 1636,
      "fort": 1637,
      "Ġprocesses": 1638,
      "Ġsustain": 1639,
      "itiz": 1640,
      "Ġsafety": 1641,
      "Ġdecision": 1642,
      "ĠOn": 1643,
      "Ġfil": 1644,
      "Ġextract": 1645,
      "ufact": 1646,
      "Ġrather": 1647,
      "Ġgrou": 1648,
      "eness": 1649,
      "Ġcommon": 1650,
      "Ġcurr": 1651,
      "Ġcompeti": 1652,
      "Ġdesigned": 1653,
      "Ġbehav": 1654,
      "Ġenhance": 1655,
      "Ġsolutions": 1656,
      "Ġmembers": 1657,
      "ynam": 1658,
      "Ġmeaning": 1659,
      "erc": 1660,
      "Ġavailable": 1661,
      "Ġpriv": 1662,
      "Ġnecessary": 1663,
      "Ġtreat": 1664,
      "Ġeas": 1665,
      "ash": 1666,
      "Ġchild": 1667,
      "Ġsti": 1668,
      "red": 1669,
      "ected": 1670,
      "First": 1671,
      "ource": 1672,
      "Ġyears": 1673,
      "Ġcommitment": 1674,
      "Ġter": 1675,
      "Ġfeel": 1676,
      "Ġareas": 1677,
      "Ġcase": 1678,
      "Ġglob": 1679,
      "Ġsoft": 1680,
      "Ġcritical": 1681,
      "Ġpiec": 1682,
      "read": 1683,
      "dies": 1684,
      "Ġmaterials": 1685,
      "Ġwebs": 1686,
      "ars": 1687,
      "ru": 1688,
      "pos": 1689,
      "Ġsecurity": 1690,
      "duce": 1691,
      "eed": 1692,
      "Ġill": 1693,
      "Ġoutc": 1694,
      "vity": 1695,
      "Ġrecent": 1696,
      "ĠSo": 1697,
      "Ġengagement": 1698,
      "phas": 1699,
      "Ġenergy": 1700,
      "Ġensures": 1701,
      "Ġques": 1702,
      "Ġbuilding": 1703,
      "Ġincreased": 1704,
      "ict": 1705,
      "omet": 1706,
      "abilities": 1707,
      "Ġevents": 1708,
      "Ġpromoting": 1709,
      "Ġocc": 1710,
      "ane": 1711,
      "Ġproduct": 1712,
      "Ġattention": 1713,
      "Ġvaluable": 1714,
      "Ġselec": 1715,
      "Ġembr": 1716,
      "Ġultimately": 1717,
      "Ġdevic": 1718,
      "Ġread": 1719,
      "Ġstate": 1720,
      "time": 1721,
      "ince": 1722,
      "Ġlook": 1723,
      "Ġcul": 1724,
      "Ġyourself": 1725,
      "ĠAt": 1726,
      "ĠAcc": 1727,
      "Ġcustomer": 1728,
      "Th": 1729,
      "Ġaltern": 1730,
      "ously": 1731,
      "Ġund": 1732,
      "Ġmanufact": 1733,
      "ser": 1734,
      "ext": 1735,
      "Ġserves": 1736,
      "Ġless": 1737,
      "Ġservice": 1738,
      "Ġapplications": 1739,
      "Ġphysical": 1740,
      "ĠThey": 1741,
      "Ġproducts": 1742,
      "Ġrece": 1743,
      "Ġcommunities": 1744,
      "elines": 1745,
      "ration": 1746,
      "Ġsitu": 1747,
      "Ġadvant": 1748,
      "ĠGod": 1749,
      "ired": 1750,
      "Ġconnections": 1751,
      "entially": 1752,
      "Ġgovern": 1753,
      "Ġstri": 1754,
      "Ġvital": 1755,
      "wh": 1756,
      "Ġfind": 1757,
      "Ġcontent": 1758,
      "com": 1759,
      "Ġaccur": 1760,
      "aries": 1761,
      "Ġmental": 1762,
      "Ġupon": 1763,
      "Ġpay": 1764,
      "Ġsal": 1765,
      "reh": 1766,
      "Ġability": 1767,
      "Ġenables": 1768,
      "Ġengaging": 1769,
      "Ġsens": 1770,
      "ters": 1771,
      "Ġtem": 1772,
      "Ġstay": 1773,
      "Ġprovided": 1774,
      "Ġel": 1775,
      "Ġemphas": 1776,
      "Ġevol": 1777,
      "Ġresult": 1778,
      "ees": 1779,
      "ression": 1780,
      "Ġfund": 1781,
      "Ġfunctional": 1782,
      "Ġmaking": 1783,
      "Ġprofessionals": 1784,
      "rams": 1785,
      "ologies": 1786,
      "Ġhealthcare": 1787,
      "joy": 1788,
      "Ġdynam": 1789,
      "Ġpress": 1790,
      "Ġwithout": 1791,
      "ises": 1792,
      "Ġbecomes": 1793,
      "Ġve": 1794,
      "Ġrelevant": 1795,
      "Ġinformed": 1796,
      "conom": 1797,
      "port": 1798,
      "ĠDe": 1799,
      "Ġleaders": 1800,
      "eric": 1801,
      "Ġtoo": 1802,
      "Ġhelps": 1803,
      "Ġmove": 1804,
      "ĠInd": 1805,
      "ĠMan": 1806,
      "irc": 1807,
      "Ġtailored": 1808,
      "Ġclass": 1809,
      "Ġsurrounding": 1810,
      "Ġcharacter": 1811,
      "ral": 1812,
      "Ġreach": 1813,
      "rain": 1814,
      "Ġcollaboration": 1815,
      "Ġobj": 1816,
      "Ġfacilit": 1817,
      "pective": 1818,
      "hold": 1819,
      "Ġworking": 1820,
      "Ġvalues": 1821,
      "Ġaddressing": 1822,
      "Ġemb": 1823,
      "Ġmethods": 1824,
      "Ġmar": 1825,
      "Ġrob": 1826,
      "lex": 1827,
      "Ġenjoy": 1828,
      "bility": 1829,
      "ways": 1830,
      "Ġpo": 1831,
      "ising": 1832,
      "Ġprior": 1833,
      "Ġshared": 1834,
      "Ġact": 1835,
      "Ġmade": 1836,
      "Ġcustomers": 1837,
      "Ġresults": 1838,
      ":**": 1839,
      "Ġrisk": 1840,
      "atory": 1841,
      "rop": 1842,
      "Ġfocusing": 1843,
      "standing": 1844,
      "Ġspir": 1845,
      "Ġkeep": 1846,
      "Ġthems": 1847,
      "Ġthemselves": 1848,
      "Ġenti": 1849,
      "Ġwr": 1850,
      "avor": 1851,
      "Ġadapt": 1852,
      "ounter": 1853,
      "Ġactivities": 1854,
      "Ġyet": 1855,
      "Ġpattern": 1856,
      "be": 1857,
      "Ġsmall": 1858,
      "Ġcompany": 1859,
      "Ġevalu": 1860,
      "ren": 1861,
      "ones": 1862,
      "Ġprogram": 1863,
      "Ġinstit": 1864,
      "Ġfre": 1865,
      "Ġshap": 1866,
      "Ġoutcomes": 1867,
      "Ġsty": 1868,
      "Ġvisual": 1869,
      "Ġvia": 1870,
      "Ġmakes": 1871,
      "Ġhol": 1872,
      "ening": 1873,
      "Ġdeliver": 1874,
      "way": 1875,
      "Ġalign": 1876,
      "acks": 1877,
      "Ġelec": 1878,
      "echan": 1879,
      "inary": 1880,
      "Ġmess": 1881,
      "Ġincorporating": 1882,
      "Ġlay": 1883,
      "Ġther": 1884,
      "Ġplays": 1885,
      "Ġenabl": 1886,
      "Ġevid": 1887,
      "Ġsimilar": 1888,
      "oss": 1889,
      "Ġupd": 1890,
      "Ġfoster": 1891,
      "izes": 1892,
      "going": 1893,
      "Ġcultural": 1894,
      "io": 1895,
      "Ġrates": 1896,
      "astly": 1897,
      "Ġjourney": 1898,
      "Ġcome": 1899,
      "Ġexce": 1900,
      "Ġpost": 1901,
      "itions": 1902,
      "Ġpolicy": 1903,
      "ming": 1904,
      "ody": 1905,
      "ball": 1906,
      "iod": 1907,
      "ale": 1908,
      "Ġbelie": 1909,
      "Ġtravel": 1910,
      "Ġconven": 1911,
      "Ġexploring": 1912,
      "Key": 1913,
      "Ġtoget": 1914,
      "Ġbuild": 1915,
      "Ġenhancing": 1916,
      "Ġtogether": 1917,
      "Ġrisks": 1918,
      "ĠAr": 1919,
      "Ġdeterm": 1920,
      "ips": 1921,
      "Ġinv": 1922,
      "Ġprofessional": 1923,
      "Ġregular": 1924,
      "aps": 1925,
      "Ġspecifically": 1926,
      "Ġbeg": 1927,
      "Ġeconom": 1928,
      "Ġtas": 1929,
      "Ġdra": 1930,
      "Ġdoc": 1931,
      "Ġchange": 1932,
      "pping": 1933,
      "Ġengage": 1934,
      "Ġgreater": 1935,
      "Ġlies": 1936,
      "Ġinvolved": 1937,
      "orting": 1938,
      "Ġcompreh": 1939,
      "Ġmat": 1940,
      "ience": 1941,
      "Ġtru": 1942,
      "Ġappe": 1943,
      "ĠEm": 1944,
      "Ġcall": 1945,
      "Con": 1946,
      "ele": 1947,
      "ites": 1948,
      "Ġappear": 1949,
      "Ġclos": 1950,
      "Ġmeet": 1951,
      "Ġprograms": 1952,
      "ciples": 1953,
      "part": 1954,
      "uid": 1955,
      "ium": 1956,
      "Ġpowerful": 1957,
      "Ġrobust": 1958,
      "Ġtimes": 1959,
      "Ġcover": 1960,
      "ute": 1961,
      "ĠChris": 1962,
      "tif": 1963,
      "Ġresili": 1964,
      "ption": 1965,
      "Ġcompanies": 1966,
      "ĠAmeric": 1967,
      "Ġreflec": 1968,
      "active": 1969,
      "Ġcompared": 1970,
      "Ġhigher": 1971,
      "Ġmeasures": 1972,
      "Ġsoftware": 1973,
      "min": 1974,
      "pri": 1975,
      "ĠSh": 1976,
      "Ġknown": 1977,
      "of": 1978,
      "Ġaccount": 1979,
      "az": 1980,
      "Ġ4": 1981,
      "der": 1982,
      "ĠBut": 1983,
      "--------------------------------": 1984,
      "oints": 1985,
      "pecial": 1986,
      "Ġtrends": 1987,
      "Ġautom": 1988,
      "asts": 1989,
      "Ġaccording": 1990,
      "Ġdecisions": 1991,
      "vis": 1992,
      "Ġcompl": 1993,
      "Ġshare": 1994,
      "Ġspirit": 1995,
      "Ġnat": 1996,
      "ĠWhether": 1997,
      "Ġlandscape": 1998,
      "Ġintric": 1999,
      "Ġinnovation": 2000,
      "ĠBe": 2001,
      "Ġnature": 2002,
      "Ġlight": 2003,
      "de": 2004,
      "Ġreli": 2005,
      "urs": 2006,
      "uts": 2007,
      "Ġnon": 2008,
      "Ġprec": 2009,
      "ury": 2010,
      "Ġpartners": 2011,
      "Ġtypically": 2012,
      "tle": 2013,
      "Ġprinciples": 2014,
      "esting": 2015,
      "Ġthen": 2016,
      "urr": 2017,
      "Ġquick": 2018,
      "ecting": 2019,
      "icate": 2020,
      "Ġright": 2021,
      "Ġstill": 2022,
      "ĠChristi": 2023,
      "Ġcirc": 2024,
      "Ġgoals": 2025,
      "Ġexpect": 2026,
      "ĠWe": 2027,
      "tise": 2028,
      "ĠFrom": 2029,
      "Ġearly": 2030,
      "ores": 2031,
      "Ġmedical": 2032,
      "Ġshe": 2033,
      "asting": 2034,
      "Ġexperienc": 2035,
      "Ġenabling": 2036,
      "Ġhistor": 2037,
      "Ġcore": 2038,
      "Ġadditional": 2039,
      "ission": 2040,
      "Ġplanning": 2041,
      "Ġinj": 2042,
      "Ġglobal": 2043,
      "Ġalike": 2044,
      "Ġmuch": 2045,
      "Ġprevent": 2046,
      "ĠAccording": 2047,
      "ĠAnd": 2048,
      "Ġbehind": 2049,
      "Ġsince": 2050,
      "Ġmechan": 2051,
      "Ġlives": 2052,
      "Ġmere": 2053,
      "omen": 2054,
      "Ġsym": 2055,
      "Ġthought": 2056,
      "Ġstrategic": 2057,
      "Ġimpl": 2058,
      "Ġmem": 2059,
      "Ġongoing": 2060,
      "Ġrest": 2061,
      "ulation": 2062,
      "ĠCl": 2063,
      "Ġbalance": 2064,
      "Ġconvers": 2065,
      "Ġlooking": 2066,
      "Ġer": 2067,
      "Ġplace": 2068,
      "making": 2069,
      "pro": 2070,
      "Ġachieve": 2071,
      "Ġmention": 2072,
      "Ġran": 2073,
      "Ġtraining": 2074,
      "Ġconcept": 2075,
      "ament": 2076,
      "Ġspace": 2077,
      "ats": 2078,
      "Ġworth": 2079,
      "Ġinterest": 2080,
      "Ġprogress": 2081,
      "eper": 2082,
      "Ġreducing": 2083,
      "Ġpatterns": 2084,
      "omething": 2085,
      "Ġ5": 2086,
      "Ġclients": 2087,
      "ery": 2088,
      "Ġstory": 2089,
      "Ġmanaging": 2090,
      "iter": 2091,
      "Ġhistory": 2092,
      "Ġbroader": 2093,
      "ray": 2094,
      "Ġperiod": 2095,
      "ĠSim": 2096,
      "ify": 2097,
      "Ġdiscover": 2098,
      "Ġplayers": 2099,
      "Ġlegal": 2100,
      "Ġincreasingly": 2101,
      "Ġcraf": 2102,
      "Ġharm": 2103,
      "ĠComp": 2104,
      "ended": 2105,
      "atisf": 2106,
      "Ġorganization": 2107,
      "Ġinnovative": 2108,
      "Ġgame": 2109,
      "Ġsomething": 2110,
      "Ġwater": 2111,
      "Ġnar": 2112,
      "angu": 2113,
      "Ġcosts": 2114,
      "Ġcamp": 2115,
      "Ġra": 2116,
      "Ġassess": 2117,
      "Ġvol": 2118,
      "Ġmeans": 2119,
      "Ġpain": 2120,
      "Ġpotentially": 2121,
      "ĠCol": 2122,
      "istance": 2123,
      "Ġshif": 2124,
      "Ġemer": 2125,
      "Ġwere": 2126,
      "Ġconduc": 2127,
      "Ġchallenging": 2128,
      "Ġpros": 2129,
      "Ġ19": 2130,
      "porary": 2131,
      "tig": 2132,
      "Ġexisting": 2133,
      "Ġchanges": 2134,
      "Ġdeeper": 2135,
      "ove": 2136,
      "based": 2137,
      "Ġlist": 2138,
      "Ġbehavior": 2139,
      "ios": 2140,
      "Ġadop": 2141,
      "Ġdam": 2142,
      "ĠReg": 2143,
      "Ġstrategy": 2144,
      "Ġactive": 2145,
      "Ġamid": 2146,
      "Ġflex": 2147,
      "Ġda": 2148,
      "Ġrequirements": 2149,
      "Ġmusic": 2150,
      "Ġfoot": 2151,
      "Ġfield": 2152,
      "Ġtypes": 2153,
      "Ġsum": 2154,
      "nderstanding": 2155,
      "ĠDes": 2156,
      "back": 2157,
      "Ġconfid": 2158,
      "ĠTr": 2159,
      "sy": 2160,
      "sts": 2161,
      "Ġclose": 2162,
      "just": 2163,
      "Ġevent": 2164,
      "ewel": 2165,
      "Ġscen": 2166,
      "Ġsteps": 2167,
      "Ġart": 2168,
      "ĠComm": 2169,
      "Ġdistin": 2170,
      "Ġconst": 2171,
      "Ġmaxim": 2172,
      "ived": 2173,
      "isc": 2174,
      "urance": 2175,
      "Ġinternational": 2176,
      "Ġsearch": 2177,
      "Ġpossible": 2178,
      "ĠPl": 2179,
      "ibr": 2180,
      "**:": 2181,
      "Ġlearn": 2182,
      "Ġempower": 2183,
      "Ġappropri": 2184,
      "Ġdirectly": 2185,
      "icated": 2186,
      "Ġcontain": 2187,
      "iliar": 2188,
      "Ġopportunity": 2189,
      "Ġdive": 2190,
      "yc": 2191,
      "side": 2192,
      "Ġstream": 2193,
      "ĠRe": 2194,
      "Ġinclus": 2195,
      "Ġcontinue": 2196,
      "Ġpast": 2197,
      "Ġperf": 2198,
      "Ġrun": 2199,
      "Ġmind": 2200,
      "eck": 2201,
      "Ġgam": 2202,
      "Ġteams": 2203,
      "oph": 2204,
      "Ġcurrent": 2205,
      "Ġnatural": 2206,
      "Ġculture": 2207,
      "Ġaimed": 2208,
      "Ġmom": 2209,
      "Ġstar": 2210,
      "ĠIf": 2211,
      "Ġidentify": 2212,
      "pre": 2213,
      "Ġexec": 2214,
      "Ġinvolve": 2215,
      "icial": 2216,
      "Ġsubst": 2217,
      "Ġmonit": 2218,
      "put": 2219,
      "know": 2220,
      "ides": 2221,
      "Ġsatisf": 2222,
      "Ġhighlights": 2223,
      "Ġlarge": 2224,
      "ode": 2225,
      "Ġregion": 2226,
      "Ġdelve": 2227,
      "Ġhaving": 2228,
      "agn": 2229,
      "pecially": 2230,
      "Ġconstruc": 2231,
      "Ġbegin": 2232,
      "Ġexpertise": 2233,
      "Ġtri": 2234,
      "tis": 2235,
      "Ġcomput": 2236,
      "Ġauthor": 2237,
      "Ġcomfort": 2238,
      "Ġcontext": 2239,
      "Ġcareful": 2240,
      "asc": 2241,
      "quality": 2242,
      "ugg": 2243,
      "Ġorig": 2244,
      "ysis": 2245,
      "Ġworks": 2246,
      "thing": 2247,
      "ĠApp": 2248,
      "aged": 2249,
      "ĠHe": 2250,
      "ĠInst": 2251,
      "Ġlangu": 2252,
      "ument": 2253,
      "itch": 2254,
      "Ġrelated": 2255,
      "Ġsecure": 2256,
      "Ġdon": 2257,
      "Ġexpand": 2258,
      "Ġoperations": 2259,
      "Ġgood": 2260,
      "rac": 2261,
      "Ġpractice": 2262,
      "iven": 2263,
      "Ġposition": 2264,
      "Ġespecially": 2265,
      "Ġresponsible": 2266,
      "Ġfree": 2267,
      "Ġefficiency": 2268,
      "Ġpreferences": 2269,
      "ĠThere": 2270,
      "Ġpolicies": 2271,
      "itle": 2272,
      "amless": 2273,
      "Ġcontem": 2274,
      "Ġanalyz": 2275,
      "Ġtaking": 2276,
      "Ġavoid": 2277,
      "inating": 2278,
      "ouse": 2279,
      "Ġproble": 2280,
      "Ġrich": 2281,
      "Ġheart": 2282,
      "not": 2283,
      "ots": 2284,
      "oms": 2285,
      "Ġcapabilities": 2286,
      "ool": 2287,
      "Ġvir": 2288,
      "wareness": 2289,
      "Ġquestions": 2290,
      "cri": 2291,
      "Ġfa": 2292,
      "ĠAc": 2293,
      "Ġitself": 2294,
      "Now": 2295,
      "Ġinstead": 2296,
      "let": 2297,
      "Ġpreser": 2298,
      "edi": 2299,
      "Ġones": 2300,
      "Ġways": 2301,
      "ighting": 2302,
      "Ġresilience": 2303,
      "Ġeth": 2304,
      "Ġtechnologies": 2305,
      "Ġnear": 2306,
      "ishing": 2307,
      "Ġstudy": 2308,
      "aching": 2309,
      "ems": 2310,
      "Ġseamless": 2311,
      "ender": 2312,
      "Ġcloser": 2313,
      "Ġvide": 2314,
      "ension": 2315,
      "face": 2316,
      "Ġaction": 2317,
      "Ġfamily": 2318,
      "Ġprimary": 2319,
      "Ġet": 2320,
      "Ġvi": 2321,
      "ished": 2322,
      "Ġreput": 2323,
      "Ġproduction": 2324,
      "Ġseason": 2325,
      "Ġshort": 2326,
      "ules": 2327,
      "Ġamidst": 2328,
      "aign": 2329,
      "su": 2330,
      "ĠSuch": 2331,
      "ewelry": 2332,
      "Ġpolitical": 2333,
      "iance": 2334,
      "Ġhard": 2335,
      "Ġthree": 2336,
      "Ġapproaches": 2337,
      "play": 2338,
      "Ġsing": 2339,
      "Ġmentioned": 2340,
      "Ġtruly": 2341,
      "entic": 2342,
      "Ġdemand": 2343,
      "Ġcultiv": 2344,
      "Ġpromote": 2345,
      "Ġwebsite": 2346,
      "Ġembracing": 2347,
      "ground": 2348,
      "Ġbi": 2349,
      "tivity": 2350,
      "Ġdr": 2351,
      "Ġlever": 2352,
      "Moreover": 2353,
      "Ġevidence": 2354,
      "Ġsignificance": 2355,
      "Ġsharing": 2356,
      "Ġimproved": 2357,
      "orm": 2358,
      "Ġshaping": 2359,
      "holders": 2360,
      "When": 2361,
      "Ġdevices": 2362,
      "Ġapplication": 2363,
      "clusion": 2364,
      "emic": 2365,
      "Ġoptimal": 2366,
      "sych": 2367,
      "ident": 2368,
      "Ġqual": 2369,
      "force": 2370,
      "Ġadjust": 2371,
      "Ġfinding": 2372,
      "Ġchann": 2373,
      "Ġshowc": 2374,
      "Ġstruct": 2375,
      "Ġconsistent": 2376,
      "Ġforms": 2377,
      "ibilities": 2378,
      "Ġspe": 2379,
      "Ġpath": 2380,
      "Ġday": 2381,
      "Ġneg": 2382,
      "Ġste": 2383,
      "Ġsolid": 2384,
      "Ġcut": 2385,
      "Ġpred": 2386,
      "At": 2387,
      "aim": 2388,
      "Ġstake": 2389,
      "Ġfeed": 2390,
      "arily": 2391,
      "Ġrange": 2392,
      "work": 2393,
      "orough": 2394,
      "Ġvari": 2395,
      "Ġnavigate": 2396,
      "Ġtherap": 2397,
      "Ġtext": 2398,
      "Ġsection": 2399,
      "Ġing": 2400,
      "Ġhim": 2401,
      "Ġexpos": 2402,
      "Ġterms": 2403,
      "Lastly": 2404,
      "Ġenable": 2405,
      "Ġmy": 2406,
      "Ġrepresents": 2407,
      "Ġpurch": 2408,
      "Ġemerg": 2409,
      "Ġhowever": 2410,
      "Ġmeaningful": 2411,
      "Ġlow": 2412,
      "ote": 2413,
      "ified": 2414,
      "hood": 2415,
      "Ġcourse": 2416,
      "Ġdeb": 2417,
      "Firstly": 2418,
      "Ġthereby": 2419,
      "ered": 2420,
      "ax": 2421,
      "ush": 2422,
      "Ġalways": 2423,
      "Ġperfect": 2424,
      "Ġenvironments": 2425,
      "Ġinstitutions": 2426,
      "Ġsl": 2427,
      "Ġdial": 2428,
      "Ġfeature": 2429,
      "Ġhost": 2430,
      "erson": 2431,
      "pected": 2432,
      "Ġrefers": 2433,
      "Ġarea": 2434,
      "Ġfunction": 2435,
      "Ġfood": 2436,
      "cer": 2437,
      "ounts": 2438,
      "Ġyoun": 2439,
      "Ġcampaign": 2440,
      "bo": 2441,
      "Ġentire": 2442,
      "Ġfri": 2443,
      "Ġunc": 2444,
      "Ġinitiatives": 2445,
      "Ġhistorical": 2446,
      "ĠTitle": 2447,
      "Ġdespite": 2448,
      "Ġprojects": 2449,
      "anti": 2450,
      "int": 2451,
      "Ġreview": 2452,
      "ternal": 2453,
      "Ġrequired": 2454,
      "Ġfrequ": 2455,
      "Ġproced": 2456,
      "Ġstu": 2457,
      "Ġconnection": 2458,
      "Ġsugges": 2459,
      "Ġget": 2460,
      "ope": 2461,
      "Ġroles": 2462,
      "Ġsets": 2463,
      "Ġbound": 2464,
      "Ġground": 2465,
      "Ġcapable": 2466,
      "Ġ$": 2467,
      "Ġinterven": 2468,
      "Ġremember": 2469,
      "Ġadvance": 2470,
      "inally": 2471,
      "Ġnarra": 2472,
      "Ġproject": 2473,
      "Ġsense": 2474,
      "Ġemotional": 2475,
      "aste": 2476,
      "Ġdeveloping": 2477,
      "Ġsociety": 2478,
      "Ġbody": 2479,
      "Ġalternative": 2480,
      "Ġappropriate": 2481,
      "ran": 2482,
      "Ġann": 2483,
      "Ġsettings": 2484,
      "aff": 2485,
      "Ġpatients": 2486,
      "ystem": 2487,
      "Ġsound": 2488,
      "Ġsources": 2489,
      "Ġlocation": 2490,
      "Ġimplementing": 2491,
      "Ġelectr": 2492,
      "ean": 2493,
      "eless": 2494,
      "ĠChristian": 2495,
      "'ll": 2496,
      "Ġconsumers": 2497,
      "Ġenvironmental": 2498,
      "place": 2499,
      "Ġgroups": 2500,
      "rame": 2501,
      "Ġresulting": 2502,
      "Ġcal": 2503,
      "Ġcred": 2504,
      "Ġbar": 2505,
      "Ġage": 2506,
      "apid": 2507,
      "Ġpiece": 2508,
      "Ġfail": 2509,
      "Ġindic": 2510,
      "elebr": 2511,
      "Ġeducational": 2512,
      "Ġsw": 2513,
      "den": 2514,
      "Ġcry": 2515,
      "ĠQ": 2516,
      "ĠConsequ": 2517,
      "Ġdetails": 2518,
      "Ġrefer": 2519,
      "Ġjewelry": 2520,
      "Ġcollective": 2521,
      "Ġillust": 2522,
      "Ġmanufacturing": 2523,
      "Ġengine": 2524,
      "Ġ202": 2525,
      "Ġequip": 2526,
      "Ġestablished": 2527,
      "Ġline": 2528,
      "Ġfar": 2529,
      "Ġdom": 2530,
      "Ġhere": 2531,
      "Ġadvanced": 2532,
      "Ġtasks": 2533,
      "Ġtreatment": 2534,
      "Ġhead": 2535,
      "Ġinstall": 2536,
      "ĠNew": 2537,
      "Ġstakeholders": 2538,
      "Ġec": 2539,
      "Ġreduce": 2540,
      "Ġfull": 2541,
      "ok": 2542,
      "Ġheav": 2543,
      "Ġinher": 2544,
      "itig": 2545,
      "Ġhy": 2546,
      "Conclusion": 2547,
      "isms": 2548,
      "idents": 2549,
      "Ġlower": 2550,
      "Ġrig": 2551,
      "Ġauthentic": 2552,
      "Ġtranspar": 2553,
      "Ġawareness": 2554,
      "ĠConsequently": 2555,
      "Ġface": 2556,
      "though": 2557,
      "Ġspiritual": 2558,
      "Ġstress": 2559,
      "ĠĠĠĠ": 2560,
      "Ġthorough": 2561,
      "Ġmatch": 2562,
      "###": 2563,
      "ah": 2564,
      "Ġ`": 2565,
      "Ġinterests": 2566,
      "Ġrelationship": 2567,
      "Ġstandards": 2568,
      "Ġexcell": 2569,
      "Ġexperienced": 2570,
      "itable": 2571,
      "ump": 2572,
      "ĠOr": 2573,
      "Ġbas": 2574,
      "irm": 2575,
      "Ġthreat": 2576,
      "Ġbenefit": 2577,
      "Ġfaith": 2578,
      "Ġlove": 2579,
      "Ġphot": 2580,
      "Ġcater": 2581,
      "Ġaudiences": 2582,
      "Ġunders": 2583,
      "rup": 2584,
      "ressive": 2585,
      "Ġexcep": 2586,
      "Ġdaily": 2587,
      "Ġinitial": 2588,
      "Ġhar": 2589,
      "tenance": 2590,
      "Ġobser": 2591,
      "Ġcontemporary": 2592,
      "Ġtype": 2593,
      "Ġrights": 2594,
      "Ġrespect": 2595,
      "Ġexpectations": 2596,
      "ĠAfter": 2597,
      "Ġmach": 2598,
      "me": 2599,
      "Ġinspir": 2600,
      "aster": 2601,
      "hic": 2602,
      "Ġissue": 2603,
      "Ġchildren": 2604,
      "Ġparties": 2605,
      "Ġcelebr": 2606,
      "Ġanalysis": 2607,
      "However": 2608,
      "Ġtre": 2609,
      "Ġturn": 2610,
      "Ġinvesting": 2611,
      "ulner": 2612,
      "Ġdialog": 2613,
      "ultane": 2614,
      "minist": 2615,
      "Ġapart": 2616,
      "Ġver": 2617,
      "acking": 2618,
      "uty": 2619,
      "atively": 2620,
      "Ġproperty": 2621,
      "rim": 2622,
      "orn": 2623,
      "Ġrapid": 2624,
      "ĠRes": 2625,
      "Ġjob": 2626,
      "ativity": 2627,
      "Ġresponse": 2628,
      "oh": 2629,
      "Ġlog": 2630,
      "Ġpsych": 2631,
      "Ġfunctionality": 2632,
      "Ġtechnical": 2633,
      "Ġreve": 2634,
      "Ġtransport": 2635,
      "utes": 2636,
      "ĠOver": 2637,
      "Ġalongside": 2638,
      "Ġfaced": 2639,
      "Ġmanage": 2640,
      "Ġvisit": 2641,
      "Ġlanguage": 2642,
      "oration": 2643,
      "Ġliving": 2644,
      "Ġtool": 2645,
      "Ġmodels": 2646,
      "Ġclean": 2647,
      "ause": 2648,
      "Ġchannels": 2649,
      "pped": 2650,
      "Ġoffering": 2651,
      "Ġprotection": 2652,
      "Ġlimit": 2653,
      "Ġpoints": 2654,
      "oud": 2655,
      "Ġprivacy": 2656,
      "Ġdraw": 2657,
      "Ġchallenge": 2658,
      "ulations": 2659,
      "ifying": 2660,
      "Ġstrugg": 2661,
      "ompass": 2662,
      "Ġquickly": 2663,
      "ony": 2664,
      "Ġexerc": 2665,
      "ĠPh": 2666,
      "Ġadvantages": 2667,
      "being": 2668,
      "Ġloss": 2669,
      "Ġscenar": 2670,
      "Ġnow": 2671,
      "Ġgreat": 2672,
      "Ġvulner": 2673,
      "enses": 2674,
      "Ġpossess": 2675,
      "val": 2676,
      "Ġcompetitive": 2677,
      "Ġbackground": 2678,
      "ĠCont": 2679,
      "Ġimplications": 2680,
      "hib": 2681,
      "Ġpatient": 2682,
      "Ġcross": 2683,
      "Ġsafe": 2684,
      "Ġcomplete": 2685,
      "wide": 2686,
      "ged": 2687,
      "Ġactions": 2688,
      "ffic": 2689,
      "Ġcomprehensive": 2690,
      "Ġacqu": 2691,
      "Ġdedicated": 2692,
      ",\"": 2693,
      "Ġaway": 2694,
      "Ġcontributing": 2695,
      "Ġsingle": 2696,
      "ĠAmerican": 2697,
      "Ġinvolving": 2698,
      "Ġinvestment": 2699,
      "Ġstructure": 2700,
      "Ġcircum": 2701,
      "redi": 2702,
      "Ġexpress": 2703,
      "Be": 2704,
      "Ġpack": 2705,
      "Ġcareer": 2706,
      "Ġprevious": 2707,
      "Ġmis": 2708,
      "Ġwa": 2709,
      "ooth": 2710,
      "inking": 2711,
      "Ġequipment": 2712,
      "Ġundersc": 2713,
      "Ġmut": 2714,
      "structure": 2715,
      "ultaneously": 2716,
      "orous": 2717,
      "osp": 2718,
      "Ġinvestig": 2719,
      "Ġ6": 2720,
      "Ġeveryone": 2721,
      "land": 2722,
      "Ġguidance": 2723,
      "Ġprioritiz": 2724,
      "Ġversati": 2725,
      "ĠSimilar": 2726,
      "crib": 2727,
      "Ġmill": 2728,
      "ĠTra": 2729,
      "Ġcell": 2730,
      "Ġbreak": 2731,
      "Ġdur": 2732,
      "Ġtrue": 2733,
      "ator": 2734,
      "ardless": 2735,
      "hes": 2736,
      "ĠBo": 2737,
      "Ġdevelopers": 2738,
      "ront": 2739,
      "eral": 2740,
      "Ġever": 2741,
      "ĠStr": 2742,
      "ĠRec": 2743,
      "Ġcontinuous": 2744,
      "ĠUnderstanding": 2745,
      "Ġintegration": 2746,
      "Ġair": 2747,
      "Ġimprovement": 2748,
      "Ġintricate": 2749,
      "Ġgather": 2750,
      "Ġexternal": 2751,
      "Ġgovernment": 2752,
      "Ġcarefully": 2753,
      "lo": 2754,
      "Ġsales": 2755,
      "Ġtest": 2756,
      "ĠSer": 2757,
      "Ġvehic": 2758,
      "ule": 2759,
      "Ġsimple": 2760,
      "Ġge": 2761,
      "Ġdoing": 2762,
      "Ġeconomic": 2763,
      "Ġyoung": 2764,
      "Ġillustr": 2765,
      "Ġdriving": 2766,
      "Ġdiv": 2767,
      "head": 2768,
      "Ġreduced": 2769,
      "Ġimproving": 2770,
      "Ġsched": 2771,
      "Ġfit": 2772,
      "ably": 2773,
      "Ġidentity": 2774,
      "Ġconsidering": 2775,
      "bers": 2776,
      "acts": 2777,
      "Ġreson": 2778,
      "Ġflexibility": 2779,
      "Ġnavigating": 2780,
      "jor": 2781,
      "oming": 2782,
      "This": 2783,
      "ĠAss": 2784,
      "vice": 2785,
      "Ġexamine": 2786,
      "Ġsumm": 2787,
      "Ġencompass": 2788,
      "Ġreturn": 2789,
      "ticip": 2790,
      "alls": 2791,
      "ude": 2792,
      "Ġmaintenance": 2793,
      "Ġnecessit": 2794,
      "Ġpressure": 2795,
      "Ġstat": 2796,
      "Ġacad": 2797,
      "apter": 2798,
      "ĠMed": 2799,
      "ĠTherefore": 2800,
      "Ġrequiring": 2801,
      "By": 2802,
      "Ġinfluence": 2803,
      "Ġvirt": 2804,
      "Ġresol": 2805,
      "Ġconsideration": 2806,
      "Ġsustainable": 2807,
      "lier": 2808,
      "Ġwide": 2809,
      "ird": 2810,
      "Ġcreative": 2811,
      "Ġtalent": 2812,
      "Ġonce": 2813,
      "Ġcreativity": 2814,
      "Ġey": 2815,
      "Ġrelig": 2816,
      "rastructure": 2817,
      "Ġresource": 2818,
      "veness": 2819,
      "Ġconflic": 2820,
      "Ġingredi": 2821,
      "Ġforward": 2822,
      "Ġappreciation": 2823,
      "esthe": 2824,
      "Ġparam": 2825,
      "Ġfew": 2826,
      "man": 2827,
      "roduction": 2828,
      "Ġenhanced": 2829,
      "ken": 2830,
      "Ġsuper": 2831,
      "Ġevolving": 2832,
      "Ġexamining": 2833,
      "Ġsatisfaction": 2834,
      "ĠEach": 2835,
      "Ġpursu": 2836,
      "onds": 2837,
      "Ġadvoc": 2838,
      "Ġproviders": 2839,
      "fford": 2840,
      "Ġur": 2841,
      "icro": 2842,
      "aches": 2843,
      "ĠIs": 2844,
      "Ġcircumst": 2845,
      "But": 2846,
      "Ġsame": 2847,
      "rics": 2848,
      "``": 2849,
      "Ġstories": 2850,
      "ĠIts": 2851,
      "Ġemail": 2852,
      "Ġwar": 2853,
      "Ġtoward": 2854,
      "onic": 2855,
      "Ġframe": 2856,
      "Ġemerging": 2857,
      "Ġcand": 2858,
      "ĠGo": 2859,
      "Ġpoint": 2860,
      "II": 2861,
      "Ġnotable": 2862,
      "ĠBl": 2863,
      "Ġrecomm": 2864,
      "Ġeffort": 2865,
      "Ġouts": 2866,
      "uries": 2867,
      "Ġincrease": 2868,
      "Ġpresence": 2869,
      "Ġsubstanti": 2870,
      "Ġprocedures": 2871,
      "ank": 2872,
      "Ġplayer": 2873,
      "pose": 2874,
      "Ġfavor": 2875,
      "use": 2876,
      "ĠInstead": 2877,
      ".\"": 2878,
      "Ġsus": 2879,
      "Ġfill": 2880,
      "Ġacknow": 2881,
      "ĠDevelop": 2882,
      "Ġwin": 2883,
      "Ġunderlying": 2884,
      "Ġmodel": 2885,
      "Ġadvers": 2886,
      "Ġeasy": 2887,
      "epend": 2888,
      "Ġminimizing": 2889,
      "Ġgroup": 2890,
      "ĠSome": 2891,
      "Ġnetwork": 2892,
      "Ġtac": 2893,
      "aly": 2894,
      "ĠSp": 2895,
      "Ġnext": 2896,
      "Ġtax": 2897,
      "Ġinfrastructure": 2898,
      "Ġdedication": 2899,
      "onom": 2900,
      "aced": 2901,
      "Ġcolle": 2902,
      "Ġnetworks": 2903,
      "ffici": 2904,
      "af": 2905,
      "ject": 2906,
      "Ġmonth": 2907,
      "ux": 2908,
      "Ġopp": 2909,
      "Ġsole": 2910,
      "ured": 2911,
      "Ġarg": 2912,
      "Ġleadership": 2913,
      "Ġconcer": 2914,
      "Ġisn": 2915,
      "Ġhighly": 2916,
      "Ġdialogue": 2917,
      "Ġbase": 2918,
      "Ġgiven": 2919,
      "Ġmob": 2920,
      "akers": 2921,
      "Ġinsurance": 2922,
      "Ġcolor": 2923,
      "Ġinfluenc": 2924,
      "Ġmitig": 2925,
      "Ġfosters": 2926,
      "Ġdocument": 2927,
      "Ġdamage": 2928,
      "Ġboundaries": 2929,
      "Ġcircumstances": 2930,
      "ler": 2931,
      "Ġz": 2932,
      "outh": 2933,
      "Ġconstit": 2934,
      "Ġdest": 2935,
      "unch": 2936,
      "Ġappreciate": 2937,
      "Ġstructures": 2938,
      "ĠSimilarly": 2939,
      "For": 2940,
      "ĠRem": 2941,
      "ĠTheir": 2942,
      "Ġmotiv": 2943,
      "ĠGuid": 2944,
      "Ġobjec": 2945,
      "Ġclaim": 2946,
      "Ġonto": 2947,
      "Ġplans": 2948,
      "pecific": 2949,
      "Ġname": 2950,
      "Ġdim": 2951,
      "ĠPer": 2952,
      "Ġsomeone": 2953,
      "Ġworldwide": 2954,
      "Ġlarger": 2955,
      "igence": 2956,
      "Ġinteractions": 2957,
      "eth": 2958,
      "Ġstudies": 2959,
      "mit": 2960,
      "Ġaesthe": 2961,
      "ĠWor": 2962,
      "Ġsyn": 2963,
      "rist": 2964,
      "ops": 2965,
      "Ġsimultaneously": 2966,
      "ient": 2967,
      "ife": 2968,
      "ĠHis": 2969,
      "ĠSec": 2970,
      "Ġimmedi": 2971,
      "Ġdynamic": 2972,
      "Ġdat": 2973,
      "Ġdesired": 2974,
      "cepts": 2975,
      "Ġexposure": 2976,
      "ours": 2977,
      "Ġdistinct": 2978,
      "Ġstor": 2979,
      "Ġefficient": 2980,
      "ster": 2981,
      "Ġhad": 2982,
      "etal": 2983,
      "ensions": 2984,
      "Ġcer": 2985,
      "Ġexch": 2986,
      "Ġdise": 2987,
      "Ġvideo": 2988,
      "Ġchoosing": 2989,
      "Ġwomen": 2990,
      "Ġaddition": 2991,
      "ĠZ": 2992,
      "ither": 2993,
      "Ġselecting": 2994,
      "Ġthri": 2995,
      "Ġarch": 2996,
      "Ġdemands": 2997,
      "like": 2998,
      "inder": 2999,
      "Ġregulations": 3000,
      "Ġrigorous": 3001,
      "Ġred": 3002,
      "ellow": 3003,
      "Ġdiffic": 3004,
      "ision": 3005,
      "Ġdemonstrate": 3006,
      "Ġtopics": 3007,
      "Ġguidelines": 3008,
      "auti": 3009,
      "Ġanim": 3010,
      "Ġmechanisms": 3011,
      "Ġchapter": 3012,
      "Ġcompati": 3013,
      "Ġenth": 3014,
      "tiveness": 3015,
      "Ġanti": 3016,
      "Ġunivers": 3017,
      "Ġlive": 3018,
      "Ġafford": 3019,
      "Ġexceptional": 3020,
      "Ġneeded": 3021,
      "Ġaudience": 3022,
      "Ġcompet": 3023,
      "ingly": 3024,
      "Ġuntil": 3025,
      "coming": 3026,
      "Ġskin": 3027,
      "Ġminimize": 3028,
      "Ġstaff": 3029,
      "Ġpa": 3030,
      "Ġsolely": 3031,
      "Ġadminist": 3032,
      "Ġfeedback": 3033,
      "Ġsect": 3034,
      "Ġprepar": 3035,
      "gra": 3036,
      "âĢĿ": 3037,
      "Ġencounter": 3038,
      "Ġexist": 3039,
      "Ġearlier": 3040,
      "Ġchoose": 3041,
      "000": 3042,
      "Ġencourages": 3043,
      "Ġoffered": 3044,
      "Ġinherent": 3045,
      "Ġcat": 3046,
      "Ġsav": 3047,
      "ĠSu": 3048,
      "usi": 3049,
      "ields": 3050,
      "ersonal": 3051,
      "ifies": 3052,
      "Ġcases": 3053,
      "Ġseek": 3054,
      "alle": 3055,
      "Ġstability": 3056,
      "Ġreport": 3057,
      "Ġcutting": 3058,
      "Ġport": 3059,
      "acity": 3060,
      "Ġusage": 3061,
      "Ġrout": 3062,
      "Ġbecause": 3063,
      "Ġspecialized": 3064,
      "Ġfacilitate": 3065,
      "Ġtransparency": 3066,
      "Ġtouch": 3067,
      "Ġeffects": 3068,
      "Ġcandid": 3069,
      "itation": 3070,
      "Ġbur": 3071,
      "Ġvo": 3072,
      "Ġadher": 3073,
      "Ġvary": 3074,
      "Ġguide": 3075,
      "ĠYou": 3076,
      "Ġadvent": 3077,
      "Ġsil": 3078,
      "Ġsite": 3079,
      "Ġprep": 3080,
      "Ġsports": 3081,
      "Ġpharm": 3082,
      "Ġgrowing": 3083,
      "Ġfully": 3084,
      "Ġadvantage": 3085,
      "Ġdynamics": 3086,
      "uine": 3087,
      "Ġalloc": 3088,
      "Ġmajor": 3089,
      "Ġ200": 3090,
      "Ġfamiliar": 3091,
      "turing": 3092,
      "Ġartic": 3093,
      "athy": 3094,
      "ek": 3095,
      "ribution": 3096,
      "Ġpieces": 3097,
      "Ġaspir": 3098,
      "Ġorder": 3099,
      "Ġintr": 3100,
      "Ġsituation": 3101,
      "Ġenthusi": 3102,
      "Ġcateg": 3103,
      "ls": 3104,
      "Ġrad": 3105,
      "Ġcannot": 3106,
      "Ġsituations": 3107,
      "Ġintegrating": 3108,
      "Ġchoices": 3109,
      "Ġupdates": 3110,
      "On": 3111,
      "ring": 3112,
      "ĠInt": 3113,
      "Ġath": 3114,
      "Ġfasc": 3115,
      "Ġexciting": 3116,
      "icious": 3117,
      "Ġelev": 3118,
      "Ġreliable": 3119,
      "Ġerr": 3120,
      "Ġemployees": 3121,
      "agine": 3122,
      "ulate": 3123,
      "Ġdev": 3124,
      "Ġsci": 3125,
      "Ġnumber": 3126,
      "Ġcrim": 3127,
      "Ġappeal": 3128,
      "Ġmonitoring": 3129,
      "eline": 3130,
      "Ġsize": 3131,
      "Ġthemes": 3132,
      "Ġviol": 3133,
      "auty": 3134,
      "Ġextra": 3135,
      "Ġdelivering": 3136,
      "Ġconcepts": 3137,
      "eli": 3138,
      "ords": 3139,
      "Ġincludes": 3140,
      "Ġbud": 3141,
      "Ġparticipants": 3142,
      "Ġlimited": 3143,
      "uel": 3144,
      "ĠPre": 3145,
      "Ġprem": 3146,
      "Ġactivity": 3147,
      "Ġtemper": 3148,
      "Ġadvancements": 3149,
      "gest": 3150,
      "Ġsolution": 3151,
      "ĠConsider": 3152,
      "oyal": 3153,
      "Ġreceive": 3154,
      "ĠâĢľ": 3155,
      "Ġsubstantial": 3156,
      "Ġpresents": 3157,
      "Ġsensitive": 3158,
      "Ġobjectives": 3159,
      "Ġhold": 3160,
      "Ġsmooth": 3161,
      "Ġwellbeing": 3162,
      "venue": 3163,
      "Ġbelief": 3164,
      "Ġflow": 3165,
      "essions": 3166,
      "oor": 3167,
      "Ġvibr": 3168,
      "Ġgenuine": 3169,
      "Ġdepending": 3170,
      "Ġfamil": 3171,
      "Ġcomponent": 3172,
      "Ġattr": 3173,
      "Ġprotect": 3174,
      "Ġalle": 3175,
      "aceu": 3176,
      "Ġdemonstrates": 3177,
      "Ġsepar": 3178,
      "Ġutilizing": 3179,
      "sc": 3180,
      "Ġproblem": 3181,
      "Ġdiagn": 3182,
      "Ġproperties": 3183,
      "Ġconfidence": 3184,
      "Ġtherapy": 3185,
      "Ġterm": 3186,
      "ĠSch": 3187,
      "Ġtraffic": 3188,
      "Ġcontributes": 3189,
      "cing": 3190,
      "Ġstyle": 3191,
      "Ġfootball": 3192,
      "Ġfriends": 3193,
      "ĠUs": 3194,
      "Ġrecip": 3195,
      "Ġconsistently": 3196,
      "endly": 3197,
      "amm": 3198,
      "Ġabilities": 3199,
      "avors": 3200,
      "Ġimmers": 3201,
      "Ġaccurate": 3202,
      "---": 3203,
      "Ġcounter": 3204,
      "Ġfig": 3205,
      "Ġbeauty": 3206,
      "Ġsupporting": 3207,
      "ĠSc": 3208,
      "Ġchoice": 3209,
      "ography": 3210,
      "Ġcrypt": 3211,
      "Ġitems": 3212,
      "Ġcontinues": 3213,
      "Ġresponsibility": 3214,
      "acting": 3215,
      "Ġconsequ": 3216,
      "Ġhandling": 3217,
      "Ġspaces": 3218,
      "ĠTips": 3219,
      "Ġprice": 3220,
      "20": 3221,
      "ĠCo": 3222,
      "EO": 3223,
      "Ġrein": 3224,
      "Ġoption": 3225,
      "Ġconfig": 3226,
      "So": 3227,
      "arant": 3228,
      "Ġsimpl": 3229,
      "tition": 3230,
      "Ġdiscussions": 3231,
      "Ġachieving": 3232,
      "urch": 3233,
      "Ġlikely": 3234,
      "ĠEng": 3235,
      "Ġcredit": 3236,
      "Ġfoundation": 3237,
      "ener": 3238,
      "taining": 3239,
      "uil": 3240,
      "times": 3241,
      "Ġdepth": 3242,
      "Ġ7": 3243,
      "overy": 3244,
      "Ġcorre": 3245,
      "Ġclosely": 3246,
      "ĠThus": 3247,
      "Ġtrack": 3248,
      "resh": 3249,
      "Ġfour": 3250,
      "isd": 3251,
      "egu": 3252,
      "Ġoperating": 3253,
      "Ġtesting": 3254,
      "ĠFirst": 3255,
      "Ġfunctions": 3256,
      "Ġstatus": 3257,
      "Ġmobile": 3258,
      "Ġcompelling": 3259,
      "Ġofficial": 3260,
      "Ġinterpre": 3261,
      "ĠExam": 3262,
      "Ġaccordingly": 3263,
      "Ġwant": 3264,
      "Ġhapp": 3265,
      "Ġgold": 3266,
      "Ġcompos": 3267,
      "oney": 3268,
      "Ġbuilt": 3269,
      "Ġclin": 3270,
      "Ġconsumer": 3271,
      "Ġtransportation": 3272,
      "istics": 3273,
      "vation": 3274,
      "Ġcapital": 3275,
      "Ġlat": 3276,
      "19": 3277,
      "ina": 3278,
      "Ġbat": 3279,
      "ification": 3280,
      "Ġprimarily": 3281,
      "Ġwatch": 3282,
      "ffective": 3283,
      "Ġtend": 3284,
      "Ġdisci": 3285,
      "ĠChrist": 3286,
      "ups": 3287,
      "Ġencourage": 3288,
      "Ġencouraging": 3289,
      "Ġclient": 3290,
      "Ġlines": 3291,
      "ades": 3292,
      "Ġtechnological": 3293,
      "Ġcompetition": 3294,
      "ager": 3295,
      "ume": 3296,
      "Ġteach": 3297,
      "Ġsafegu": 3298,
      "Ġindepend": 3299,
      "Ġvirtual": 3300,
      "Ġinstruc": 3301,
      "Ġcomplexity": 3302,
      "ton": 3303,
      "Ġcou": 3304,
      "Ġwarm": 3305,
      "come": 3306,
      "Ġmarkets": 3307,
      "Ġstaying": 3308,
      "Ġconstant": 3309,
      "Ġcreation": 3310,
      "esus": 3311,
      "Ġprivate": 3312,
      "Ġcam": 3313,
      "ĠUltimately": 3314,
      "Ġartis": 3315,
      "Ġscre": 3316,
      "Ġidentifying": 3317,
      "Ġnor": 3318,
      "esearch": 3319,
      "Ġaims": 3320,
      "Ġscienti": 3321,
      "Ġadding": 3322,
      "Ġcampaigns": 3323,
      "Ġten": 3324,
      "ened": 3325,
      "------------": 3326,
      "Ġours": 3327,
      "Ġsocietal": 3328,
      "Ġmerely": 3329,
      "une": 3330,
      "Ġjud": 3331,
      "Ġproductivity": 3332,
      "Ġcop": 3333,
      "ised": 3334,
      "emp": 3335,
      "ĠSe": 3336,
      "ĠUnited": 3337,
      "Ġoriginal": 3338,
      "Ġfinal": 3339,
      "Ġnovel": 3340,
      "Ġmutual": 3341,
      "Ġstorage": 3342,
      "iment": 3343,
      "Ġingredients": 3344,
      "Ġarr": 3345,
      "Ġindustries": 3346,
      "Ġbarri": 3347,
      "Ġnur": 3348,
      "Ġpeace": 3349,
      "Ġseemingly": 3350,
      "Ġrealm": 3351,
      "wa": 3352,
      "ĠHow": 3353,
      "Ġconsequences": 3354,
      "Ġhon": 3355,
      "Ġhealthy": 3356,
      "Ġpreserving": 3357,
      "iors": 3358,
      "Ġfair": 3359,
      "Ġshape": 3360,
      "illing": 3361,
      "ID": 3362,
      "pon": 3363,
      "Ġinsp": 3364,
      "Ġpractical": 3365,
      "Ġside": 3366,
      "Ġstra": 3367,
      "Ġabs": 3368,
      "Ġethical": 3369,
      "nel": 3370,
      "Ġsource": 3371,
      "Ġproactive": 3372,
      "Ġintroduc": 3373,
      "Ġboasts": 3374,
      "ĠJesus": 3375,
      "Ġideal": 3376,
      "ĠPar": 3377,
      "esty": 3378,
      "Ġbudget": 3379,
      "ains": 3380,
      "Ġdesigns": 3381,
      "Ġstandard": 3382,
      "Ġartists": 3383,
      "Ġfundament": 3384,
      "Ġsessions": 3385,
      "Ġimpressive": 3386,
      "lusive": 3387,
      "Ġguarant": 3388,
      "Ġcountry": 3389,
      "ĠGuidelines": 3390,
      "aceutical": 3391,
      "Ġourselves": 3392,
      "Ad": 3393,
      "ĠTechn": 3394,
      "ogle": 3395,
      "ĠNot": 3396,
      "Ġchanging": 3397,
      "Ġconsiderations": 3398,
      "Ġexact": 3399,
      "Ġoutside": 3400,
      "ĠPol": 3401,
      "Ġdrive": 3402,
      "Ġpropos": 3403,
      "Ġarts": 3404,
      "Ġgenerations": 3405,
      "Ġowners": 3406,
      "Ġpartnerships": 3407,
      "plement": 3408,
      "Ġinternal": 3409,
      "Ġtakes": 3410,
      "Ġloyal": 3411,
      "utri": 3412,
      "Ġpassage": 3413,
      "Ġranging": 3414,
      "Ġvibrant": 3415,
      "rich": 3416,
      "Ġhours": 3417,
      "iles": 3418,
      "ceed": 3419,
      "ĠCom": 3420,
      "Int": 3421,
      "Ġintegrity": 3422,
      "gment": 3423,
      "urop": 3424,
      "Ġprocessing": 3425,
      "ommod": 3426,
      "uing": 3427,
      "Ġassets": 3428,
      "ĠAlthough": 3429,
      "Ġvac": 3430,
      "Ġagree": 3431,
      "Ġcapacity": 3432,
      "Ġempathy": 3433,
      "Ġcyc": 3434,
      "Ġexhib": 3435,
      "ubl": 3436,
      "vi": 3437,
      "Ġeither": 3438,
      "world": 3439,
      "Ġclim": 3440,
      "Ġexploration": 3441,
      "Ġreligious": 3442,
      "Ġintell": 3443,
      "ĠMarket": 3444,
      "Ġnews": 3445,
      "ĠRegular": 3446,
      "cent": 3447,
      "Ġtur": 3448,
      "ĠIns": 3449,
      "Ex": 3450,
      "Ġjus": 3451,
      "Ġhighlight": 3452,
      "Ġgames": 3453,
      "Ġhot": 3454,
      "Ġpurpose": 3455,
      "Ġanalyzing": 3456,
      "acies": 3457,
      "Ġthreats": 3458,
      "ails": 3459,
      "Ġrecognize": 3460,
      "lines": 3461,
      "Ġsure": 3462,
      "Ġcentral": 3463,
      "Ġstage": 3464,
      "Ġbuy": 3465,
      "Ġfamilies": 3466,
      "Ġreflect": 3467,
      "fficient": 3468,
      "Ġfascinating": 3469,
      "Ġblock": 3470,
      "Ġwebsites": 3471,
      "assion": 3472,
      "Ġaccommod": 3473,
      "rol": 3474,
      "Ġfocused": 3475,
      "Ġexcellent": 3476,
      "Ġhelping": 3477,
      "ract": 3478,
      "ĠEnc": 3479,
      "Ġregulatory": 3480,
      "inations": 3481,
      "ĠLe": 3482,
      "Ġleads": 3483,
      "edge": 3484,
      "Ġamb": 3485,
      "ributions": 3486,
      "Ġfactor": 3487,
      "Ġlasting": 3488,
      "Ġrecords": 3489,
      "ned": 3490,
      "Ġla": 3491,
      "Ġunex": 3492,
      "while": 3493,
      "med": 3494,
      "Ġleveraging": 3495,
      "Ġunf": 3496,
      "Ġefficiently": 3497,
      "Ġpolitics": 3498,
      "ĠResearch": 3499,
      "While": 3500,
      "Ġmoment": 3501,
      "Ġrecognizing": 3502,
      "Ġsuggests": 3503,
      "Ġfear": 3504,
      "ĠDespite": 3505,
      "ift": 3506,
      "ĠSpecific": 3507,
      "Ġanx": 3508,
      "Ġmanufactur": 3509,
      "Ġbeauti": 3510,
      "unning": 3511,
      "Ġadds": 3512,
      "ĠYour": 3513,
      "gor": 3514,
      "Ġcris": 3515,
      "Ġenter": 3516,
      "Ġschool": 3517,
      "Ġdevice": 3518,
      "Ġthings": 3519,
      "icit": 3520,
      "Ġnu": 3521,
      "Ġassistance": 3522,
      "Ġpassion": 3523,
      "vision": 3524,
      "ĠGoogle": 3525,
      "ister": 3526,
      "Ġmass": 3527,
      "nesses": 3528,
      "Ġacknowled": 3529,
      "Ġcode": 3530,
      "ĠHigh": 3531,
      "ximately": 3532,
      "Ġsympt": 3533,
      "Ġresid": 3534,
      "issions": 3535,
      "Ġrecognition": 3536,
      "arity": 3537,
      "Ġcompatibility": 3538,
      "ik": 3539,
      "Ġold": 3540,
      "ĠTe": 3541,
      "Ġmast": 3542,
      "Ġweak": 3543,
      "ooper": 3544,
      "Ġalternatives": 3545,
      "aks": 3546,
      "Ġofferings": 3547,
      "Ġsymb": 3548,
      "ĠX": 3549,
      "Ġlack": 3550,
      "ipped": 3551,
      "Ġoil": 3552,
      "iring": 3553,
      "Ġgoal": 3554,
      "Ġnarratives": 3555,
      "uments": 3556,
      "Ġ8": 3557,
      "Ġadver": 3558,
      "Ġoverl": 3559,
      "Ġthus": 3560,
      "Ġfans": 3561,
      "ĠKey": 3562,
      "Ġsustainability": 3563,
      "Ġahead": 3564,
      "Ġhope": 3565,
      "ames": 3566,
      "iber": 3567,
      "Ġabove": 3568,
      "Ġserving": 3569,
      "Ġattribut": 3570,
      "Ġenough": 3571,
      "Ġeasily": 3572,
      "bre": 3573,
      "ians": 3574,
      "ole": 3575,
      "Ġscience": 3576,
      "Ġnote": 3577,
      "Ġcancer": 3578,
      "Ġdisplay": 3579,
      "reg": 3580,
      "Ġcompetit": 3581,
      "ban": 3582,
      "itect": 3583,
      "Ġland": 3584,
      "ĠCent": 3585,
      "Ġaccessibility": 3586,
      "Ġcountless": 3587,
      "ĠOp": 3588,
      "Ġremote": 3589,
      "tric": 3590,
      "Ġentertain": 3591,
      "Ġeye": 3592,
      "Ġcitiz": 3593,
      "Ġwind": 3594,
      "uilding": 3595,
      "gorith": 3596,
      "Ġcy": 3597,
      "orial": 3598,
      "Ġreason": 3599,
      "Ġprioritize": 3600,
      "ĠRemember": 3601,
      "Ġweight": 3602,
      "Ġmoments": 3603,
      "Ġdiagnos": 3604,
      "ket": 3605,
      "Ġmor": 3606,
      "Ġexcess": 3607,
      "lity": 3608,
      "lear": 3609,
      "Ġroom": 3610,
      "Ġcompliance": 3611,
      "forcement": 3612,
      "fri": 3613,
      "Ġregardless": 3614,
      "Ġleft": 3615,
      "ĠInter": 3616,
      "Ġdiscipl": 3617,
      "ectiveness": 3618,
      "Ġstates": 3619,
      "Ġstart": 3620,
      "sequ": 3621,
      "poses": 3622,
      "Ġstarting": 3623,
      "Ġparamount": 3624,
      "Ġexten": 3625,
      "Ġdescrib": 3626,
      "Ġfeat": 3627,
      "icians": 3628,
      "ĠKe": 3629,
      "iety": 3630,
      "ret": 3631,
      "Ġbecoming": 3632,
      "Ġregional": 3633,
      "sh": 3634,
      "Ġdoesn": 3635,
      "Ġconcerning": 3636,
      "ox": 3637,
      "ĠRep": 3638,
      "Ġsecond": 3639,
      "Ġenhances": 3640,
      "Ġlimitations": 3641,
      "Ġcity": 3642,
      "Ġvast": 3643,
      "ĠEurop": 3644,
      "Ġhighlighting": 3645,
      "Ġadaptability": 3646,
      "Ġharness": 3647,
      "ĠAll": 3648,
      "Ġcloud": 3649,
      "Ġbol": 3650,
      "Ġemotions": 3651,
      "Ġ9": 3652,
      "Ġlink": 3653,
      "Ġparts": 3654,
      "Ġroot": 3655,
      "Ġsometimes": 3656,
      "osen": 3657,
      "cl": 3658,
      "ĠDr": 3659,
      "Ġpurposes": 3660,
      "orders": 3661,
      "des": 3662,
      "ht": 3663,
      "Ġample": 3664,
      "Ġdifficult": 3665,
      "apes": 3666,
      "Ġpossibilities": 3667,
      "Ġthinking": 3668,
      "Ġmal": 3669,
      "Ġciv": 3670,
      "Ġcreates": 3671,
      "Ġseen": 3672,
      "Ġseries": 3673,
      "ĠOnce": 3674,
      "Ġtactics": 3675,
      "Ġprofound": 3676,
      "Ġsurface": 3677,
      "verse": 3678,
      "Ġpric": 3679,
      "ills": 3680,
      "Ġthird": 3681,
      "Ġwal": 3682,
      "pectives": 3683,
      "ĠOff": 3684,
      "Ġimplementation": 3685,
      "Ġunexpected": 3686,
      "Ġsoph": 3687,
      "Ġcollection": 3688,
      "Ġscenarios": 3689,
      "Ġcredi": 3690,
      "Ġmatters": 3691,
      "Finally": 3692,
      "ĠMon": 3693,
      "ĠDuring": 3694,
      "Ġprompt": 3695,
      "Ġdiversity": 3696,
      "goti": 3697,
      "Ġquestion": 3698,
      "Ġstyles": 3699,
      "Ġprove": 3700,
      "ĠUS": 3701,
      "ocurr": 3702,
      "Ġcrafting": 3703,
      "ticul": 3704,
      "Ġattend": 3705,
      "ĠĠĠ": 3706,
      "Ġresearchers": 3707,
      "Ġqualities": 3708,
      "Ġalgorith": 3709,
      "Ġchem": 3710,
      "Ġnational": 3711,
      "Ġalone": 3712,
      "Ġspeed": 3713,
      "Ġvision": 3714,
      "Ġmovement": 3715,
      "Ġcomputer": 3716,
      "inent": 3717,
      "Ġtap": 3718,
      "Ġrely": 3719,
      "Ġnutri": 3720,
      "Ġcontact": 3721,
      "Ġdiss": 3722,
      "Ġdevelopments": 3723,
      "Ġagencies": 3724,
      "astic": 3725,
      "Ġbrow": 3726,
      "Ġliter": 3727,
      "Ġextensive": 3728,
      "Ġoccur": 3729,
      "Ġbarriers": 3730,
      "inate": 3731,
      "Ġcorpor": 3732,
      "Ġperspective": 3733,
      "Ġcaptiv": 3734,
      "Ġmaximize": 3735,
      "PI": 3736,
      "Ġresistance": 3737,
      "Ġcompassion": 3738,
      "Ġlik": 3739,
      "Ġoperational": 3740,
      "Ġpharmaceutical": 3741,
      "Ġbreat": 3742,
      "Ġweather": 3743,
      "Ġmatter": 3744,
      "Ġhab": 3745,
      "Ġrevenue": 3746,
      "Ġselection": 3747,
      "owers": 3748,
      "Ġdatab": 3749,
      "Ġlessons": 3750,
      "Ġcoverage": 3751,
      "Ġmission": 3752,
      "Ġled": 3753,
      "Ġthoughtful": 3754,
      "denti": 3755,
      "Ġfall": 3756,
      "Ġreputation": 3757,
      "Ġmark": 3758,
      "Ġremark": 3759,
      "Ġapproximately": 3760,
      "Ġmetrics": 3761,
      "ready": 3762,
      "Ġdemoc": 3763,
      "Ġprotoc": 3764,
      "Ġgenerate": 3765,
      "Ġcalled": 3766,
      "Ġshift": 3767,
      "wise": 3768,
      "Ġconsult": 3769,
      "Ġvalid": 3770,
      "ĠUnivers": 3771,
      "Ġunderscores": 3772,
      "Ġarchitect": 3773,
      "Ġable": 3774,
      "Ġremo": 3775,
      "ifications": 3776,
      "Ġinspiration": 3777,
      "Ġacademic": 3778,
      "oub": 3779,
      "Ġcountries": 3780,
      "Ġhor": 3781,
      "otal": 3782,
      "Ġidea": 3783,
      "Ġconversations": 3784,
      "tal": 3785,
      "Ġimpacts": 3786,
      "Ġuncertain": 3787,
      "ĠAI": 3788,
      "Ġopening": 3789,
      "Ġpositions": 3790,
      "Ġaffecting": 3791,
      "rit": 3792,
      "Ġnegoti": 3793,
      "Ġrelease": 3794,
      "Ġbehaviors": 3795,
      "Ġinjury": 3796,
      "Ġfrequently": 3797,
      "Ġintervention": 3798,
      "Ġsophistic": 3799,
      "Ġstatis": 3800,
      "Ġperspectives": 3801,
      "ĠStrateg": 3802,
      "Ġfile": 3803,
      "Ġban": 3804,
      "Ġgiving": 3805,
      "nal": 3806,
      "Ġtransl": 3807,
      "Ġtransformation": 3808,
      "Ġchosen": 3809,
      "Ġshed": 3810,
      "titude": 3811,
      "ction": 3812,
      "Ġfellow": 3813,
      "Ġwit": 3814,
      "ives": 3815,
      "Ġfuel": 3816,
      "asons": 3817,
      "ads": 3818,
      "Ġimage": 3819,
      "Ġmeticul": 3820,
      "ĠCommun": 3821,
      "Ġsun": 3822,
      "Ġperce": 3823,
      "Ġgained": 3824,
      "Ġperiods": 3825,
      "Ġpiv": 3826,
      "Ġstunning": 3827,
      "Ġanticip": 3828,
      "Ġfulf": 3829,
      "Ġanalytics": 3830,
      "Ġfiles": 3831,
      "Ġpan": 3832,
      "Ġdays": 3833,
      "usion": 3834,
      "Ġminds": 3835,
      "Ġsubs": 3836,
      "Ġcoord": 3837,
      "Ġlaws": 3838,
      "Ġwond": 3839,
      "ĠCO": 3840,
      "Ġshar": 3841,
      "Ġtaken": 3842,
      "Ġmeasure": 3843,
      "Ġremarkable": 3844,
      "makers": 3845,
      "Ġstands": 3846,
      "ival": 3847,
      "ĠImplement": 3848,
      "Ġcitizens": 3849,
      "ded": 3850,
      "Ġdistribution": 3851,
      "Ġconsistency": 3852,
      "Ġfundamental": 3853,
      "Ġappl": 3854,
      "Ġsuff": 3855,
      "ĠIntern": 3856,
      "Ġbrands": 3857,
      "Ġinjuries": 3858,
      "Ġnever": 3859,
      "Ġsmart": 3860,
      "ercial": 3861,
      "Ġconstrain": 3862,
      "friendly": 3863,
      "eign": 3864,
      "Ġcontra": 3865,
      "Ġcreated": 3866,
      "akes": 3867,
      "Ġdeeply": 3868,
      "Ġvisitors": 3869,
      "ĠSpecifically": 3870,
      "Ġfacing": 3871,
      "airs": 3872,
      "prene": 3873,
      "Ġmiss": 3874,
      "ows": 3875,
      "ĠMe": 3876,
      "Ġprices": 3877,
      "Ġhealing": 3878,
      "Ġprogramming": 3879,
      "Ġalready": 3880,
      "Ġeffectiveness": 3881,
      "Ġrespective": 3882,
      "Ġbrings": 3883,
      "ĠBoth": 3884,
      "ĠEncoura": 3885,
      "Ġpen": 3886,
      "idden": 3887,
      "Ġchances": 3888,
      "Ġatm": 3889,
      "ĠUtil": 3890,
      "Ġintricacies": 3891,
      "ĠTrans": 3892,
      "backs": 3893,
      "Ġsuggest": 3894,
      "ĠHealth": 3895,
      "Ġheavily": 3896,
      "Ġrapidly": 3897,
      "Ġexactly": 3898,
      "Ã©": 3899,
      "reprene": 3900,
      "Ġfields": 3901,
      "Ġep": 3902,
      "Ġnegative": 3903,
      "Ġcompetitors": 3904,
      "Ġdelivery": 3905,
      "Ġkeeping": 3906,
      "elihood": 3907,
      "haps": 3908,
      "umb": 3909,
      "Ġsac": 3910,
      "Ġput": 3911,
      "Ġcontributions": 3912,
      "Ġheat": 3913,
      "Ġestablishing": 3914,
      "Ġcontinued": 3915,
      "Ġmessages": 3916,
      "iosity": 3917,
      "Ġdetermine": 3918,
      "Ġwaste": 3919,
      "Ġmil": 3920,
      "Ġhands": 3921,
      "ections": 3922,
      "Ġlabor": 3923,
      "oday": 3924,
      "Ġanxiety": 3925,
      "Ġcraft": 3926,
      "Ġaccuracy": 3927,
      "Ġimmediate": 3928,
      "Ġintrig": 3929,
      "Ġsymptoms": 3930,
      "Ġlikelihood": 3931,
      "Ġlater": 3932,
      "Ġinvestors": 3933,
      "Ġrecommend": 3934,
      "Ġorganizational": 3935,
      "Ġcoun": 3936,
      "Ġfra": 3937,
      "osystem": 3938,
      "Ġdepart": 3939,
      "Ġdemonstrated": 3940,
      "Ġesc": 3941,
      "Ġconvenience": 3942,
      "Ġloyalty": 3943,
      "Ġjustice": 3944,
      "Ġcredibility": 3945,
      "It": 3946,
      "Ġir": 3947,
      "que": 3948,
      "Ġcomprom": 3949,
      "Ġaffected": 3950,
      "Ġstronger": 3951,
      "tu": 3952,
      "Ġclub": 3953,
      "Ġreduces": 3954,
      "Ġminimal": 3955,
      "Ġgradu": 3956,
      "Ġconfigur": 3957,
      "Ġfire": 3958,
      "Ġrevol": 3959,
      "Ġlux": 3960,
      "Ġtransfer": 3961,
      "Ġinstances": 3962,
      "Ġexamination": 3963,
      "Ġaccountability": 3964,
      "Des": 3965,
      "phere": 3966,
      "Ġmusc": 3967,
      "faces": 3968,
      "Ġsle": 3969,
      "Ġpubl": 3970,
      "icity": 3971,
      "Ġtransition": 3972,
      "ruit": 3973,
      "Ġinterpret": 3974,
      "cious": 3975,
      "Ġcondition": 3976,
      "ivity": 3977,
      "Ġpromises": 3978,
      "Ġpopulations": 3979,
      "Ġcultivating": 3980,
      "ools": 3981,
      "Ġdil": 3982,
      "Ġlandscapes": 3983,
      "Ġtang": 3984,
      "Ġrate": 3985,
      "Ġvisibility": 3986,
      "Ġcause": 3987,
      "alf": 3988,
      "Ġfine": 3989,
      "etary": 3990,
      "mental": 3991,
      "Ġrestric": 3992,
      "Ġexpenses": 3993,
      "Ġlonger": 3994,
      "Ġconsumption": 3995,
      "Ġstrengths": 3996,
      "Ġintelligence": 3997,
      "ĠCre": 3998,
      "ĠThat": 3999,
      "Ġglance": 4000,
      "ohn": 4001,
      "eted": 4002,
      "Ġenrich": 4003,
      "Ġsubsequ": 4004,
      "Ġprecise": 4005,
      "Ġadequ": 4006,
      "neys": 4007,
      "Ġdifferences": 4008,
      "Ġblog": 4009,
      "Ġtreatments": 4010,
      "Ġlayer": 4011,
      "Ġrules": 4012,
      "Ġrespond": 4013,
      "Ġcryptocurr": 4014,
      "Ġattemp": 4015,
      "Ġexercise": 4016,
      "Ġfeaturing": 4017,
      "Ġ10": 4018,
      "Ġblood": 4019,
      "Ġcuriosity": 4020,
      "Ġbring": 4021,
      "Ġhosting": 4022,
      "Ġwear": 4023,
      "Ġentities": 4024,
      "Ġpricing": 4025,
      "Ġmix": 4026,
      "ooks": 4027,
      "Ġrepe": 4028,
      "Ġconstraints": 4029,
      "Ġtalk": 4030,
      "Ġcaused": 4031,
      "Ġarrange": 4032,
      "ert": 4033,
      "any": 4034,
      "ĠTw": 4035,
      "empl": 4036,
      "ung": 4037,
      "Ġimages": 4038,
      "ĠMod": 4039,
      "Ġfees": 4040,
      "Ġcapture": 4041,
      "Ġartist": 4042,
      "Ġexperts": 4043,
      "Ġexchange": 4044,
      "Ġpromo": 4045,
      "Ġeverything": 4046,
      "Ġholistic": 4047,
      "lined": 4048,
      "ids": 4049,
      "Ġecosystem": 4050,
      "amiliar": 4051,
      "Of": 4052,
      "Ġpray": 4053,
      "ighb": 4054,
      "Ġdispar": 4055,
      "Ġcrafts": 4056,
      "eanwhile": 4057,
      "Introduction": 4058,
      "Ġvig": 4059,
      "ĠPres": 4060,
      "Ġinitially": 4061,
      "Ġimprovements": 4062,
      "Ġdrug": 4063,
      "Ġhous": 4064,
      "Ġyield": 4065,
      "ĠEst": 4066,
      "Ġmessage": 4067,
      "Ġartistic": 4068,
      "Ġheight": 4069,
      "mission": 4070,
      "Ġcheck": 4071,
      "'ve": 4072,
      "ma": 4073,
      "Ġcooper": 4074,
      "ott": 4075,
      "ĠStates": 4076,
      "Ġempowerment": 4077,
      "light": 4078,
      "works": 4079,
      "Ġembrace": 4080,
      "Ġappearance": 4081,
      "Ġpromising": 4082,
      "Ġemergency": 4083,
      "rel": 4084,
      "Ġfirm": 4085,
      "iction": 4086,
      "Ġhouse": 4087,
      "Ġvent": 4088,
      "tically": 4089,
      "Ġcharm": 4090,
      "Ġtable": 4091,
      "ires": 4092,
      "Ġapply": 4093,
      "Ġinteraction": 4094,
      "Ġwrit": 4095,
      "Ġpreventing": 4096,
      "Im": 4097,
      "inding": 4098,
      "eter": 4099,
      "Ġperforming": 4100,
      "Ġden": 4101,
      "ulating": 4102,
      "ocial": 4103,
      "Ġmetal": 4104,
      "Ġequipped": 4105,
      "order": 4106,
      "Ġcontroll": 4107,
      "Ġoptimize": 4108,
      "icine": 4109,
      "Ġdemonstrating": 4110,
      "Ġmemor": 4111,
      "Ġdid": 4112,
      "ancy": 4113,
      "Ġfacilities": 4114,
      "Ġetc": 4115,
      "Ġnurturing": 4116,
      "ags": 4117,
      "Ġfeelings": 4118,
      "Ġdisease": 4119,
      "Ġprotocols": 4120,
      "inks": 4121,
      "Ġenforcement": 4122,
      "Ġinten": 4123,
      "enders": 4124,
      "Ġoutd": 4125,
      "Ġactively": 4126,
      "Ġcandidates": 4127,
      "Ġgene": 4128,
      "ushing": 4129,
      "ĠKeep": 4130,
      "Ġdisrup": 4131,
      "Ġexpert": 4132,
      "enew": 4133,
      "Ġpractition": 4134,
      "Ġcombining": 4135,
      "Ġder": 4136,
      "Ġforce": 4137,
      "ĠIdenti": 4138,
      "Ġmer": 4139,
      "ams": 4140,
      "ĠSystem": 4141,
      "Ġtransactions": 4142,
      "Ġrepresentation": 4143,
      "Ġsex": 4144,
      "Ġentreprene": 4145,
      "Ġappealing": 4146,
      "nected": 4147,
      "Ġcrow": 4148,
      "roll": 4149,
      "Ġmoney": 4150,
      "ĠMain": 4151,
      "Ġexpans": 4152,
      "Ġloans": 4153,
      "Ġfilled": 4154,
      "lig": 4155,
      "Ġdental": 4156,
      "Ġrelax": 4157,
      "Ġconventional": 4158,
      "tising": 4159,
      "Ġcultivate": 4160,
      "Ġlab": 4161,
      "umes": 4162,
      "Ġcommercial": 4163,
      "Ġevaluating": 4164,
      "ĠTim": 4165,
      "Ġpopularity": 4166,
      "ĠEmbr": 4167,
      "Ġhosp": 4168,
      "Ġstudent": 4169,
      "ĠDesign": 4170,
      "Ġvehicle": 4171,
      "Ġintim": 4172,
      "Ġdiscussing": 4173,
      "Ġmachine": 4174,
      "Ġpivotal": 4175,
      "Ġchec": 4176,
      "ĠMar": 4177,
      "Ġtracking": 4178,
      "Ġexpression": 4179,
      "Ġparticipation": 4180,
      "Ġanalyze": 4181,
      "Ġalgorithms": 4182,
      "Ġtrade": 4183,
      "Ġrecently": 4184,
      "Ġexperiment": 4185,
      "Ġresponsibilities": 4186,
      "ĠManagement": 4187,
      "Ġmessaging": 4188,
      "Ġregularly": 4189,
      "Ġenthusiasts": 4190,
      "Ġconstruction": 4191,
      "Ġacknowledging": 4192,
      "erce": 4193,
      "ĠToday": 4194,
      "Ġnoting": 4195,
      "Ġbrid": 4196,
      "Ġwriting": 4197,
      "letes": 4198,
      "ĠSEO": 4199,
      "Ġleaving": 4200,
      "Ġrecovery": 4201,
      "Ġknowing": 4202,
      "Ġemphasizing": 4203,
      "prise": 4204,
      "Ġaspiring": 4205,
      "off": 4206,
      "Ġdiscussion": 4207,
      "Ġfacilitating": 4208,
      "Ġfindings": 4209,
      "Ġpurchasing": 4210,
      "ĠAf": 4211,
      "odes": 4212,
      "Ġproblems": 4213,
      "telling": 4214,
      "orrow": 4215,
      "ocal": 4216,
      "Ġneighb": 4217,
      "Ġtask": 4218,
      "Ġversatile": 4219,
      "Ġscientific": 4220,
      "Ġclimate": 4221,
      "bon": 4222,
      "Ġprotecting": 4223,
      "Ġgoes": 4224,
      "Ġadopting": 4225,
      "ĠUniversity": 4226,
      "iny": 4227,
      "Ġcogn": 4228,
      "Ġconsidered": 4229,
      "Ġcharacteristics": 4230,
      "aul": 4231,
      "Ġswe": 4232,
      "ompl": 4233,
      "nings": 4234,
      "Ġdelicate": 4235,
      "Ġsmaller": 4236,
      "Once": 4237,
      "Ġfresh": 4238,
      "room": 4239,
      "Ġball": 4240,
      "anship": 4241,
      "Ġfocuses": 4242,
      "Ġcommitted": 4243,
      "Ġutilize": 4244,
      "Ġclassic": 4245,
      "Ġnorms": 4246,
      "Ġlit": 4247,
      "oll": 4248,
      "Ġincome": 4249,
      "fulness": 4250,
      "Ġtut": 4251,
      "Ġcarry": 4252,
      "Ġparticipating": 4253,
      "Ġideas": 4254,
      "Ġmonths": 4255,
      "uck": 4256,
      "Ġdealing": 4257,
      "ches": 4258,
      "Ġemployed": 4259,
      "MS": 4260,
      "Ġreality": 4261,
      "ĠNational": 4262,
      "Ġengaged": 4263,
      "Ġsites": 4264,
      "Ġincorporate": 4265,
      "ply": 4266,
      "ym": 4267,
      "Ġic": 4268,
      "Ġhidden": 4269,
      "Ġstages": 4270,
      "Ġexempl": 4271,
      "acters": 4272,
      "ief": 4273,
      "Ġrecord": 4274,
      "Ġadded": 4275,
      "Ġstrive": 4276,
      "50": 4277,
      "anning": 4278,
      "iteria": 4279,
      "Ġexecution": 4280,
      "An": 4281,
      "ading": 4282,
      "Ġseamlessly": 4283,
      "Ġmag": 4284,
      "Ġinstru": 4285,
      "ĠStud": 4286,
      "apeu": 4287,
      "Beyond": 4288,
      "Ġbeliefs": 4289,
      "ĠNor": 4290,
      "Ġscene": 4291,
      "IV": 4292,
      "osphere": 4293,
      "ĠEar": 4294,
      "Ġmillion": 4295,
      "Ġinside": 4296,
      "ders": 4297,
      "rust": 4298,
      "sw": 4299,
      "vey": 4300,
      "Ġapplying": 4301,
      "Ġsuccessfully": 4302,
      "Ġvigil": 4303,
      "ov": 4304,
      "Ġtack": 4305,
      "Ġmid": 4306,
      "Ġren": 4307,
      "ĠAg": 4308,
      "unately": 4309,
      "Ġtrend": 4310,
      "Ġdesigning": 4311,
      "Ġpresented": 4312,
      "whel": 4313,
      "Ġseasoned": 4314,
      "Ġment": 4315,
      "acles": 4316,
      "Ġbook": 4317,
      "Ġtransc": 4318,
      "Ġende": 4319,
      "Ġemphasizes": 4320,
      "Ġmitigate": 4321,
      "Ġbeautiful": 4322,
      "life": 4323,
      "Ġinterview": 4324,
      "Ġarise": 4325,
      "Ġdemograph": 4326,
      "Ġobst": 4327,
      "Ġdepend": 4328,
      "Ġgreen": 4329,
      "oes": 4330,
      "ork": 4331,
      "Ġlic": 4332,
      "Ġproduce": 4333,
      "Ġdeveloped": 4334,
      "ĠCan": 4335,
      "Ġmemories": 4336,
      "Ġbasic": 4337,
      "Ġcenter": 4338,
      "Ġfunds": 4339,
      "oke": 4340,
      "ellect": 4341,
      "Ġlifesty": 4342,
      "Ġinclusive": 4343,
      "oking": 4344,
      "Ġwhite": 4345,
      "ĠPrac": 4346,
      "Ġreports": 4347,
      "Ġphen": 4348,
      "Ġsecuring": 4349,
      "Ġentails": 4350,
      "Ġavailability": 4351,
      "Ġpositively": 4352,
      "Ġdivine": 4353,
      "isdom": 4354,
      "ratic": 4355,
      "Ġaccompl": 4356,
      "Ġperformances": 4357,
      "Ġexcessive": 4358,
      "Ch": 4359,
      "bs": 4360,
      "Ġmicro": 4361,
      "Ġtour": 4362,
      "Ġforces": 4363,
      "Ġdifference": 4364,
      "Ġnarrative": 4365,
      "Ġcells": 4366,
      "10": 4367,
      "Ġfast": 4368,
      "Ġdeg": 4369,
      "ĠInc": 4370,
      "Ġaccessible": 4371,
      "Ġresponses": 4372,
      "ception": 4373,
      "Ġexclusive": 4374,
      "Ġreputable": 4375,
      "ederal": 4376,
      "ĠMin": 4377,
      "formation": 4378,
      "ĠData": 4379,
      "ze": 4380,
      "Ġfive": 4381,
      "chain": 4382,
      "Ġbodies": 4383,
      "Ġscr": 4384,
      "Ġmovements": 4385,
      "Ġdurability": 4386,
      "Ġelim": 4387,
      "Ġreflects": 4388,
      "Ġvarying": 4389,
      "Ġlaunch": 4390,
      "Ġdecre": 4391,
      "Ġcharacters": 4392,
      "Ġrunning": 4393,
      "hy": 4394,
      "hand": 4395,
      "outs": 4396,
      "Ġdetermining": 4397,
      "Ġversatility": 4398,
      "ai": 4399,
      "Ġdeath": 4400,
      "ĠIT": 4401,
      "ĠMeanwhile": 4402,
      "vention": 4403,
      "Ġarri": 4404,
      "Ġnumbers": 4405,
      "Ġcausing": 4406,
      "Ġlayers": 4407,
      "Ġextends": 4408,
      "Ġadequate": 4409,
      "book": 4410,
      "Ġaver": 4411,
      "ultural": 4412,
      "Ġschools": 4413,
      "Ġversion": 4414,
      "Ġcriteria": 4415,
      "Ġcauses": 4416,
      "Ġexpanding": 4417,
      "Ġillustrate": 4418,
      "Ġsqu": 4419,
      "Ġgem": 4420,
      "Ġentry": 4421,
      "Ġgeograph": 4422,
      "Ġlatest": 4423,
      "Ġatmosphere": 4424,
      "Ġannoun": 4425,
      "NA": 4426,
      "rant": 4427,
      "ague": 4428,
      "Ġreporting": 4429,
      "Ġgeneral": 4430,
      "connected": 4431,
      "Ġinterventions": 4432,
      "Ġtit": 4433,
      "Ġrise": 4434,
      "Ġpersonnel": 4435,
      "Ġoptimization": 4436,
      "Ġsector": 4437,
      "rative": 4438,
      "Ġaccept": 4439,
      "Ġmanual": 4440,
      "Ġmonitor": 4441,
      "Ġresolution": 4442,
      "fac": 4443,
      "Ġoverwhel": 4444,
      "ipping": 4445,
      "Ġwel": 4446,
      "Ġwisdom": 4447,
      "Ġhom": 4448,
      "rial": 4449,
      "Ġdiam": 4450,
      "Ġtargeted": 4451,
      "Ġaccurately": 4452,
      "Ġarticle": 4453,
      "mer": 4454,
      "Ġmanip": 4455,
      "Ġspread": 4456,
      "Ġholds": 4457,
      "Ġentertainment": 4458,
      "Ġtechnique": 4459,
      "Ġaccounts": 4460,
      "Ġscal": 4461,
      "Ġblend": 4462,
      "Ġsevere": 4463,
      "Ġfigures": 4464,
      "Ġoverlook": 4465,
      "Ġovers": 4466,
      "asion": 4467,
      "Ġvic": 4468,
      "Ġstraight": 4469,
      "Ġcontrast": 4470,
      "manship": 4471,
      "Ġunl": 4472,
      "Ġsupply": 4473,
      "Ġreinfor": 4474,
      "Ġpractitioners": 4475,
      "Ġpitch": 4476,
      "Ġweek": 4477,
      "Ġboost": 4478,
      "prof": 4479,
      "ĠPlay": 4480,
      "Ġinfluencing": 4481,
      "Ġunfor": 4482,
      "ĠEns": 4483,
      "ĠMany": 4484,
      "apeutic": 4485,
      "Ġrenew": 4486,
      "lation": 4487,
      "Ġwhole": 4488,
      "Ġease": 4489,
      "Ġprop": 4490,
      "Ġtrading": 4491,
      "Ġrefine": 4492,
      "Ġstorytelling": 4493,
      "Ġprospects": 4494,
      "faceted": 4495,
      "ses": 4496,
      "Ġtiss": 4497,
      "Ġgender": 4498,
      "andemic": 4499,
      "vices": 4500,
      "ĠExper": 4501,
      "):": 4502,
      "ror": 4503,
      "Ġinput": 4504,
      "Ġrelying": 4505,
      "ilitary": 4506,
      "Ġhyp": 4507,
      "ema": 4508,
      "ĠPri": 4509,
      "Ġcommunicate": 4510,
      "Ġtimely": 4511,
      "Ġevaluate": 4512,
      "```": 4513,
      "VID": 4514,
      "such": 4515,
      "Ġsigns": 4516,
      "Ġelse": 4517,
      "PS": 4518,
      "zz": 4519,
      "Ġsn": 4520,
      "raw": 4521,
      "pper": 4522,
      "Ġotherwise": 4523,
      "Ġgeneration": 4524,
      "Ġinvestments": 4525,
      "Ġmeeting": 4526,
      "Ġmemorable": 4527,
      "ĠDis": 4528,
      "Ġdesigners": 4529,
      "ĠJohn": 4530,
      "ĠProg": 4531,
      "Ġsubsequent": 4532,
      "Ġgraph": 4533,
      "Ġreminder": 4534,
      "Ġlocated": 4535,
      "Ġestate": 4536,
      "Ġhandle": 4537,
      "Ġclinical": 4538,
      "Ġbonds": 4539,
      "irms": 4540,
      "ĠSm": 4541,
      "Ġinternet": 4542,
      "Ġpatience": 4543,
      "flow": 4544,
      "erv": 4545,
      "ĠBusiness": 4546,
      "eling": 4547,
      "Ġgar": 4548,
      "agers": 4549,
      "Ġcompar": 4550,
      "Ġerrors": 4551,
      "Ġtaste": 4552,
      "Ġformer": 4553,
      "Ġmarg": 4554,
      "Ġreveal": 4555,
      "Ġsilver": 4556,
      "ĠIdentif": 4557,
      "Ġsix": 4558,
      "Ġamount": 4559,
      "Ġkeywor": 4560,
      "Ġcultures": 4561,
      "key": 4562,
      "Ġcoaching": 4563,
      "Ġschol": 4564,
      "atically": 4565,
      "Ġreaders": 4566,
      "Ġinspire": 4567,
      "ev": 4568,
      "gen": 4569,
      "Ġlast": 4570,
      "izations": 4571,
      "Ġdeploy": 4572,
      "Ġgoverning": 4573,
      "Ġpayment": 4574,
      "Ġexperiencing": 4575,
      "Ġinclusivity": 4576,
      "Ġpremium": 4577,
      "Ġmanufacturers": 4578,
      "Ġobstacles": 4579,
      "Ġconfer": 4580,
      "ulated": 4581,
      "Ġwealth": 4582,
      "iveness": 4583,
      "Ġparents": 4584,
      "Ġlocations": 4585,
      "Ġprote": 4586,
      "Ġdistribut": 4587,
      "Ġdivid": 4588,
      "Ġphenomen": 4589,
      "mar": 4590,
      "oper": 4591,
      "Ġintellect": 4592,
      "Ġopin": 4593,
      "ought": 4594,
      "Ġflavor": 4595,
      "Ġurban": 4596,
      "ky": 4597,
      "Ġcooking": 4598,
      "istent": 4599,
      "Ġstrict": 4600,
      "Ġreceiving": 4601,
      "ĠInternational": 4602,
      "Ġtangible": 4603,
      "olic": 4604,
      "Ġphil": 4605,
      "Ġflavors": 4606,
      "Ġevaluation": 4607,
      "Ġroutine": 4608,
      "Ġrepl": 4609,
      "Ġrewards": 4610,
      "Ġincreases": 4611,
      "Ġhardware": 4612,
      "Ġathletes": 4613,
      "Ġcentered": 4614,
      "Ġshows": 4615,
      "Ġthrive": 4616,
      "Ġadvertising": 4617,
      "Ġvot": 4618,
      "Ġuses": 4619,
      "ĠEv": 4620,
      "ficial": 4621,
      "Ġfilm": 4622,
      "Ġskilled": 4623,
      "Ġactual": 4624,
      "Ġleverage": 4625,
      "ĠFl": 4626,
      "Ġexplicit": 4627,
      "Ġparticipate": 4628,
      "Ġstrengthen": 4629,
      "Ġraw": 4630,
      "Ġansw": 4631,
      "ĠOrgan": 4632,
      "Ġframeworks": 4633,
      "Ġlighting": 4634,
      "Ġoperation": 4635,
      "tification": 4636,
      "Ġclaims": 4637,
      "Ġcohes": 4638,
      "Ġemploying": 4639,
      "Ġimmense": 4640,
      "Ġstriking": 4641,
      "Ġallevi": 4642,
      "Ġcognitive": 4643,
      "dress": 4644,
      "Ġregions": 4645,
      "Ġcorrect": 4646,
      "Ġwitness": 4647,
      "ĠFinally": 4648,
      "Ġnich": 4649,
      "ĠAb": 4650,
      "Ġcomfortable": 4651,
      "Ġshowcasing": 4652,
      "Ġconflict": 4653,
      "Ġtip": 4654,
      "Ġconver": 4655,
      "Ġchurch": 4656,
      "ĠGl": 4657,
      "ieties": 4658,
      "Ġcomplement": 4659,
      "Ġconnecting": 4660,
      "Ġshifts": 4661,
      "Ġhyd": 4662,
      "Ġ=": 4663,
      "unting": 4664,
      "Ġminor": 4665,
      "Ġmultifaceted": 4666,
      "Ġreaching": 4667,
      "Ġpsychological": 4668,
      "inc": 4669,
      "itage": 4670,
      "Ġcontract": 4671,
      "Ġinterconnected": 4672,
      "Ġenduring": 4673,
      "Ġtransformative": 4674,
      "ĠWorld": 4675,
      "Ġsou": 4676,
      "Ġincident": 4677,
      "Ġdescri": 4678,
      "Ġtraditions": 4679,
      "Ġtargeting": 4680,
      "Ġgrapp": 4681,
      "Ġtherapeutic": 4682,
      "Ġsavings": 4683,
      "Ġcaptivating": 4684,
      "ship": 4685,
      "Ġaid": 4686,
      "Ġreasons": 4687,
      "Ġcharacterized": 4688,
      "Ġdomes": 4689,
      "ull": 4690,
      "Ġprepared": 4691,
      "ĠEstablish": 4692,
      "PA": 4693,
      "lining": 4694,
      "rep": 4695,
      "edding": 4696,
      "Ġformat": 4697,
      "Ġcollaborative": 4698,
      "Ġreliability": 4699,
      "Ġprayer": 4700,
      "Ġvictim": 4701,
      "Ġlens": 4702,
      "Ġlibr": 4703,
      "oles": 4704,
      "Ġcoaches": 4705,
      "Ġperceived": 4706,
      "points": 4707,
      "ils": 4708,
      "Ġwilling": 4709,
      "ĠJust": 4710,
      "Ġlength": 4711,
      "ĠAmerica": 4712,
      "Ġcontaining": 4713,
      "Ġvulnerable": 4714,
      "Ġdocumentation": 4715,
      "Ġpandemic": 4716,
      "Ġreplace": 4717,
      "ocks": 4718,
      "Ġleave": 4719,
      "Ġassign": 4720,
      "uests": 4721,
      "Ġexplo": 4722,
      "Ġcalls": 4723,
      "Ġacquis": 4724,
      "Ġresonate": 4725,
      "Ġconflicts": 4726,
      "Ġaesthetic": 4727,
      "aur": 4728,
      "ĠCar": 4729,
      "Ġtrig": 4730,
      "house": 4731,
      "vant": 4732,
      "Ġbig": 4733,
      "Ġoutput": 4734,
      "Ġconduct": 4735,
      "Ġproceed": 4736,
      "Ġalter": 4737,
      "ĠPower": 4738,
      "Ġthanks": 4739,
      "Ġeleg": 4740,
      "Ġcorporate": 4741,
      "Ġintriguing": 4742,
      "igration": 4743,
      "ĠPlus": 4744,
      "ĠHave": 4745,
      "tedly": 4746,
      "ronic": 4747,
      "Ġeasier": 4748,
      "Ġvehicles": 4749,
      "Ġadversity": 4750,
      "Ġattor": 4751,
      "ĠAmong": 4752,
      "Ġpressing": 4753,
      "Ġinvolvement": 4754,
      "Ġinstallation": 4755,
      "pe": 4756,
      "ĠState": 4757,
      "Ġlearners": 4758,
      "Ġdistinc": 4759,
      "Ġhabits": 4760,
      "Ġsell": 4761,
      "Ġpage": 4762,
      "Ġforeign": 4763,
      "ĠCB": 4764,
      "Ġinters": 4765,
      "ibl": 4766,
      "ĠLook": 4767,
      "Ġgenerally": 4768,
      "Ġalignment": 4769,
      "Ġreflecting": 4770,
      "Ġcivil": 4771,
      "onents": 4772,
      "ĠSol": 4773,
      "ĠSocial": 4774,
      "ĠPart": 4775,
      "Ġaccomp": 4776,
      "Ġdocuments": 4777,
      "Ġflexible": 4778,
      "Ġstreamline": 4779,
      "Ġworksh": 4780,
      "Ġdomain": 4781,
      "Ġpet": 4782,
      "ĠRuss": 4783,
      "Ġacts": 4784,
      "Ġplaying": 4785,
      "Ġloan": 4786,
      "Ġsupports": 4787,
      "Ġviews": 4788,
      "Ġcatering": 4789,
      "iver": 4790,
      "uous": 4791,
      "Ġtotal": 4792,
      "ĠCal": 4793,
      "ourse": 4794,
      "ĠAnaly": 4795,
      "Ġtutorial": 4796,
      "Ġimag": 4797,
      "ĠDel": 4798,
      "ĠUnder": 4799,
      "ĠNo": 4800,
      "Ġupcoming": 4801,
      "Ġpromotes": 4802,
      "Ġextended": 4803,
      "Ġretail": 4804,
      "urd": 4805,
      "agues": 4806,
      "ĠSet": 4807,
      "ĠEduc": 4808,
      "Ġplayed": 4809,
      "Ġdrawing": 4810,
      "Ġsusp": 4811,
      "Ġcollege": 4812,
      "Ġownership": 4813,
      "iding": 4814,
      "uting": 4815,
      "Ġunn": 4816,
      "Ġreflection": 4817,
      "Ġgaming": 4818,
      "Ġviolence": 4819,
      "ĠCOVID": 4820,
      "olding": 4821,
      "Ġisol": 4822,
      "Ġserver": 4823,
      "Ġmedium": 4824,
      "Ġworkers": 4825,
      "where": 4826,
      "Ġstruggle": 4827,
      "Ġsummary": 4828,
      "Ġtemperature": 4829,
      "Ġchemical": 4830,
      "Ġslow": 4831,
      "ĠRather": 4832,
      "ĠOb": 4833,
      "Ġroad": 4834,
      "Ġperhaps": 4835,
      "Ġteaching": 4836,
      "ĠCollabor": 4837,
      "Ġsophisticated": 4838,
      "If": 4839,
      "pread": 4840,
      "erb": 4841,
      "Ġdog": 4842,
      "enty": 4843,
      "ĠFin": 4844,
      "Ġunity": 4845,
      "ĠNever": 4846,
      "ecessary": 4847,
      "uccess": 4848,
      "Ġlisten": 4849,
      "date": 4850,
      "oly": 4851,
      "ugh": 4852,
      "Ġmilitary": 4853,
      "ĠMus": 4854,
      "ĠPersonal": 4855,
      "istry": 4856,
      "Ġsho": 4857,
      "Ġmanaged": 4858,
      "Ġjoin": 4859,
      "Ġattacks": 4860,
      "Ġreviews": 4861,
      "Before": 4862,
      "Ġadventure": 4863,
      "Furthermore": 4864,
      "Ġnecessitates": 4865,
      "Despite": 4866,
      "Ġthink": 4867,
      "Ġstore": 4868,
      "Ġunit": 4869,
      "Ġprovider": 4870,
      "Ġachievements": 4871,
      "Ġraises": 4872,
      "Ġempowering": 4873,
      "pris": 4874,
      "ley": 4875,
      "ĠBal": 4876,
      "Ġparty": 4877,
      "ĠLastly": 4878,
      "udes": 4879,
      "Ġconcent": 4880,
      "ĠCho": 4881,
      "Ġincredi": 4882,
      "Ġextre": 4883,
      "Ġmaximum": 4884,
      "Ġargue": 4885,
      "Ġadherence": 4886,
      "Ġsuit": 4887,
      "cient": 4888,
      "Ġempowers": 4889,
      "Ġrelevance": 4890,
      "Ġmemory": 4891,
      "Ġlate": 4892,
      "Ġliqu": 4893,
      "fl": 4894,
      "ĠSw": 4895,
      "Ġincidents": 4896,
      "Ġaudio": 4897,
      "ormal": 4898,
      "Ġsafeguarding": 4899,
      "Ġcamer": 4900,
      "Ġcher": 4901,
      "Ġjoy": 4902,
      "Ġcolors": 4903,
      "Ġconversion": 4904,
      "Ġadjustments": 4905,
      "itical": 4906,
      "ĊĠĠĠ": 4907,
      "till": 4908,
      "Ġfront": 4909,
      "Ġchance": 4910,
      "Ġselect": 4911,
      "Ġtry": 4912,
      "ensity": 4913,
      "Ġvisually": 4914,
      "Ġaffect": 4915,
      "Ġcook": 4916,
      "ana": 4917,
      "Ġinterface": 4918,
      "Ġestim": 4919,
      "ĠIndia": 4920,
      "cript": 4921,
      "Ġpreviously": 4922,
      "ented": 4923,
      "ĠCustom": 4924,
      "ĠDep": 4925,
      "ĠRed": 4926,
      "venues": 4927,
      "Ġanyone": 4928,
      "Ġemployee": 4929,
      "table": 4930,
      "Ġwhose": 4931,
      "Ġheld": 4932,
      "Ġoffice": 4933,
      "Ġconnected": 4934,
      "Ġelement": 4935,
      "Ġstatement": 4936,
      "Ġculinary": 4937,
      "Ġnuances": 4938,
      "Ġcouns": 4939,
      "Ġcooperation": 4940,
      "arian": 4941,
      "leg": 4942,
      "Ġstring": 4943,
      "rought": 4944,
      "Ġaren": 4945,
      "Ġcombined": 4946,
      "Ġpursuing": 4947,
      "osition": 4948,
      "ticism": 4949,
      "ĠMet": 4950,
      "lessly": 4951,
      "Ġdefine": 4952,
      "ashion": 4953,
      "Understanding": 4954,
      "iers": 4955,
      "ounting": 4956,
      "Ġfinance": 4957,
      "Ġwhereas": 4958,
      "ĠChristians": 4959,
      "Ġscenario": 4960,
      "Ġcategories": 4961,
      "Ġguests": 4962,
      "Ġimagine": 4963,
      "Ġserious": 4964,
      "enever": 4965,
      "ĠProt": 4966,
      "Ġactors": 4967,
      "stone": 4968,
      "Ġdisorders": 4969,
      "Ġbelong": 4970,
      "Ġcourses": 4971,
      "Ġviewers": 4972,
      "party": 4973,
      "Ġcalc": 4974,
      "Ġallocation": 4975,
      "Ġhoriz": 4976,
      "Ġhaz": 4977,
      "Ġang": 4978,
      "ounds": 4979,
      "Ġ18": 4980,
      "Ġessence": 4981,
      "Ġsubtle": 4982,
      "Ġheritage": 4983,
      "Ġinnovations": 4984,
      "ĠDevelopment": 4985,
      "Ġaesthetics": 4986,
      "Ġblockchain": 4987,
      "evity": 4988,
      "Ġche": 4989,
      "Ġglass": 4990,
      "down": 4991,
      "thor": 4992,
      "Ġamounts": 4993,
      "Ġcoll": 4994,
      "Ġpreparation": 4995,
      "Ġradi": 4996,
      "ĠUsing": 4997,
      "Ġlittle": 4998,
      "lection": 4999,
      "Ġsuppor": 5000,
      "Ġfreed": 5001,
      "Ġmotivation": 5002,
      "ĠHer": 5003,
      "Ġkind": 5004,
      "owned": 5005,
      "Ġgenerating": 5006,
      "Ġpoor": 5007,
      "Ġvoice": 5008,
      "Ġentrepreneurs": 5009,
      "coin": 5010,
      "Ġfirms": 5011,
      "Ġgas": 5012,
      "uses": 5013,
      "amin": 5014,
      "Ġtradition": 5015,
      "ommerce": 5016,
      "Ġattending": 5017,
      "Ġinterested": 5018,
      "Ġreturns": 5019,
      "CA": 5020,
      "itor": 5021,
      "ĠCity": 5022,
      "Ġcompens": 5023,
      "Ġcontrac": 5024,
      "Ġunw": 5025,
      "Ġembark": 5026,
      "Ġprospective": 5027,
      "Ġoneself": 5028,
      "utive": 5029,
      "enn": 5030,
      "Ġdating": 5031,
      "Ġelect": 5032,
      "ults": 5033,
      "ĠDef": 5034,
      "ordinary": 5035,
      "Ġuncertainty": 5036,
      "Ġpor": 5037,
      "Ġfan": 5038,
      "Ġfix": 5039,
      "Ġopt": 5040,
      "Ġprominent": 5041,
      "Ġtransforming": 5042,
      "Ġpromptly": 5043,
      "Ġdang": 5044,
      "tery": 5045,
      "Ġreveals": 5046,
      "ĠAfric": 5047,
      "Ġintellectual": 5048,
      "//": 5049,
      "esis": 5050,
      "Ġmedicine": 5051,
      "Ġbeneficial": 5052,
      "Ġexcite": 5053,
      "Ġthoughts": 5054,
      "Ġmastering": 5055,
      "Ġaccomplish": 5056,
      "ava": 5057,
      "Ġsurv": 5058,
      "Ġpredic": 5059,
      "ĠPerform": 5060,
      "pet": 5061,
      "Ġmort": 5062,
      "theless": 5063,
      "Ġwhenever": 5064,
      "plom": 5065,
      "Ġprecision": 5066,
      "Ġadoption": 5067,
      "idespread": 5068,
      "Ġinvestigation": 5069,
      "Ġintended": 5070,
      "ĠFr": 5071,
      "Ġapps": 5072,
      "Ġhimself": 5073,
      "Ġcopy": 5074,
      "Ġrecommendations": 5075,
      "erve": 5076,
      "Ġpush": 5077,
      "----------": 5078,
      "Ġemphasis": 5079,
      "Ġaffordable": 5080,
      "Ġextraordinary": 5081,
      "SS": 5082,
      "Ġvery": 5083,
      "Ġchain": 5084,
      "Ġprofici": 5085,
      "Ġcool": 5086,
      "Ġemployment": 5087,
      "Ġathle": 5088,
      "Ġseparate": 5089,
      "Ġsour": 5090,
      "level": 5091,
      "Ġhalf": 5092,
      "Ġnation": 5093,
      "Ġscri": 5094,
      "Ġlongevity": 5095,
      "Ġvolun": 5096,
      "Ġbuyers": 5097,
      "Ġwidespread": 5098,
      "Ġresidents": 5099,
      "Ġampl": 5100,
      "Ġdecades": 5101,
      "rief": 5102,
      "Ġcollaborations": 5103,
      "Ġassessment": 5104,
      "Ġlistening": 5105,
      "Ġattract": 5106,
      "Ġengineering": 5107,
      "Ġsuperior": 5108,
      "Ġlifestyle": 5109,
      "Ġoblig": 5110,
      "ĠMarketing": 5111,
      "lish": 5112,
      "mon": 5113,
      "Ġpushing": 5114,
      "osed": 5115,
      "ĠDec": 5116,
      "ĠGen": 5117,
      "Ġtele": 5118,
      "Ġequity": 5119,
      "Ġdimensions": 5120,
      "Ġweaknesses": 5121,
      "gg": 5122,
      "odies": 5123,
      "Ġdream": 5124,
      "uctu": 5125,
      "ĠCount": 5126,
      "ailing": 5127,
      "Ġmeets": 5128,
      "Ġprofit": 5129,
      "Ġblack": 5130,
      "Ġoptimizing": 5131,
      "Ġcombat": 5132,
      "Ġharmon": 5133,
      "Ġconstructive": 5134,
      "Ġvideos": 5135,
      "Ġheavy": 5136,
      "Ġfavorite": 5137,
      "Ġheightened": 5138,
      ".'": 5139,
      "dis": 5140,
      "Ġbrought": 5141,
      "asp": 5142,
      "ĠCare": 5143,
      "Ġuns": 5144,
      "Ġconnect": 5145,
      "Ġcorner": 5146,
      "Ġschedul": 5147,
      "ĠExamples": 5148,
      "Ġarrangements": 5149,
      "Ġexcitement": 5150,
      "Ġbed": 5151,
      "Ġpersonalized": 5152,
      "Ġelig": 5153,
      "Ġobjects": 5154,
      "Ġdescribed": 5155,
      "related": 5156,
      "page": 5157,
      "Ġstock": 5158,
      "raf": 5159,
      "Ġdishes": 5160,
      "Ġauthenticity": 5161,
      "itivity": 5162,
      "ĠMo": 5163,
      "Ġclarity": 5164,
      "tention": 5165,
      "Ġple": 5166,
      "Ġbill": 5167,
      "ĠAu": 5168,
      "ĠMicro": 5169,
      "ĠWord": 5170,
      "Ġagency": 5171,
      "ceptions": 5172,
      "Ġemerge": 5173,
      "Ġniche": 5174,
      "soft": 5175,
      "Ġavoiding": 5176,
      "Ġpurchase": 5177,
      "Ġpaper": 5178,
      "Ġguarantees": 5179,
      "ĠEuropean": 5180,
      "Ġtests": 5181,
      "estim": 5182,
      "Ġselling": 5183,
      "Ġeager": 5184,
      "Ġgenerated": 5185,
      "Ġemotion": 5186,
      "Ġwaiting": 5187,
      "Ġattributes": 5188,
      "dri": 5189,
      "gments": 5190,
      "osoph": 5191,
      "Ġmoving": 5192,
      "Ġdelight": 5193,
      "Ġsubject": 5194,
      "Ġvariety": 5195,
      "Ġconstitutes": 5196,
      "ĠSecond": 5197,
      "orship": 5198,
      "ĠNF": 5199,
      "Ġextend": 5200,
      "Ġsupportive": 5201,
      "isp": 5202,
      "ouble": 5203,
      "ĠSouth": 5204,
      "Ġwords": 5205,
      "Ġroll": 5206,
      "Ġcareers": 5207,
      "Ġfluctu": 5208,
      "ĠExpl": 5209,
      "Ġreading": 5210,
      "Ġannual": 5211,
      "Ġsymbol": 5212,
      "Ġsexual": 5213,
      "Ġi": 5214,
      "paralle": 5215,
      "Ġschem": 5216,
      "Ġbackgrounds": 5217,
      "Ġunnecessary": 5218,
      "hab": 5219,
      "aters": 5220,
      "Ġmaster": 5221,
      "Ġidentified": 5222,
      "Ġgovernance": 5223,
      "Ġrooted": 5224,
      "versely": 5225,
      "Ġstatistics": 5226,
      "Ġapplied": 5227,
      "Ġwon": 5228,
      "ĠFollow": 5229,
      "duct": 5230,
      "Ġbreaking": 5231,
      "Ġauthorities": 5232,
      "Ġexcellence": 5233,
      "Ġinspiring": 5234,
      "Ġtestament": 5235,
      "ĠNorth": 5236,
      "paralleled": 5237,
      "Ġwild": 5238,
      "Ġbox": 5239,
      "ishes": 5240,
      "ĠInves": 5241,
      "Ġagents": 5242,
      "Ġnetworking": 5243,
      "Guid": 5244,
      "Ġinteract": 5245,
      "Ġrequest": 5246,
      "Ġsubj": 5247,
      "Ġtalents": 5248,
      "Ġcommonly": 5249,
      "ĠNevertheless": 5250,
      "free": 5251,
      "Ġprol": 5252,
      "ĠBr": 5253,
      "Ġunparalleled": 5254,
      "ĠDon": 5255,
      "Ġsuitable": 5256,
      "Ġindicates": 5257,
      "ĠQu": 5258,
      "Ġsave": 5259,
      "Ġhair": 5260,
      "asive": 5261,
      "ample": 5262,
      "ĠGu": 5263,
      "Ġserved": 5264,
      "Ġtraum": 5265,
      "Ġintegrated": 5266,
      "Ġnearby": 5267,
      "ĠĊ": 5268,
      "Ġpic": 5269,
      "Ġthoughtfully": 5270,
      "Pro": 5271,
      "ula": 5272,
      "Ġdish": 5273,
      "Ġfollowed": 5274,
      "Ġfeeling": 5275,
      "Ġevolution": 5276,
      "Ġpolicymakers": 5277,
      "Ġshowcases": 5278,
      "inated": 5279,
      "roduce": 5280,
      "Ġmist": 5281,
      "ĠBuilding": 5282,
      "pection": 5283,
      "ĠFe": 5284,
      "ĠDisc": 5285,
      "Ġroof": 5286,
      "Ġeveryday": 5287,
      "Ġtargets": 5288,
      "augh": 5289,
      "Ġpriorities": 5290,
      "Ġconducted": 5291,
      "Ġexercises": 5292,
      "iblical": 5293,
      "Ġband": 5294,
      "ĠSuccess": 5295,
      "Ġchronic": 5296,
      "Ġequal": 5297,
      "Ġconstantly": 5298,
      "Ġcraftsmanship": 5299,
      "oral": 5300,
      "ĠTyp": 5301,
      "Ġancient": 5302,
      "ĠPublic": 5303,
      "Ġproducing": 5304,
      "Ġtailor": 5305,
      "Ġemerged": 5306,
      "Ġindicators": 5307,
      "Ġphotograph": 5308,
      "ĠAssoci": 5309,
      "Ġiconic": 5310,
      "fol": 5311,
      "pting": 5312,
      "Ġiter": 5313,
      "ums": 5314,
      "Ġexamples": 5315,
      "Ġdefense": 5316,
      "Ġ199": 5317,
      "ĠCommon": 5318,
      "Ġshowcase": 5319,
      "Ġderived": 5320,
      "bal": 5321,
      "sol": 5322,
      "Ġsizes": 5323,
      "Ġmel": 5324,
      "Ġvict": 5325,
      "ĠBit": 5326,
      "Ġsweet": 5327,
      "anted": 5328,
      "Ġcounterpar": 5329,
      "Ġagreements": 5330,
      "Ġaverage": 5331,
      "Ġhit": 5332,
      "Ġpopulation": 5333,
      "Ġvacc": 5334,
      "Ġworkshops": 5335,
      "..": 5336,
      "ann": 5337,
      "Ġnotes": 5338,
      "Ġexcer": 5339,
      "Ġcorres": 5340,
      "onomic": 5341,
      "Ġsectors": 5342,
      "Ġadhering": 5343,
      "Ġelevate": 5344,
      "Additionally": 5345,
      "Ġmilest": 5346,
      "Ġdomestic": 5347,
      "oved": 5348,
      "ecurity": 5349,
      "Ġextr": 5350,
      "Ġcombination": 5351,
      "Ġgrace": 5352,
      "ĠIndeed": 5353,
      "Ġsleep": 5354,
      "vering": 5355,
      "ĠAut": 5356,
      "ogen": 5357,
      "Ġassist": 5358,
      "Ġ12": 5359,
      "Ġdetermination": 5360,
      "oubtedly": 5361,
      "utional": 5362,
      "ĠSk": 5363,
      "ĠFace": 5364,
      "ĠRel": 5365,
      "Ġagg": 5366,
      "Ġbolst": 5367,
      "Ġtips": 5368,
      "eries": 5369,
      "ont": 5370,
      "Ġfederal": 5371,
      "ĠHar": 5372,
      "ĠDi": 5373,
      "ĠLever": 5374,
      "Ġscale": 5375,
      "ued": 5376,
      "apy": 5377,
      "ogether": 5378,
      "Ġencry": 5379,
      "Ġattach": 5380,
      "ĠConversely": 5381,
      "Ġtruth": 5382,
      "Ġgetting": 5383,
      "Ġacadem": 5384,
      "Ġframework": 5385,
      "oth": 5386,
      "tra": 5387,
      "oman": 5388,
      "idity": 5389,
      "iger": 5390,
      "ightly": 5391,
      "tains": 5392,
      "Ġpartner": 5393,
      "Ġupdated": 5394,
      "Ġprepare": 5395,
      "Ġphilosoph": 5396,
      "Ġcounterparts": 5397,
      "Ġcash": 5398,
      "Ġsong": 5399,
      "Ġsought": 5400,
      "Ġadvice": 5401,
      "ĠNon": 5402,
      "Ġmolec": 5403,
      "Ġremaining": 5404,
      "Ġshifting": 5405,
      "ĠRecogn": 5406,
      "Ġscreen": 5407,
      "Ġscholars": 5408,
      "gers": 5409,
      "Ġfashion": 5410,
      "Ġforth": 5411,
      "ĠEs": 5412,
      "Ġorganic": 5413,
      "Ġdeter": 5414,
      "Ġhumanity": 5415,
      "Ġdestination": 5416,
      "Ġrevolution": 5417,
      "Ġluxury": 5418,
      "Ġhousing": 5419,
      "Ġaccompan": 5420,
      "lim": 5421,
      "Ġstim": 5422,
      "Ġdry": 5423,
      "lean": 5424,
      "entist": 5425,
      "Ġremind": 5426,
      "Ġallowed": 5427,
      "cipl": 5428,
      "ĠProvid": 5429,
      "Ġjournal": 5430,
      "Ġbelievers": 5431,
      "App": 5432,
      "En": 5433,
      "ipp": 5434,
      "Ġhear": 5435,
      "Ġminutes": 5436,
      "Ġtrusted": 5437,
      "Ġanimals": 5438,
      "point": 5439,
      "esp": 5440,
      "Ġcatch": 5441,
      "ales": 5442,
      "Ġinner": 5443,
      "Ġling": 5444,
      "ĠEffective": 5445,
      "Ġperpet": 5446,
      "Ġcomputing": 5447,
      "Ġexcerpt": 5448,
      "ixt": 5449,
      "rific": 5450,
      "roc": 5451,
      "Ġborrow": 5452,
      "rap": 5453,
      "Ġleast": 5454,
      "Ġseems": 5455,
      "Ġstrike": 5456,
      "Ġcomprehension": 5457,
      "Ġcriminal": 5458,
      "Ġdilig": 5459,
      "Ġexists": 5460,
      "Ġintu": 5461,
      "Ġinsight": 5462,
      "Ġprofiles": 5463,
      "Ġload": 5464,
      "Ġautomated": 5465,
      "Ġfem": 5466,
      "Ġfaster": 5467,
      "ĠBar": 5468,
      "umn": 5469,
      "ancies": 5470,
      "ĠLaw": 5471,
      "Ġspent": 5472,
      "Ġapplicable": 5473,
      "ranch": 5474,
      "Ġschedules": 5475,
      "Ġpreparing": 5476,
      "ĠIntegr": 5477,
      "pact": 5478,
      "Ġspot": 5479,
      "Ġdefin": 5480,
      "Ġmusical": 5481,
      "Ġcomplications": 5482,
      "Ġvolumes": 5483,
      "Ġauthority": 5484,
      "Ġtreating": 5485,
      "Ġthriving": 5486,
      "Ġindependent": 5487,
      "ĠImplementing": 5488,
      "Re": 5489,
      "reen": 5490,
      "emed": 5491,
      "Ġdead": 5492,
      "ĠLeg": 5493,
      "Ġintegral": 5494,
      "ĠProf": 5495,
      "yl": 5496,
      "Ġexac": 5497,
      "illed": 5498,
      "Ġformation": 5499,
      "Ġaddresses": 5500,
      "Ġundoubtedly": 5501,
      "Ġgovernments": 5502,
      "Ġappears": 5503,
      "Ġinclusion": 5504,
      "Ġentirely": 5505,
      "top": 5506,
      "anges": 5507,
      "Ġtexture": 5508,
      "ĠStrategies": 5509,
      "PR": 5510,
      "here": 5511,
      "ison": 5512,
      "used": 5513,
      "Ġphone": 5514,
      "ĠStay": 5515,
      "known": 5516,
      "Ġfailure": 5517,
      "Ġcleaning": 5518,
      "ĊĠĠĠĠ": 5519,
      "att": 5520,
      "arking": 5521,
      "ĠDem": 5522,
      "Ġmanagers": 5523,
      "Ġarray": 5524,
      "Ġpeers": 5525,
      "Ġdatabase": 5526,
      "Ġfreedom": 5527,
      "water": 5528,
      "Ġthing": 5529,
      "abric": 5530,
      "oding": 5531,
      "Ġsequ": 5532,
      "ĠLear": 5533,
      "ĠRegularly": 5534,
      "Ġlinked": 5535,
      "Ġmeticulous": 5536,
      "Ġhospital": 5537,
      "Ġexacerb": 5538,
      "Ġupgra": 5539,
      "----------------------------": 5540,
      "Ġcourt": 5541,
      "Ġarchitecture": 5542,
      "son": 5543,
      "Ġcard": 5544,
      "reet": 5545,
      "Ġdiving": 5546,
      "entral": 5547,
      "Ġven": 5548,
      "roup": 5549,
      "overn": 5550,
      "Ġindul": 5551,
      "Ġformal": 5552,
      "ĠYet": 5553,
      "Ġlegacy": 5554,
      "ĠAccess": 5555,
      "Ġgeographical": 5556,
      "Ġmanif": 5557,
      "ĠGe": 5558,
      "Ġsport": 5559,
      "Ġmodifications": 5560,
      "Ġlegis": 5561,
      "Ġexhibit": 5562,
      "Ġmand": 5563,
      "Ġstead": 5564,
      "Ġdiscourse": 5565,
      "Ġaccessories": 5566,
      "Ġinflamm": 5567,
      "Ġgaining": 5568,
      "ault": 5569,
      "osis": 5570,
      "Ġdelicious": 5571,
      "Ġoperate": 5572,
      "Ġversions": 5573,
      "Ġeconomy": 5574,
      "urring": 5575,
      "ĠWeb": 5576,
      "Ġstruggles": 5577,
      "Ġaffordability": 5578,
      "Ġadministration": 5579,
      "Ġdisciplines": 5580,
      "Ġexplicitly": 5581,
      "icating": 5582,
      "Ġaccum": 5583,
      "Ġdiplom": 5584,
      "Ġ2021": 5585,
      "Ġvs": 5586,
      "lecting": 5587,
      "ĠUse": 5588,
      "ĠAdv": 5589,
      "Ġcarbon": 5590,
      "Ġbeloved": 5591,
      "Ġinfluences": 5592,
      "gn": 5593,
      "Ġdate": 5594,
      "Ġwedding": 5595,
      "olds": 5596,
      "ĠAv": 5597,
      "Ġphase": 5598,
      "Ġprofile": 5599,
      "Ġfunding": 5600,
      "Ġdiseases": 5601,
      "Ġwonder": 5602,
      "Ġoutdoor": 5603,
      "Ġmarginal": 5604,
      "solving": 5605,
      "AR": 5606,
      "personal": 5607,
      "ĠSur": 5608,
      "Ġunits": 5609,
      "Ġautomation": 5610,
      "notch": 5611,
      "Ġwait": 5612,
      "Ġharnessing": 5613,
      "driven": 5614,
      "EM": 5615,
      "pled": 5616,
      "Ġusually": 5617,
      "Ġtrying": 5618,
      "Ġword": 5619,
      "Ġcommand": 5620,
      "Ġaffili": 5621,
      "Ġdetailed": 5622,
      "Ġreceived": 5623,
      "Ġmatches": 5624,
      "ĠServices": 5625,
      "Ġimmersive": 5626,
      "ĠMicrosoft": 5627,
      "forward": 5628,
      "Ġshown": 5629,
      "Ġovercome": 5630,
      "ĠKnow": 5631,
      "Ġstudying": 5632,
      "Ġstanding": 5633,
      "Ġlosses": 5634,
      "Ġsacrific": 5635,
      ",'": 5636,
      "ER": 5637,
      "OS": 5638,
      "otyp": 5639,
      "Ġdisp": 5640,
      "ĠGiven": 5641,
      "appy": 5642,
      "Ġerror": 5643,
      "Ġofficials": 5644,
      "Ġpenal": 5645,
      "aves": 5646,
      "gi": 5647,
      "met": 5648,
      "inter": 5649,
      "Ġbank": 5650,
      "Ġbott": 5651,
      "amed": 5652,
      "otor": 5653,
      "Ġdetection": 5654,
      "Ġequitable": 5655,
      "ĠUnlike": 5656,
      "Ġconducting": 5657,
      "Ġolder": 5658,
      "Ġrelaxation": 5659,
      "press": 5660,
      "ocking": 5661,
      "ĠWar": 5662,
      "ĠHum": 5663,
      "aker": 5664,
      "onomy": 5665,
      "Ġtemperatures": 5666,
      "ĠFirstly": 5667,
      "Ġbiblical": 5668,
      "igital": 5669,
      "Ġnight": 5670,
      "Ġgaps": 5671,
      "Ġdefensive": 5672,
      "Ġoccurs": 5673,
      "Ġdaunting": 5674,
      "board": 5675,
      "Ġmillions": 5676,
      "Ġrenowned": 5677,
      "onial": 5678,
      "tire": 5679,
      "Ġfun": 5680,
      "Ġhomes": 5681,
      "gettable": 5682,
      "Ġ15": 5683,
      "Ġlimits": 5684,
      "Ġacquisition": 5685,
      "discipl": 5686,
      "Ġconfirm": 5687,
      "Ġconversation": 5688,
      "Ġsteel": 5689,
      "PIs": 5690,
      "sing": 5691,
      "Ġlost": 5692,
      "Ġunwa": 5693,
      "Ġmeals": 5694,
      "Ġpositioning": 5695,
      "Ġfitness": 5696,
      "Ġcompeting": 5697,
      "ĠSchool": 5698,
      "Ġrestrictions": 5699,
      "ĠPresident": 5700,
      "Ġexpansion": 5701,
      "Guideline": 5702,
      "cons": 5703,
      "dle": 5704,
      "Ġchat": 5705,
      "ĠEl": 5706,
      "Ġinteractive": 5707,
      "Ġindicate": 5708,
      "worth": 5709,
      "Ġsuppl": 5710,
      "Ġ30": 5711,
      "Ġaligns": 5712,
      "Ġencompasses": 5713,
      "Ġchecks": 5714,
      "rators": 5715,
      "Ġthr": 5716,
      "Ġoral": 5717,
      "actors": 5718,
      "Ġrelatively": 5719,
      "Ġsubmit": 5720,
      "Ġvolume": 5721,
      "Ġunwavering": 5722,
      "tingu": 5723,
      "Ġweigh": 5724,
      "avigating": 5725,
      "Ġoccasion": 5726,
      "Ġharmful": 5727,
      "Ġwidely": 5728,
      "right": 5729,
      "Ġtell": 5730,
      "Ġpages": 5731,
      "estry": 5732,
      "Ġquite": 5733,
      "Ġoutlined": 5734,
      "Ġmetals": 5735,
      "Ġvulnerabilities": 5736,
      "Ġroutines": 5737,
      "ĠEncouraging": 5738,
      "IS": 5739,
      "bles": 5740,
      "oining": 5741,
      "Ġsem": 5742,
      "anting": 5743,
      "Ġnations": 5744,
      "Ġrecon": 5745,
      "Ġpracticing": 5746,
      "Ġcenters": 5747,
      "Ġgoods": 5748,
      "Ġvolunte": 5749,
      "RM": 5750,
      "fits": 5751,
      "Ġpose": 5752,
      "urally": 5753,
      "Ġconvey": 5754,
      "itim": 5755,
      "ĠFort": 5756,
      "Ġmoist": 5757,
      "Ġattack": 5758,
      "Ġbelow": 5759,
      "Ġpool": 5760,
      "Ġvoices": 5761,
      "Ġcrisis": 5762,
      "Ġsmartph": 5763,
      "ĠEmbracing": 5764,
      "Ġtissue": 5765,
      "oks": 5766,
      "arter": 5767,
      "Ġspark": 5768,
      "Ġblue": 5769,
      "Ġ2018": 5770,
      "Ġuncover": 5771,
      "Ġstraightforward": 5772,
      "Ġalleviate": 5773,
      "Ġdistinctive": 5774,
      "ĠEducation": 5775,
      "AP": 5776,
      "Ġpal": 5777,
      "Ġox": 5778,
      "Ġforget": 5779,
      "ĠSci": 5780,
      "Ġspecies": 5781,
      "Ġclearly": 5782,
      "Ġdiscovery": 5783,
      "Ġfulfill": 5784,
      "ĠBitcoin": 5785,
      "nab": 5786,
      "Ġca": 5787,
      "ada": 5788,
      "Ġdelves": 5789,
      "Ġsimply": 5790,
      "Ġrecognized": 5791,
      "Ġcombines": 5792,
      "Ġrepresenting": 5793,
      "Ġtempl": 5794,
      "ĠColle": 5795,
      "Ġpreserve": 5796,
      "Ġ2020": 5797,
      "Ġhighlighted": 5798,
      "Ġdemocratic": 5799,
      "Ġendeavors": 5800,
      "Ġtown": 5801,
      "ĠCap": 5802,
      "ched": 5803,
      "Ġintroduce": 5804,
      "ĠUpon": 5805,
      "Ġamongst": 5806,
      "ĠVal": 5807,
      "AM": 5808,
      "pons": 5809,
      "eters": 5810,
      "Ġchamp": 5811,
      "Ġremin": 5812,
      "Ġtopic": 5813,
      "tors": 5814,
      "Ġthous": 5815,
      "urning": 5816,
      "rie": 5817,
      "Ġquan": 5818,
      "rown": 5819,
      "ĠAddress": 5820,
      "Ġcharge": 5821,
      "Ġcards": 5822,
      "Ġstatements": 5823,
      "Ġpaths": 5824,
      "Ġshares": 5825,
      "SD": 5826,
      "ĠShe": 5827,
      "ĠEd": 5828,
      "Ġflour": 5829,
      "Ġcentury": 5830,
      "Ġguiding": 5831,
      "Ġinviting": 5832,
      "Ġwritten": 5833,
      "rooms": 5834,
      "Ġnames": 5835,
      "enced": 5836,
      "orse": 5837,
      "Ġmeal": 5838,
      "Ġsignal": 5839,
      "Ġasset": 5840,
      "Ġindustrial": 5841,
      "Ġpayments": 5842,
      "Ġactually": 5843,
      "Ġdimin": 5844,
      "Ġinstructions": 5845,
      "Ġcontracts": 5846,
      "AC": 5847,
      "fast": 5848,
      "Ġow": 5849,
      "Ġmember": 5850,
      "Ġbrain": 5851,
      "quis": 5852,
      "ĠCor": 5853,
      "ĠMay": 5854,
      "Ġtimeless": 5855,
      "--------------------": 5856,
      "Ġendless": 5857,
      "Ġimplemented": 5858,
      "Ġprecious": 5859,
      "Ġmaximizing": 5860,
      "ĠFacebook": 5861,
      "inning": 5862,
      "Ġcities": 5863,
      "Ġpun": 5864,
      "Ġdu": 5865,
      "och": 5866,
      "istan": 5867,
      "Ġregist": 5868,
      "ounters": 5869,
      "atches": 5870,
      "Ġpartnership": 5871,
      "Ġoverlooked": 5872,
      "Ġunforgettable": 5873,
      "Ġphenomenon": 5874,
      "ispens": 5875,
      "estern": 5876,
      "riad": 5877,
      "ighter": 5878,
      "istor": 5879,
      "ĠOut": 5880,
      "Ġindispens": 5881,
      "Ġpersonality": 5882,
      "load": 5883,
      "Ġopponents": 5884,
      "Ġharmonious": 5885,
      "nering": 5886,
      "eterm": 5887,
      "ĠTip": 5888,
      "ĠSaf": 5889,
      "Ġpromise": 5890,
      "Ġcustomized": 5891,
      "Ġformats": 5892,
      "Ġcontrovers": 5893,
      "Ġgains": 5894,
      "Ġready": 5895,
      "Ġenjoying": 5896,
      "Ġcrafted": 5897,
      "Ġtrip": 5898,
      "Ġsuggesting": 5899,
      "cel": 5900,
      "Ġjur": 5901,
      "Ġdesire": 5902,
      "Ġ2019": 5903,
      "Ġmyriad": 5904,
      "Ġdomains": 5905,
      "Ġcompensation": 5906,
      "Ultimately": 5907,
      "Ġdram": 5908,
      "Ġplant": 5909,
      "Ġconscious": 5910,
      "Ġinteresting": 5911,
      "Ġregim": 5912,
      "Ġworkflow": 5913,
      "Ġholding": 5914,
      "Ġattractive": 5915,
      "Ġshopping": 5916,
      "Ġmortg": 5917,
      "Ġindispensable": 5918,
      "TM": 5919,
      "Ġwider": 5920,
      "Ġwaters": 5921,
      "Ġlinks": 5922,
      "Ġask": 5923,
      "Ġbegan": 5924,
      "Ġsufficient": 5925,
      "Ġpersever": 5926,
      "Ġranking": 5927,
      "ĠChristianity": 5928,
      "Ġcryst": 5929,
      "Ġthoroughly": 5930,
      "Ġproficiency": 5931,
      "CO": 5932,
      "Ġpair": 5933,
      "Ġrare": 5934,
      "dio": 5935,
      "Ġappoint": 5936,
      "Ġrot": 5937,
      "Ġrecre": 5938,
      "ĠVis": 5939,
      "Ġwebpage": 5940,
      "What": 5941,
      "Ġoccup": 5942,
      "Ġtravelers": 5943,
      "Ġraising": 5944,
      "Ġassessments": 5945,
      "Ġgathering": 5946,
      "Ġimmediately": 5947,
      "eds": 5948,
      "irth": 5949,
      "uming": 5950,
      "Ġplenty": 5951,
      "Ġpercent": 5952,
      "Ġinvent": 5953,
      "Ġeco": 5954,
      "Ġcomposition": 5955,
      "Ġoverwhelming": 5956,
      "disciplinary": 5957,
      "Ps": 5958,
      "oning": 5959,
      "rect": 5960,
      "Ġdeal": 5961,
      "aph": 5962,
      "Ġdistingu": 5963,
      "Ġunderm": 5964,
      "Ġloved": 5965,
      "Ġmitigating": 5966,
      "Ġmarked": 5967,
      "Ġconfigurations": 5968,
      "Ġgear": 5969,
      "ĠEast": 5970,
      "Ġencounters": 5971,
      "Ġdoors": 5972,
      "tity": 5973,
      "Ġclasses": 5974,
      "Ġeventually": 5975,
      "Ġdebt": 5976,
      "Ġadverse": 5977,
      "oe": 5978,
      "power": 5979,
      "uted": 5980,
      "Ġalthough": 5981,
      "Ġjoint": 5982,
      "Ġtraits": 5983,
      "ĠJava": 5984,
      "Ġbalanced": 5985,
      "Ġadaptation": 5986,
      "Ġbringing": 5987,
      "',": 5988,
      "tible": 5989,
      "antic": 5990,
      "Ġprow": 5991,
      "ĠMy": 5992,
      "Ġservers": 5993,
      "ĠWhat": 5994,
      "Ġfluid": 5995,
      "Ġveget": 5996,
      "Ġcryptocurrencies": 5997,
      "Ġavenues": 5998,
      "Ġfranch": 5999,
      "ĠBet": 6000,
      "Ġimper": 6001,
      "ĠHappy": 6002,
      "Ġbooks": 6003,
      "Ġcollaborate": 6004,
      "ĠService": 6005,
      "Ġnecessitating": 6006,
      "Ġintroduced": 6007,
      "AT": 6008,
      "Ġstem": 6009,
      "Ġworship": 6010,
      "Ġabuse": 6011,
      "ĠUp": 6012,
      "Ġpreval": 6013,
      "ooting": 6014,
      "Ġdemanding": 6015,
      "Ġabsor": 6016,
      "ĠCenter": 6017,
      "Ġprowess": 6018,
      "DC": 6019,
      "Ġtech": 6020,
      "Ġdark": 6021,
      "Ġwine": 6022,
      "Ġbold": 6023,
      "irt": 6024,
      "Ġemissions": 6025,
      "Ġworry": 6026,
      "ĠProcess": 6027,
      "eek": 6028,
      "ĠIndian": 6029,
      "Ġcoupled": 6030,
      "Ġbridge": 6031,
      "Ġstringent": 6032,
      "set": 6033,
      "onding": 6034,
      "Ġcas": 6035,
      "Ġfat": 6036,
      "Ġexpected": 6037,
      "ibly": 6038,
      "Ġcollect": 6039,
      "Ġeffect": 6040,
      "Ġdiscrim": 6041,
      "Ġtex": 6042,
      "htaking": 6043,
      "Ġmuscle": 6044,
      "Ġcherished": 6045,
      "Sh": 6046,
      "gical": 6047,
      "ww": 6048,
      "Ġdentist": 6049,
      "ulting": 6050,
      "Ġyouth": 6051,
      "ader": 6052,
      "Ġplaced": 6053,
      "Ġinterpersonal": 6054,
      "Ġmobility": 6055,
      "Ġmarketers": 6056,
      "Ġjourneys": 6057,
      "Ġobjective": 6058,
      "Ġconvenient": 6059,
      "Ġvariations": 6060,
      "Ġtapestry": 6061,
      "Ġbreathtaking": 6062,
      "12": 6063,
      "odi": 6064,
      "Ġawa": 6065,
      "ĠRef": 6066,
      "Ġbecame": 6067,
      "ĠProper": 6068,
      "Ġmusicians": 6069,
      "Ġposts": 6070,
      "Ġextreme": 6071,
      "stream": 6072,
      "ĠAir": 6073,
      "Ġunp": 6074,
      "Ġdisapp": 6075,
      "Ġfeels": 6076,
      "Ġ14": 6077,
      "ĠEnter": 6078,
      "Ġgratitude": 6079,
      "Ġtemporary": 6080,
      "Ġembodies": 6081,
      "Ġpackage": 6082,
      "Ġcolleagues": 6083,
      "ĠUsers": 6084,
      "EC": 6085,
      "raft": 6086,
      "ĠFamiliar": 6087,
      "endering": 6088,
      "Ġrequests": 6089,
      "Ġhealthier": 6090,
      "Ġincluded": 6091,
      "Ġcenturies": 6092,
      "Ġregulation": 6093,
      "Ġemphasize": 6094,
      "Ġbelieve": 6095,
      "Ġrestaur": 6096,
      "Ġspirituality": 6097,
      "Ġvulnerability": 6098,
      "Ġtheology": 6099,
      "Ġhop": 6100,
      "ĠPort": 6101,
      "ĠNetwor": 6102,
      "Ġindeed": 6103,
      "ĠStu": 6104,
      "Ġfacets": 6105,
      "Ġemployers": 6106,
      "Ġinstitution": 6107,
      "ĠCompan": 6108,
      "Ġadopt": 6109,
      "Ġmachines": 6110,
      "Ġinterviews": 6111,
      "inger": 6112,
      "enting": 6113,
      "Ġadults": 6114,
      "ĠGroup": 6115,
      "ĠConn": 6116,
      "ĠAtt": 6117,
      "Ġteachings": 6118,
      "Cons": 6119,
      "Ġtast": 6120,
      "erves": 6121,
      "Ġretention": 6122,
      "asure": 6123,
      "Ġexh": 6124,
      "Ġunt": 6125,
      "Ġlocally": 6126,
      "Ġdeepen": 6127,
      "tify": 6128,
      "Ġautomatically": 6129,
      "Ġrecipe": 6130,
      "Ġcyber": 6131,
      "Ġdemographics": 6132,
      "Ġsenti": 6133,
      "Ġhinder": 6134,
      "economic": 6135,
      "Ġwhe": 6136,
      "Ġconsiderable": 6137,
      "Ġsurfaces": 6138,
      "Ġcustomization": 6139,
      "Ġnotion": 6140,
      "Ġtooth": 6141,
      "Ġencompassing": 6142,
      "Ġtalented": 6143,
      "Ġattendees": 6144,
      "15": 6145,
      "iant": 6146,
      "Ġtension": 6147,
      "ĠAre": 6148,
      "Ġneu": 6149,
      "ffee": 6150,
      "ĠRole": 6151,
      "ĠOf": 6152,
      "Ġfinancing": 6153,
      "Ġcarries": 6154,
      "Ġlegitim": 6155,
      "Ġprime": 6156,
      "Ġpresenting": 6157,
      "Ġterrit": 6158,
      "Ġdiscovered": 6159,
      "Ġconducive": 6160,
      "Ġnearly": 6161,
      "Ġstructural": 6162,
      "Ġexistence": 6163,
      "Ġreported": 6164,
      "Ġguarantee": 6165,
      "Ġdatabases": 6166,
      "Ġmindset": 6167,
      "Ġannounce": 6168,
      "Ġobligations": 6169,
      "bl": 6170,
      "Ġ0": 6171,
      "Ġmagn": 6172,
      "Ġcannab": 6173,
      "Ġamen": 6174,
      "Ġcertainly": 6175,
      "Ġbalancing": 6176,
      "Ġlanguages": 6177,
      "Ġresonates": 6178,
      "Ġneighbor": 6179,
      "Ġstone": 6180,
      "ĠSince": 6181,
      "Ġincenti": 6182,
      "ference": 6183,
      "Ġhumans": 6184,
      "Ġartificial": 6185,
      "ĠImpro": 6186,
      "Ġpoly": 6187,
      "Ġspeaking": 6188,
      "Ġaspirations": 6189,
      "Ġescal": 6190,
      "ĠTime": 6191,
      "ĠCollege": 6192,
      "Ġthousands": 6193,
      "co": 6194,
      "dom": 6195,
      "Ġmir": 6196,
      "Ġbeneath": 6197,
      "ĠOnline": 6198,
      "Ġfacilitates": 6199,
      "Ġsounds": 6200,
      "scale": 6201,
      "Ġopinions": 6202,
      "itter": 6203,
      "Ġfant": 6204,
      "izable": 6205,
      "uality": 6206,
      "Ġspanning": 6207,
      "ĠYork": 6208,
      "Ġuseful": 6209,
      "Ġevolve": 6210,
      "Ġportfol": 6211,
      "breaking": 6212,
      "ĠCounty": 6213,
      "cip": 6214,
      "Ġtom": 6215,
      "asm": 6216,
      "ĠIP": 6217,
      "Ġprevention": 6218,
      "Ġutilization": 6219,
      "Ġstriving": 6220,
      "Ġassessing": 6221,
      "Ġspeech": 6222,
      "Ġpursuit": 6223,
      "Ġrecommended": 6224,
      "Ġexemplifies": 6225,
      "Ġ*": 6226,
      "Ġround": 6227,
      "Ġap": 6228,
      "ĠBra": 6229,
      "ĠUk": 6230,
      "Ġprogression": 6231,
      "ĠRegardless": 6232,
      "Ġswitch": 6233,
      "Ġinspired": 6234,
      "Ġtackle": 6235,
      "Ġlicens": 6236,
      "bit": 6237,
      "mm": 6238,
      "estiv": 6239,
      "Ġce": 6240,
      "eding": 6241,
      "Ġrating": 6242,
      "Ġcreations": 6243,
      "Ġeffic": 6244,
      "Ġtheme": 6245,
      "Ġleader": 6246,
      "ĠChar": 6247,
      "Ġcontrols": 6248,
      "ĠImport": 6249,
      "ĠTechnology": 6250,
      "Ġgradually": 6251,
      "ED": 6252,
      "Ġdance": 6253,
      "celer": 6254,
      "irable": 6255,
      "ĠBu": 6256,
      "ube": 6257,
      "Ġforming": 6258,
      "Ġdrivers": 6259,
      "Ġveter": 6260,
      "Ġtraveling": 6261,
      "Ġcertif": 6262,
      "Ġkeywords": 6263,
      "ĠCompanies": 6264,
      "cop": 6265,
      "roph": 6266,
      "Ġreactions": 6267,
      "Ġposes": 6268,
      "ĠSte": 6269,
      "Ġdistress": 6270,
      "Ġglim": 6271,
      "Ġscrut": 6272,
      "prises": 6273,
      "://": 6274,
      "Next": 6275,
      "gent": 6276,
      "iances": 6277,
      "zy": 6278,
      "Ġrom": 6279,
      "rete": 6280,
      "Ġdining": 6281,
      "Ġnurs": 6282,
      "ĠClear": 6283,
      "Ġperm": 6284,
      "Ġbuying": 6285,
      "Ġrefining": 6286,
      "Ġreduction": 6287,
      "ĠConf": 6288,
      "Ġstrengthening": 6289,
      "Ġ2017": 6290,
      "Ġpredict": 6291,
      "Ġcelebrating": 6292,
      "Ġwarrant": 6293,
      "BA": 6294,
      "rings": 6295,
      "zing": 6296,
      "ĠPe": 6297,
      "Ġsections": 6298,
      "Ġvisiting": 6299,
      "Ġnotice": 6300,
      "Ġdirection": 6301,
      "Ġadvocating": 6302,
      "Ġturning": 6303,
      "Ġdegree": 6304,
      "Ġunlock": 6305,
      "Ġlisteners": 6306,
      "commerce": 6307,
      "Ġaware": 6308,
      "Ġpra": 6309,
      "Ġinn": 6310,
      "icy": 6311,
      "Ġrelief": 6312,
      "Ġoffic": 6313,
      "Ġillum": 6314,
      "Ġaligned": 6315,
      "ĠCloud": 6316,
      "Ġjurisd": 6317,
      "Ġfer": 6318,
      "Ġfabric": 6319,
      "road": 6320,
      "Ġwood": 6321,
      "Ġvend": 6322,
      "iff": 6323,
      "ĠSub": 6324,
      "Ġadm": 6325,
      "ĠPaul": 6326,
      "warding": 6327,
      "Ġteeth": 6328,
      "Ġelectronic": 6329,
      "Ġgenetic": 6330,
      "Ġcohesive": 6331,
      "Ġrev": 6332,
      "Ġplaces": 6333,
      "Ġroc": 6334,
      "Ġadvancing": 6335,
      "Ġsurve": 6336,
      "Ġdirec": 6337,
      "Ġreliance": 6338,
      "Ġunderscore": 6339,
      "Ġcycle": 6340,
      "Ġattempting": 6341,
      "ĠEnsure": 6342,
      "ĠIdentify": 6343,
      "bing": 6344,
      "do": 6345,
      "org": 6346,
      "asures": 6347,
      "elt": 6348,
      "aint": 6349,
      "ĠMake": 6350,
      "Ġposed": 6351,
      "Ġengines": 6352,
      "Ġnewly": 6353,
      "Ġpoll": 6354,
      "Ġsafer": 6355,
      "Ġfollowers": 6356,
      "bersecurity": 6357,
      "Ġsuscep": 6358,
      "Ġcategory": 6359,
      "Ġaccommodate": 6360,
      "Ġreinforcing": 6361,
      ");": 6362,
      "TC": 6363,
      "sp": 6364,
      "omfort": 6365,
      "Ġgau": 6366,
      "ritis": 6367,
      "ĠEmploy": 6368,
      "Ġphotography": 6369,
      "60": 6370,
      "Ġtestim": 6371,
      "Ġaud": 6372,
      "ervation": 6373,
      "Ġpip": 6374,
      "Ġhurd": 6375,
      "Ġnormal": 6376,
      "Ġdispl": 6377,
      "Ġinsur": 6378,
      "Ġkitch": 6379,
      "Ġadvances": 6380,
      "Ġedge": 6381,
      "Ġimmune": 6382,
      "Ġpreferred": 6383,
      "Ġ2016": 6384,
      "Ġadvocacy": 6385,
      "Ġintroducing": 6386,
      "ĠAssociation": 6387,
      "Ġtensions": 6388,
      "atin": 6389,
      "Ġwire": 6390,
      "Ġproven": 6391,
      "Ġstored": 6392,
      "ĠTest": 6393,
      "Ġrecruit": 6394,
      "Ġspecified": 6395,
      "Ġsetup": 6396,
      "ĠAng": 6397,
      "Ġcomplexities": 6398,
      "Ġbreast": 6399,
      "Ġexcel": 6400,
      "Ġcelebrate": 6401,
      "Ġcryptocurrency": 6402,
      "func": 6403,
      "iet": 6404,
      "lets": 6405,
      "ask": 6406,
      "tices": 6407,
      "Ġord": 6408,
      "ĠMat": 6409,
      "Ġtransitions": 6410,
      "Ġrepair": 6411,
      "Ġinitiative": 6412,
      "ltimate": 6413,
      "Ġgrasp": 6414,
      "Ġsugar": 6415,
      "Ġtook": 6416,
      "Ġnarrow": 6417,
      "Ġwarmth": 6418,
      "ĠInstit": 6419,
      "uis": 6420,
      "Ġfalls": 6421,
      "Ġreb": 6422,
      "ĠDire": 6423,
      "Ġspending": 6424,
      "Ġproduced": 6425,
      "Ġstrengthens": 6426,
      "Ġcontains": 6427,
      "Ġpackages": 6428,
      "III": 6429,
      "ĠSecurity": 6430,
      "Ġcycles": 6431,
      "ĠEurope": 6432,
      "ĠUtilizing": 6433,
      "Ġconfiguration": 6434,
      "ĠTwo": 6435,
      "Ġefficacy": 6436,
      "ES": 6437,
      "vy": 6438,
      "Ġfrust": 6439,
      "elong": 6440,
      "ĠAust": 6441,
      "ĠAct": 6442,
      "ĠDigital": 6443,
      "Ġshapes": 6444,
      "Ġmeticulously": 6445,
      "Ġclubs": 6446,
      "ĠStudy": 6447,
      "With": 6448,
      "Ġsession": 6449,
      "emost": 6450,
      "oga": 6451,
      "Ġsignals": 6452,
      "Ġcommunications": 6453,
      "Ġmov": 6454,
      "Ġprincip": 6455,
      "Ġcurrently": 6456,
      "Ġfunctionalities": 6457,
      "Ġneck": 6458,
      "Ġvit": 6459,
      "Ġjoining": 6460,
      "Ġboard": 6461,
      "Ġrelative": 6462,
      "ports": 6463,
      "titudes": 6464,
      "Ġcurric": 6465,
      "visions": 6466,
      "Ġperseverance": 6467,
      "ashing": 6468,
      "perform": 6469,
      "ĠMa": 6470,
      "Ġtransmission": 6471,
      "Ġdifferenti": 6472,
      "Ġobtain": 6473,
      "print": 6474,
      "Ġschedule": 6475,
      "Ġpaid": 6476,
      "Ġcrime": 6477,
      "Ġfigure": 6478,
      "Ġprotein": 6479,
      "Ġcaution": 6480,
      "alysis": 6481,
      "Ġpit": 6482,
      "Ġpregn": 6483,
      "Ġtraject": 6484,
      "ulture": 6485,
      "ĠOnly": 6486,
      "arsh": 6487,
      "Ġpaying": 6488,
      "Ġsearching": 6489,
      "Ġruns": 6490,
      "Ġslightly": 6491,
      "ĠOpen": 6492,
      "Ġbolster": 6493,
      "Ġwalk": 6494,
      "Ġvigilance": 6495,
      "11": 6496,
      "eks": 6497,
      "Ġpets": 6498,
      "Ġrej": 6499,
      "ĠCase": 6500,
      "Ġcreators": 6501,
      "Ġscore": 6502,
      "Ġpeak": 6503,
      "Ġdepression": 6504,
      "Ġdiscussed": 6505,
      "Ġmarks": 6506,
      "ĠMedical": 6507,
      "Ġfavorable": 6508,
      "ĠEncourage": 6509,
      "Ġdepartments": 6510,
      "Ġinterpretation": 6511,
      "ĠProgram": 6512,
      "Ġamenities": 6513,
      "otive": 6514,
      "Ġegg": 6515,
      "iday": 6516,
      "through": 6517,
      "ateral": 6518,
      "Ġsocieties": 6519,
      "ĠReal": 6520,
      "Ġreferred": 6521,
      "ĠAssess": 6522,
      "Ġeyes": 6523,
      "ĠWork": 6524,
      "Ġfulfilling": 6525,
      "Ġconcentr": 6526,
      "Ġscheduling": 6527,
      "Ġsubjects": 6528,
      "coh": 6529,
      "paced": 6530,
      "inery": 6531,
      "Ġmotor": 6532,
      "Ġbrief": 6533,
      "Ġdisput": 6534,
      "endant": 6535,
      "ĠGold": 6536,
      "brid": 6537,
      "Ġidentification": 6538,
      "Ġcovered": 6539,
      "Em": 6540,
      "field": 6541,
      "piec": 6542,
      "Ġast": 6543,
      "Ġstable": 6544,
      "Ġgap": 6545,
      "Ġdeals": 6546,
      "ĠPark": 6547,
      "Ġmedications": 6548,
      "These": 6549,
      "Ġnegotiations": 6550,
      "Ġelegance": 6551,
      "Ġmarginalized": 6552,
      "IT": 6553,
      "uity": 6554,
      "tial": 6555,
      "tile": 6556,
      "Ġfishing": 6557,
      "Ġbra": 6558,
      "Ġheard": 6559,
      "ĠLike": 6560,
      "Ġdiscomfort": 6561,
      "Ġoffensive": 6562,
      "Ġmeditation": 6563,
      "Ġsolar": 6564,
      "Ġequally": 6565,
      "Ġcharges": 6566,
      "Ġspecializing": 6567,
      "Ġprosper": 6568,
      "Ġperfectly": 6569,
      "Ġswift": 6570,
      "Ġdisparities": 6571,
      "Ġacceptance": 6572,
      "Ġbond": 6573,
      "Ġhiring": 6574,
      "Ġalb": 6575,
      "Ġsegments": 6576,
      "Ġutility": 6577,
      "Ġmeetings": 6578,
      "Ġera": 6579,
      "otion": 6580,
      "Ġpin": 6581,
      "Ġfarm": 6582,
      "pecting": 6583,
      "ĠLead": 6584,
      "Ġuph": 6585,
      "Ġcold": 6586,
      "Ġorganized": 6587,
      "Ġreleased": 6588,
      "Ġreleases": 6589,
      "Ġsensitivity": 6590,
      "Ġconfidential": 6591,
      "ĠContin": 6592,
      "Ġencryption": 6593,
      "Ġintuitive": 6594,
      "CC": 6595,
      "QL": 6596,
      "ptions": 6597,
      "tious": 6598,
      "char": 6599,
      "ĠChurch": 6600,
      "Ġvalued": 6601,
      "ĠApplic": 6602,
      "Ġanimal": 6603,
      "Ġintimate": 6604,
      "uce": 6605,
      "Ġacceler": 6606,
      "ĠIniti": 6607,
      "ourage": 6608,
      "Ġfirsthand": 6609,
      "Ġupdate": 6610,
      "Ġsuffering": 6611,
      "Ġinflammation": 6612,
      ".).": 6613,
      "Ġ<": 6614,
      "Ġmouth": 6615,
      "Ġrule": 6616,
      "Ġgent": 6617,
      "ĠRob": 6618,
      "Ġinterfaces": 6619,
      "Ġspect": 6620,
      "Ġautonomy": 6621,
      "Ġharmony": 6622,
      "ycle": 6623,
      "Ġobserv": 6624,
      "Ġpublished": 6625,
      "Ġvictims": 6626,
      "inity": 6627,
      "Ġreform": 6628,
      "olitical": 6629,
      "Ġcompris": 6630,
      "Ġsucceed": 6631,
      "Ġconsists": 6632,
      "ĠGra": 6633,
      "Ġnothing": 6634,
      "Ġentering": 6635,
      "Ġidentities": 6636,
      "rupt": 6637,
      "box": 6638,
      "ĠUtilize": 6639,
      "ham": 6640,
      "Ġcast": 6641,
      "ette": 6642,
      "oses": 6643,
      "antly": 6644,
      "Ġclar": 6645,
      "Ġachieved": 6646,
      "Ġfilter": 6647,
      "Ġraise": 6648,
      "Ġdisparate": 6649,
      "Ġcorrectly": 6650,
      "Ġhorizons": 6651,
      "ero": 6652,
      "Ġdone": 6653,
      "ocation": 6654,
      "ocol": 6655,
      "Ġintense": 6656,
      "apan": 6657,
      "encing": 6658,
      "ĠImagine": 6659,
      "Ġacknowledge": 6660,
      "Ġunfamiliar": 6661,
      "ĠSystems": 6662,
      "agram": 6663,
      "Ġads": 6664,
      "ĠFactors": 6665,
      "ĠGr": 6666,
      "ĠOur": 6667,
      "Ġlimiting": 6668,
      "Ġsustained": 6669,
      "ĠAppro": 6670,
      "Ġcaters": 6671,
      "Ġcompromise": 6672,
      "Ġtrauma": 6673,
      "Ġmanifest": 6674,
      "Ġpenalties": 6675,
      "Ġtrou": 6676,
      "arader": 6677,
      "ulties": 6678,
      "Ġforemost": 6679,
      "andom": 6680,
      "ĠPay": 6681,
      "ĠGovern": 6682,
      "Ġaccidents": 6683,
      "elfare": 6684,
      "ĠChina": 6685,
      "fortunately": 6686,
      "Ġadministrative": 6687,
      "ĠSuper": 6688,
      "Ġinventory": 6689,
      "araderie": 6690,
      "ET": 6691,
      "PC": 6692,
      "Ġtun": 6693,
      "Ġburn": 6694,
      "ĠDa": 6695,
      "Ġmotion": 6696,
      "word": 6697,
      "Ġeducators": 6698,
      "ĠAltern": 6699,
      "ĠSoft": 6700,
      "onym": 6701,
      "ĠTeam": 6702,
      "Ġdiscipline": 6703,
      "ĠEss": 6704,
      "30": 6705,
      "Effective": 6706,
      "eration": 6707,
      "raine": 6708,
      "Ġincons": 6709,
      "Ġtrain": 6710,
      "Ġscores": 6711,
      "Ġcardi": 6712,
      "pirit": 6713,
      "Ġoutcome": 6714,
      "Ġupdating": 6715,
      "Ġliterature": 6716,
      "Ġpicture": 6717,
      "Ġly": 6718,
      "Ġspl": 6719,
      "Ġrati": 6720,
      "ĠTake": 6721,
      "Ġweeks": 6722,
      "Ġclick": 6723,
      "Ġstandout": 6724,
      "Ġproperly": 6725,
      "Ġdowntime": 6726,
      "Ġmethodologies": 6727,
      "Ġadapting": 6728,
      "Ġviewing": 6729,
      "Ġcamaraderie": 6730,
      "Ġnuanced": 6731,
      "ĠPrior": 6732,
      "Ġfluctuations": 6733,
      "Ġtight": 6734,
      "Ġunderp": 6735,
      "Ġnoise": 6736,
      "Ġdepends": 6737,
      "Ġlawy": 6738,
      "Ġillness": 6739,
      "Ġembarking": 6740,
      "azon": 6741,
      "Ġlearned": 6742,
      "Ġexpressions": 6743,
      "Ġteachers": 6744,
      "Ġbanks": 6745,
      "Ġwillingness": 6746,
      "Ġprolong": 6747,
      "Let": 6748,
      "Press": 6749,
      "under": 6750,
      "Ġwelfare": 6751,
      "thern": 6752,
      "Ġcovering": 6753,
      "--------------------------------------------": 6754,
      "Ġraised": 6755,
      "Ġstarted": 6756,
      "Ġprioritizing": 6757,
      "Ġsummer": 6758,
      "etheless": 6759,
      "SA": 6760,
      "Ġsent": 6761,
      "acious": 6762,
      "Ġstones": 6763,
      "utter": 6764,
      "iforn": 6765,
      "ĠBre": 6766,
      "ĠLa": 6767,
      "Ġprotective": 6768,
      "Ġsocio": 6769,
      "Ġfrequency": 6770,
      "Ġdisputes": 6771,
      "Ġrace": 6772,
      "using": 6773,
      "ĠInformation": 6774,
      "Ġglobally": 6775,
      "Ġelectrical": 6776,
      "ĠBlack": 6777,
      "Ġattempts": 6778,
      "Ġbul": 6779,
      "Ġrendering": 6780,
      "ĠPal": 6781,
      "Ġpassing": 6782,
      "ĠArt": 6783,
      "cription": 6784,
      "Ġcandidate": 6785,
      "Ġremoval": 6786,
      "ĠFortunately": 6787,
      "Ġcannabis": 6788,
      "Ġ.": 6789,
      "onal": 6790,
      "Ġpure": 6791,
      "iling": 6792,
      "Ġlisting": 6793,
      "Ġupl": 6794,
      "ĠSa": 6795,
      "umph": 6796,
      "entials": 6797,
      "ĠJour": 6798,
      "ĠJapan": 6799,
      "Ġencaps": 6800,
      "ĠImpact": 6801,
      "Ġselected": 6802,
      "Ġlayout": 6803,
      "Ġdebates": 6804,
      "Ġ2023": 6805,
      "Ġobserved": 6806,
      "Ġadventures": 6807,
      "Ġagreement": 6808,
      "Ġmissing": 6809,
      "Ġtranscends": 6810,
      "iable": 6811,
      "Ġfish": 6812,
      "Ġrever": 6813,
      "Ġrewarding": 6814,
      "ett": 6815,
      "ching": 6816,
      "ĠRo": 6817,
      "Ġparad": 6818,
      "ulty": 6819,
      "Ġsoon": 6820,
      "ĠSupport": 6821,
      "Ġindependently": 6822,
      "Ġproactively": 6823,
      "Ġventure": 6824,
      "Ġschemes": 6825,
      "Ġhurdles": 6826,
      "\\_": 6827,
      "bur": 6828,
      "Ġring": 6829,
      "Ġattitudes": 6830,
      "ĠDay": 6831,
      "Ġdispos": 6832,
      "Ġinsu": 6833,
      "Ġdiscl": 6834,
      "Ġpersistent": 6835,
      "Ġdecor": 6836,
      "Ġmood": 6837,
      "atching": 6838,
      "text": 6839,
      "ĠMedia": 6840,
      "Ġexchanges": 6841,
      "rolog": 6842,
      "Ġdisruptions": 6843,
      "hyth": 6844,
      "ĠMusic": 6845,
      "ĠHuman": 6846,
      "Ġcasual": 6847,
      "Ġneighborhood": 6848,
      "Al": 6849,
      "pts": 6850,
      "Ġdouble": 6851,
      "Ġultimate": 6852,
      "Ġplug": 6853,
      "Ġju": 6854,
      "ommun": 6855,
      "ĠWithin": 6856,
      "Ġbright": 6857,
      "Ġdrives": 6858,
      "Ġpurchases": 6859,
      "Ġindicating": 6860,
      "Ġcelebration": 6861,
      "Ġnecessitate": 6862,
      "Ġcoordination": 6863,
      "Ġvigilant": 6864,
      "BT": 6865,
      "IN": 6866,
      "Sec": 6867,
      "etes": 6868,
      "Ġimaging": 6869,
      "ĠPost": 6870,
      "Ġsegment": 6871,
      "Ġunlike": 6872,
      "Ġclo": 6873,
      "cont": 6874,
      "ĠEnergy": 6875,
      "Ġinfluential": 6876,
      "author": 6877,
      "ĠTrump": 6878,
      "Ġmindfulness": 6879,
      "Ġacquiring": 6880,
      "Ġmiscon": 6881,
      "ĠCaliforn": 6882,
      "Ġdiscrimination": 6883,
      "Is": 6884,
      "sue": 6885,
      "Ġtear": 6886,
      "Ġcin": 6887,
      "Ġster": 6888,
      "Ġgif": 6889,
      "ĠBased": 6890,
      "estled": 6891,
      "Ġobtaining": 6892,
      "Ġzones": 6893,
      "BC": 6894,
      "bly": 6895,
      "falls": 6896,
      "Ġpict": 6897,
      "ama": 6898,
      "Ġcompletion": 6899,
      "Ġearning": 6900,
      "Ġnecessarily": 6901,
      "Ġutilized": 6902,
      "Ġwrong": 6903,
      "Ġgroundbreaking": 6904,
      "ĠControl": 6905,
      "Ġadministrators": 6906,
      "Ġepis": 6907,
      "Ġtitles": 6908,
      "Ġcamera": 6909,
      "Ġice": 6910,
      "iders": 6911,
      "keep": 6912,
      "ĠBible": 6913,
      "Ġintros": 6914,
      "ĠDoc": 6915,
      "Inter": 6916,
      "Ġtypical": 6917,
      "ĠAmazon": 6918,
      "Ġcontinuity": 6919,
      "Ġcurrency": 6920,
      "estingly": 6921,
      "Ġpsychology": 6922,
      "Ġadvocate": 6923,
      "ĠEnglish": 6924,
      "ĠParticip": 6925,
      "Ġproposed": 6926,
      "Ġdiagnostic": 6927,
      "Ġintentional": 6928,
      "Ġfemale": 6929,
      "Ġign": 6930,
      "Ġbust": 6931,
      "state": 6932,
      "Ġnative": 6933,
      "ĠWill": 6934,
      "ĠEth": 6935,
      "Ġroots": 6936,
      "Ġfeet": 6937,
      "------------------------": 6938,
      "Ġ16": 6939,
      "Ġgenre": 6940,
      "Ġsurger": 6941,
      "Ġlifelong": 6942,
      "Ġmonthly": 6943,
      "Ġdatas": 6944,
      "Ġdifficulties": 6945,
      "Ġallocate": 6946,
      "Ġbattery": 6947,
      "Ġhazards": 6948,
      "ker": 6949,
      "Ġsay": 6950,
      "Ġsnow": 6951,
      "ided": 6952,
      "ĠPat": 6953,
      "Ġexplored": 6954,
      "Ġcontributed": 6955,
      "Ġspeaks": 6956,
      "Ġfrequent": 6957,
      "Ġenterprise": 6958,
      "htt": 6959,
      "Ġmoisture": 6960,
      "Ac": 6961,
      "icks": 6962,
      "ĠTur": 6963,
      "ĠBel": 6964,
      "ĠMc": 6965,
      "Ġdism": 6966,
      "Ġperceptions": 6967,
      "ĠChallen": 6968,
      "Ġcriticism": 6969,
      "ĠThroughout": 6970,
      "Ġtriumph": 6971,
      "Ġfewer": 6972,
      "Ġuniversities": 6973,
      "Ġattracting": 6974,
      "Ġrecipes": 6975,
      "Ġmanufacturer": 6976,
      "Ġcontrolling": 6977,
      "Ġkitchen": 6978,
      "gue": 6979,
      "racy": 6980,
      "ws": 6981,
      "Ġsand": 6982,
      "Ġod": 6983,
      "Ġgive": 6984,
      "ĠSpirit": 6985,
      "riage": 6986,
      "Ġaccep": 6987,
      "ĠBrand": 6988,
      "Ġsea": 6989,
      "ĠWest": 6990,
      "exts": 6991,
      "Ġdrawn": 6992,
      "Ġmechanical": 6993,
      "Ġworthy": 6994,
      "Ġ198": 6995,
      "Ġfeatured": 6996,
      "ĠIsra": 6997,
      "Ġsharp": 6998,
      "Ġfraud": 6999,
      "16": 7000,
      "pond": 7001,
      "Ġcame": 7002,
      "Ġcuis": 7003,
      "Ġfru": 7004,
      "Ġadhere": 7005,
      "ĠMr": 7006,
      "Ġliability": 7007,
      "Ġrelies": 7008,
      "Ġdesignated": 7009,
      "efined": 7010,
      "Ġautomotive": 7011,
      "Ġhotel": 7012,
      "Ġnutrition": 7013,
      "Ġanswer": 7014,
      "Ġscript": 7015,
      "Ġprofitability": 7016,
      "fers": 7017,
      "ica": 7018,
      "urious": 7019,
      "igen": 7020,
      "Ġstrain": 7021,
      "Ġforec": 7022,
      "iform": 7023,
      "Ġcoffee": 7024,
      "Ġnavigation": 7025,
      "Ġscenes": 7026,
      "Ġgrounded": 7027,
      "Ġsafeguard": 7028,
      "Ġinsufficient": 7029,
      "authorized": 7030,
      "Ġpictures": 7031,
      "Â°": 7032,
      "alities": 7033,
      "Ġtheory": 7034,
      "anging": 7035,
      "Ġben": 7036,
      "Ġhing": 7037,
      "osit": 7038,
      "veloper": 7039,
      "ĠRet": 7040,
      "ĠLim": 7041,
      "Ġgenres": 7042,
      "Ġdetect": 7043,
      "Ġpressures": 7044,
      "Ġstewards": 7045,
      "Ġduration": 7046,
      "Ġuniversal": 7047,
      "Ġfulfillment": 7048,
      "Ġgentle": 7049,
      "ĠCalifornia": 7050,
      "DF": 7051,
      "disc": 7052,
      "rants": 7053,
      "Ġdoll": 7054,
      "Ġwise": 7055,
      "ulent": 7056,
      "Ġnet": 7057,
      "owder": 7058,
      "Ġinterior": 7059,
      "ĠGerm": 7060,
      "Ġrecyc": 7061,
      "ĠAnalysis": 7062,
      "ootball": 7063,
      "Ġrepresentatives": 7064,
      "Ġembed": 7065,
      "Ġdamages": 7066,
      "ascular": 7067,
      "Ġdestinations": 7068,
      "ĠLeveraging": 7069,
      "Ġdisplays": 7070,
      "Ġdoub": 7071,
      "Ġhub": 7072,
      "amic": 7073,
      "umin": 7074,
      "ĠPot": 7075,
      "ĠDri": 7076,
      "ept": 7077,
      "ĠLink": 7078,
      "Ġsurprise": 7079,
      "Ġguest": 7080,
      "Ġresponsive": 7081,
      "####": 7082,
      "Ġvolati": 7083,
      "ĠCommunity": 7084,
      "Ġcharming": 7085,
      "Ġties": 7086,
      "Ġtum": 7087,
      "Ġpul": 7088,
      "isions": 7089,
      "arn": 7090,
      "Ġreass": 7091,
      "Ġstret": 7092,
      "Ġgems": 7093,
      "Ġcomparing": 7094,
      "ĠMal": 7095,
      "Ġcream": 7096,
      "Ġscope": 7097,
      "Ġseeks": 7098,
      "Ġearth": 7099,
      "Ġdriven": 7100,
      "Ġfunctioning": 7101,
      "Ġfairness": 7102,
      "Ġscalability": 7103,
      "ĠRussia": 7104,
      "oors": 7105,
      "Ġsanc": 7106,
      "ara": 7107,
      "Ġmath": 7108,
      "ĠAnother": 7109,
      "Ġabstr": 7110,
      "enefits": 7111,
      "Ġinfection": 7112,
      "Ġsolace": 7113,
      "Ġsupported": 7114,
      "Ġdefined": 7115,
      "Ġmechanism": 7116,
      "Ġpainting": 7117,
      "Ġfailures": 7118,
      "Ġsimplicity": 7119,
      "ponding": 7120,
      "ĠModern": 7121,
      "40": 7122,
      "Ġbirth": 7123,
      "Ġretire": 7124,
      "asy": 7125,
      "ĠFound": 7126,
      "obal": 7127,
      "Ġversus": 7128,
      "------------------------------------": 7129,
      "Ġfoods": 7130,
      "Ġjudgment": 7131,
      "ĠEvalu": 7132,
      "Ġincredible": 7133,
      "SO": 7134,
      "ients": 7135,
      "Ġstated": 7136,
      "ĠWestern": 7137,
      "rome": 7138,
      "Ġunauthorized": 7139,
      "ĠHIV": 7140,
      "Ġtraders": 7141,
      "ricket": 7142,
      "Ġsurroundings": 7143,
      "Ġviewpoints": 7144,
      "Ġvariables": 7145,
      "Ġdebate": 7146,
      "Ġhyper": 7147,
      "Ġtransparent": 7148,
      "istered": 7149,
      "Ġmastery": 7150,
      "Ġdecreased": 7151,
      "PU": 7152,
      "dden": 7153,
      "Ġcos": 7154,
      "Ġfruit": 7155,
      "edia": 7156,
      "Ġprovision": 7157,
      "ĠSen": 7158,
      "ĠBas": 7159,
      "ĠPr": 7160,
      "ĠFocus": 7161,
      "ĠWell": 7162,
      "ĠLocal": 7163,
      "ĠNe": 7164,
      "Ġmedication": 7165,
      "Ġdistance": 7166,
      "Ġgoing": 7167,
      "Ġsupporters": 7168,
      "Ġbegins": 7169,
      "Ġparameters": 7170,
      "Ġcounseling": 7171,
      "Ġtexts": 7172,
      "Cl": 7173,
      "drop": 7174,
      "ij": 7175,
      "yth": 7176,
      "Ġx": 7177,
      "step": 7178,
      "Ġgives": 7179,
      "Ġcontexts": 7180,
      "Ġparent": 7181,
      "Ġtransit": 7182,
      "Ġtransaction": 7183,
      "Ġconcrete": 7184,
      "Ġorganizing": 7185,
      "Ġgatherings": 7186,
      "Ġcontrolled": 7187,
      "Ġcodes": 7188,
      "Ġgun": 7189,
      "odc": 7190,
      "ested": 7191,
      "Ġconsulting": 7192,
      "Ġundergo": 7193,
      "Ġexplain": 7194,
      "Ġsett": 7195,
      "ĠKing": 7196,
      "Ġhumility": 7197,
      "Ġhumble": 7198,
      "ĠEnh": 7199,
      "Through": 7200,
      "Ġappropriately": 7201,
      "Ġtherapies": 7202,
      "ĠRespons": 7203,
      "Ġrenewable": 7204,
      "ĠUkraine": 7205,
      "otic": 7206,
      "ints": 7207,
      "Ġsin": 7208,
      "elp": 7209,
      "Ġstores": 7210,
      "ĠTex": 7211,
      "Ġitem": 7212,
      "Ġunpre": 7213,
      "ĠDo": 7214,
      "Ġsudden": 7215,
      "Ġperception": 7216,
      "Ġpolice": 7217,
      "Ġfacility": 7218,
      "Ġpursue": 7219,
      "Ġ2015": 7220,
      "Ġpoised": 7221,
      "ĠBefore": 7222,
      "Ġnegatively": 7223,
      "Ġdomin": 7224,
      "Ġecosystems": 7225,
      "Ġlibraries": 7226,
      "ĠPerformance": 7227,
      "We": 7228,
      "uff": 7229,
      "Ġprob": 7230,
      "Ġopting": 7231,
      "Ġbug": 7232,
      "Ġsystemic": 7233,
      "Ġfloor": 7234,
      "Ġimmun": 7235,
      "There": 7236,
      "Ġevident": 7237,
      "Ġstruggling": 7238,
      "Ġattorney": 7239,
      "SM": 7240,
      "Ġtick": 7241,
      "Ġrhyth": 7242,
      "ĠCour": 7243,
      "Ġimpress": 7244,
      "ĠLife": 7245,
      "Ġassured": 7246,
      "ĠStand": 7247,
      "Ġconfront": 7248,
      "Ġfilters": 7249,
      "ruption": 7250,
      "Ġenterprises": 7251,
      "year": 7252,
      "rees": 7253,
      "eting": 7254,
      "ĠMary": 7255,
      "Ġtraction": 7256,
      "aven": 7257,
      "ĠOper": 7258,
      "Ġsetbacks": 7259,
      "ĠForm": 7260,
      "Ġworkplace": 7261,
      "Ġpartnering": 7262,
      "Ġfoundational": 7263,
      "Ġevidenced": 7264,
      "Ġexpanded": 7265,
      "Ġmachinery": 7266,
      "Ġdurable": 7267,
      "Ġingredient": 7268,
      "Ġbaseball": 7269,
      "Ġfamiliarity": 7270,
      "Ġarticles": 7271,
      "Ġdemographic": 7272,
      "Ġperpetu": 7273,
      "otypes": 7274,
      "Ġreminisc": 7275,
      "CE": 7276,
      "Col": 7277,
      "riting": 7278,
      "reast": 7279,
      "Ġdro": 7280,
      "Ġstere": 7281,
      "ĠHol": 7282,
      "Ġconcise": 7283,
      "Ġcontinually": 7284,
      "Ġeste": 7285,
      "Ġaiming": 7286,
      "Ġcollecting": 7287,
      "Ġcollections": 7288,
      "Ġ2014": 7289,
      "apping": 7290,
      "Ġinstitutional": 7291,
      "Ġelection": 7292,
      "urrent": 7293,
      "Ġqualified": 7294,
      "Ġsolidifying": 7295,
      "Ġauthentication": 7296,
      "Ġenthusiasm": 7297,
      "Ġproposition": 7298,
      "Ġgrappling": 7299,
      "ĠCBD": 7300,
      "Ġcheese": 7301,
      "Ġrock": 7302,
      "ona": 7303,
      "ĠMich": 7304,
      "Ġremove": 7305,
      "alse": 7306,
      "Ġdiscrep": 7307,
      "Ġ11": 7308,
      "embly": 7309,
      "Ġworkforce": 7310,
      "Ġcoach": 7311,
      "ĠTraditional": 7312,
      "Ġencountered": 7313,
      "Ġluxurious": 7314,
      "Ġattorneys": 7315,
      "cohol": 7316,
      "Ġsen": 7317,
      "Ġinequ": 7318,
      "Ġnamed": 7319,
      "Ġgri": 7320,
      "Ġgrand": 7321,
      "Ġadorn": 7322,
      "Ġdesk": 7323,
      "Ġsignifies": 7324,
      "netic": 7325,
      "essional": 7326,
      "Ġobject": 7327,
      "Ġbeginning": 7328,
      "ĠEarth": 7329,
      "entralized": 7330,
      "De": 7331,
      "IP": 7332,
      "Man": 7333,
      "dens": 7334,
      "puts": 7335,
      "Ġtoler": 7336,
      "omb": 7337,
      "eles": 7338,
      "Ġforg": 7339,
      "ĠSan": 7340,
      "ĠSign": 7341,
      "plications": 7342,
      "ĠWind": 7343,
      "ĠHR": 7344,
      "Ġstrategically": 7345,
      "Ġoperators": 7346,
      "Ġcommitting": 7347,
      "ĠClub": 7348,
      "Ġrapport": 7349,
      "Ġexecuting": 7350,
      "Ġcontempl": 7351,
      "Ġemails": 7352,
      "ĠEmbrace": 7353,
      "Ġregistration": 7354,
      "Ġworkflows": 7355,
      "Ġprosperity": 7356,
      "18": 7357,
      "iology": 7358,
      "tier": 7359,
      "Ġpick": 7360,
      "otes": 7361,
      "Ġchains": 7362,
      "uster": 7363,
      "ĠVer": 7364,
      "tigious": 7365,
      "ĠInstagram": 7366,
      "Ġdrawbacks": 7367,
      "Ġmomentum": 7368,
      "ĠWordPress": 7369,
      "ĠImportance": 7370,
      "front": 7371,
      "ictions": 7372,
      "stones": 7373,
      "omy": 7374,
      "Ġlists": 7375,
      "abetes": 7376,
      "ĠIde": 7377,
      "Ġquarter": 7378,
      "Ġsurge": 7379,
      "Ġearrings": 7380,
      "Ġphysically": 7381,
      "cedented": 7382,
      "Ġpresentation": 7383,
      "Ġpolitic": 7384,
      "Ġglobe": 7385,
      "Ġsubstance": 7386,
      "Ġaccompanied": 7387,
      "Ġgauge": 7388,
      "Ġunprecedented": 7389,
      "25": 7390,
      "found": 7391,
      "Ġske": 7392,
      "Ġdates": 7393,
      "Ġmac": 7394,
      "Ġborders": 7395,
      "ership": 7396,
      "ĠTogether": 7397,
      "empt": 7398,
      "Ġboast": 7399,
      "ĠNiger": 7400,
      "Ġcritics": 7401,
      "Ġenjoyable": 7402,
      "Ġstreamlining": 7403,
      "intage": 7404,
      "Ġrevealing": 7405,
      "Ġeffortlessly": 7406,
      "Ġdissem": 7407,
      "Ġpromotional": 7408,
      "Ġdiamonds": 7409,
      "Ġeligibility": 7410,
      "ĠSecondly": 7411,
      "Ġprevalent": 7412,
      "SL": 7413,
      "wood": 7414,
      "Ġ{": 7415,
      "Ġrac": 7416,
      "ĠSun": 7417,
      "Ġcha": 7418,
      "Ġleaves": 7419,
      "ĠInf": 7420,
      "Ġprestigious": 7421,
      "Ġmarketplace": 7422,
      "Ġdeliber": 7423,
      "Ġfaces": 7424,
      "obile": 7425,
      "icken": 7426,
      "Ġdriver": 7427,
      "Ġsafely": 7428,
      "Ġconstitute": 7429,
      "Ġcapitalize": 7430,
      "Ġdin": 7431,
      "Ġbow": 7432,
      "Ġretain": 7433,
      "Ġcoming": 7434,
      "chron": 7435,
      "ĠPak": 7436,
      "Ġhighest": 7437,
      "Ġagric": 7438,
      "Ġcompleting": 7439,
      "Ġcontinuously": 7440,
      "Ġkeeps": 7441,
      "Ġsummar": 7442,
      "Ġmotivations": 7443,
      "Ġchecking": 7444,
      "Ġcomplementary": 7445,
      "Ġbelonging": 7446,
      "ĠRelations": 7447,
      "ĠNonetheless": 7448,
      "ĠScience": 7449,
      "Ġmortgage": 7450,
      "Ġportfolio": 7451,
      "Ġesteemed": 7452,
      "13": 7453,
      "CT": 7454,
      "RP": 7455,
      "ractions": 7456,
      "Ġtherm": 7457,
      "umps": 7458,
      "Ġplants": 7459,
      "Ġabreast": 7460,
      "Ġdesirable": 7461,
      "ĠAdop": 7462,
      "ĠStar": 7463,
      "Ġediting": 7464,
      "Ġcoast": 7465,
      "Ġconfusion": 7466,
      "Ġstreams": 7467,
      "Ġtextures": 7468,
      "Ġcredentials": 7469,
      "rime": 7470,
      "Ġpursuits": 7471,
      "Ġsheds": 7472,
      "ĠFollowing": 7473,
      "ĠAvoid": 7474,
      "Ġtastes": 7475,
      "Ġclothing": 7476,
      "Ġembedded": 7477,
      "pse": 7478,
      "alg": 7479,
      "iture": 7480,
      "itarian": 7481,
      "Ġtheore": 7482,
      "Ġleague": 7483,
      "ĠFootball": 7484,
      "Ġplacing": 7485,
      "Ġimpacting": 7486,
      "Ġprompting": 7487,
      "Ġsoccer": 7488,
      "Ġintegrate": 7489,
      "Ġsteep": 7490,
      "ĠFinancial": 7491,
      "()": 7492,
      "Tr": 7493,
      "ka": 7494,
      "mers": 7495,
      "Ġfurn": 7496,
      "Ġmic": 7497,
      "agon": 7498,
      "Ġfeas": 7499,
      "Ġ24": 7500,
      "ĠEnviron": 7501,
      "ĠExp": 7502,
      "Ġshaped": 7503,
      "Ġresilient": 7504,
      "Ġ197": 7505,
      "ĠPlatform": 7506,
      "ĠReview": 7507,
      "Ġyounger": 7508,
      "Ġelectron": 7509,
      "Ġcybersecurity": 7510,
      "Ġlibrary": 7511,
      "Ġdelightful": 7512,
      "Ġhearts": 7513,
      "made": 7514,
      "Ġaging": 7515,
      "Ġreap": 7516,
      "Ġcomment": 7517,
      "ado": 7518,
      "unt": 7519,
      "Ġarising": 7520,
      "ologists": 7521,
      "Ġaccident": 7522,
      "Ġtransformed": 7523,
      "Ġengineers": 7524,
      "Ġverify": 7525,
      "Ġinvestigations": 7526,
      "Ġwinning": 7527,
      "Ġbrowsing": 7528,
      "Ġtranslate": 7529,
      "Ġwriters": 7530,
      "kers": 7531,
      "Ġbacter": 7532,
      "ulates": 7533,
      "Ġstars": 7534,
      "Ġbear": 7535,
      "ĠID": 7536,
      "ĠDist": 7537,
      "Ġpreced": 7538,
      "Ġmaintains": 7539,
      "Ġseverity": 7540,
      "Ġhistoric": 7541,
      "Ġachievement": 7542,
      "Ġradio": 7543,
      "Ġcouples": 7544,
      "Ġliquid": 7545,
      "Ġvictory": 7546,
      "Ġmolecular": 7547,
      "Ġglimpse": 7548,
      "ae": 7549,
      "gener": 7550,
      "iam": 7551,
      "night": 7552,
      "tw": 7553,
      "Ġtends": 7554,
      "erning": 7555,
      "Ġmoun": 7556,
      "Ġbus": 7557,
      "Ġrooms": 7558,
      "Ġqueries": 7559,
      "Ġtherefore": 7560,
      "Ġbran": 7561,
      "Ġhygi": 7562,
      "ĠContent": 7563,
      "ĠEngine": 7564,
      "Ġvacation": 7565,
      "ĠCentral": 7566,
      "Ġbillion": 7567,
      "Ġmilestones": 7568,
      "Ġincentives": 7569,
      "Ġprolonged": 7570,
      "Ġstewardship": 7571,
      "lds": 7572,
      "rogen": 7573,
      "olid": 7574,
      "illa": 7575,
      "Ġuniform": 7576,
      "Ġphr": 7577,
      "Ġfilms": 7578,
      "Ġscientists": 7579,
      "Ġaccommodations": 7580,
      "Ġcrises": 7581,
      "Ġinstruments": 7582,
      "ĠRecognizing": 7583,
      "ĠLearning": 7584,
      "ĠPakistan": 7585,
      "'.": 7586,
      "RL": 7587,
      "lace": 7588,
      "uary": 7589,
      "Ġped": 7590,
      "Ġplain": 7591,
      "ĠOther": 7592,
      "Ġscar": 7593,
      "Ġadvis": 7594,
      "Ġexpensive": 7595,
      "portion": 7596,
      "Ġearned": 7597,
      "Ġprevents": 7598,
      "holder": 7599,
      "Ġinvites": 7600,
      "Ġnaturally": 7601,
      "Ġtrials": 7602,
      "Ġexpressing": 7603,
      "Ġexperimentation": 7604,
      "profit": 7605,
      "ĠExperience": 7606,
      "Ġconferences": 7607,
      "marks": 7608,
      "Ġisolation": 7609,
      "Ġdogs": 7610,
      "Ġordinary": 7611,
      "14": 7612,
      "Ar": 7613,
      "Script": 7614,
      "Un": 7615,
      "eded": 7616,
      "Ġproxim": 7617,
      "uclear": 7618,
      "users": 7619,
      "ĠCamp": 7620,
      "Ġpersist": 7621,
      "artment": 7622,
      "Ġvisits": 7623,
      "Ġopenness": 7624,
      "Ġmeasuring": 7625,
      "Ġmentions": 7626,
      "Ġwaves": 7627,
      "Ġstarters": 7628,
      "Ġcorresponding": 7629,
      "Ġdiligent": 7630,
      "ĠAddressing": 7631,
      "ĠSafety": 7632,
      "Ġcuisine": 7633,
      "igenous": 7634,
      "FA": 7635,
      "Fi": 7636,
      "Reg": 7637,
      "na": 7638,
      "tor": 7639,
      "ari": 7640,
      "Ġdual": 7641,
      "oma": 7642,
      "Ġhers": 7643,
      "ĠBack": 7644,
      "ĠFost": 7645,
      "istant": 7646,
      "Ġpride": 7647,
      "ĠEqu": 7648,
      "Ġdiscerning": 7649,
      "Ġindex": 7650,
      "Ġconfidently": 7651,
      "Ġcompromising": 7652,
      "ĠMaintain": 7653,
      "Ġlabel": 7654,
      "Ġlegislation": 7655,
      "ritish": 7656,
      "ĠDirect": 7657,
      "Ġupholding": 7658,
      "ino": 7659,
      "titive": 7660,
      "Ġthread": 7661,
      "Ġrain": 7662,
      "Ġvess": 7663,
      "Ġacid": 7664,
      "ĠOpportun": 7665,
      "ionship": 7666,
      "ergies": 7667,
      "Ġrealistic": 7668,
      "Ġdefining": 7669,
      "Ġ2013": 7670,
      "Ġplacement": 7671,
      "Ġactionable": 7672,
      "Ġviable": 7673,
      "Ġprocedure": 7674,
      "Ġhappiness": 7675,
      "Ġdeployment": 7676,
      "ught": 7677,
      "ĠAfrican": 7678,
      "Consider": 7679,
      "ago": 7680,
      "osity": 7681,
      "Ġappar": 7682,
      "ĠHy": 7683,
      "ĠHot": 7684,
      "Ġcozy": 7685,
      "Ġoperates": 7686,
      "Ġcurated": 7687,
      "Ġconstitu": 7688,
      "ĠConsiderations": 7689,
      "Ġmuscles": 7690,
      "Ġintersection": 7691,
      "ĠAutom": 7692,
      "Ġrankings": 7693,
      "Ġsocioeconomic": 7694,
      "aS": 7695,
      "yle": 7696,
      "Ġpodc": 7697,
      "cean": 7698,
      "Ġabund": 7699,
      "Ġstreaming": 7700,
      "Ġtrial": 7701,
      "Ġreference": 7702,
      "Ġwinter": 7703,
      "Ġcompatible": 7704,
      "Ġimmerse": 7705,
      "Ġresidential": 7706,
      "Ġanticipate": 7707,
      "Ġartistry": 7708,
      "Ġtrigger": 7709,
      "quisite": 7710,
      "ĠAustral": 7711,
      "Ġprinciple": 7712,
      "Ġyields": 7713,
      "Ġdeveloper": 7714,
      "ĠMor": 7715,
      "Ġconsent": 7716,
      "Ġhelpful": 7717,
      "Ġ100": 7718,
      "ĠKore": 7719,
      "Ġconfron": 7720,
      "Ġdietary": 7721,
      "Ġauthors": 7722,
      "Ġenjoyment": 7723,
      "ĠClass": 7724,
      "ketball": 7725,
      "Ġenriching": 7726,
      "Ġeliminating": 7727,
      "Ġaccomplishments": 7728,
      "Ġintrospection": 7729,
      "ython": 7730,
      "RA": 7731,
      "RC": 7732,
      "fit": 7733,
      "Ġrental": 7734,
      "Ġparalle": 7735,
      "ĠStart": 7736,
      "Ġdiet": 7737,
      "Ġcritically": 7738,
      "Ġcollected": 7739,
      "Ġelections": 7740,
      "Ġsatisfying": 7741,
      "Ġexposed": 7742,
      "Ġcollectively": 7743,
      "Ġdiagnosis": 7744,
      "ĠCommunication": 7745,
      "Ġhypo": 7746,
      "Ġherself": 7747,
      "tific": 7748,
      "Ġfestiv": 7749,
      "lements": 7750,
      "Ġric": 7751,
      "ĠBritish": 7752,
      "ĠHome": 7753,
      "geoning": 7754,
      "ĠAdminist": 7755,
      "Ġcovers": 7756,
      "ĠApple": 7757,
      "ĠTechniques": 7758,
      "ĠLeague": 7759,
      "Ġmoral": 7760,
      "Ġremoving": 7761,
      "Ġdrugs": 7762,
      "Ġincredibly": 7763,
      "Ġunwanted": 7764,
      "Ġtheoretical": 7765,
      "lers": 7766,
      "medi": 7767,
      "Ġharsh": 7768,
      "ida": 7769,
      "ĠCost": 7770,
      "Ġcompact": 7771,
      "Ġneut": 7772,
      "Ġmoves": 7773,
      "Ġsurgical": 7774,
      "Ġcompleted": 7775,
      "Ġblending": 7776,
      "Ġsupplement": 7777,
      "Ġmeaningfully": 7778,
      "Ġorigins": 7779,
      "Ġpathways": 7780,
      "Ġgreatly": 7781,
      "ĠSupp": 7782,
      "Ġburgeoning": 7783,
      "ĠComb": 7784,
      "offs": 7785,
      "Ġwelcoming": 7786,
      "Ġvoters": 7787,
      "Ġsurvival": 7788,
      "Ġofficers": 7789,
      "Acc": 7790,
      "bed": 7791,
      "market": 7792,
      "ns": 7793,
      "erved": 7794,
      "idence": 7795,
      "Ġstre": 7796,
      "igned": 7797,
      "ĠHouse": 7798,
      "Ġspend": 7799,
      "Ġinstill": 7800,
      "Ġcapturing": 7801,
      "Ġknows": 7802,
      "Ġvisible": 7803,
      "ierarch": 7804,
      "ĠConsult": 7805,
      "Ġorigin": 7806,
      "ĠApplying": 7807,
      "Ġjobs": 7808,
      "Ġpackaging": 7809,
      "Ġcataly": 7810,
      "ĠMonitor": 7811,
      "Ġcompassionate": 7812,
      "Ġoversight": 7813,
      "ĠEnsuring": 7814,
      "Ġgraphics": 7815,
      "Ġdescription": 7816,
      "onials": 7817,
      "ĠNetwork": 7818,
      "ĠAlternatively": 7819,
      "onymous": 7820,
      "can": 7821,
      "cil": 7822,
      "dem": 7823,
      "gon": 7824,
      "men": 7825,
      "uge": 7826,
      "Ġstic": 7827,
      "Ġbot": 7828,
      "Ġgast": 7829,
      "Ġadmin": 7830,
      "ĠPers": 7831,
      "Ġdesires": 7832,
      "volving": 7833,
      "Ġaccounting": 7834,
      "Ġ13": 7835,
      "Ġsubstances": 7836,
      "Ġadjusting": 7837,
      "umptions": 7838,
      "Ġopposing": 7839,
      "Ġreplacement": 7840,
      "Ġpitfalls": 7841,
      "IM": 7842,
      "Ġ/": 7843,
      "Ġcoin": 7844,
      "Ġpu": 7845,
      "Ġwish": 7846,
      "Ġhes": 7847,
      "Ġul": 7848,
      "amily": 7849,
      "Ġopens": 7850,
      "Ġmodes": 7851,
      "ointing": 7852,
      "Ġmonetary": 7853,
      "Ġhomeown": 7854,
      "Ġprivile": 7855,
      "ĠIndust": 7856,
      "Ġevaluations": 7857,
      "Ġartwork": 7858,
      "Ġelectric": 7859,
      "Ġpassionate": 7860,
      "ĠAfrica": 7861,
      "Ġcrystal": 7862,
      "Ġreminiscent": 7863,
      "vent": 7864,
      "Ġdress": 7865,
      "Ġbath": 7866,
      "imming": 7867,
      "Ġproves": 7868,
      "Ġrent": 7869,
      "aby": 7870,
      "Ġalloy": 7871,
      "Ġspots": 7872,
      "Ġpotent": 7873,
      "yses": 7874,
      "ician": 7875,
      "Ġchildhood": 7876,
      "Ġimplies": 7877,
      "Ġ50": 7878,
      "Ġreligion": 7879,
      "Ġopposition": 7880,
      "Ġwindow": 7881,
      "Ġreasonable": 7882,
      "Ġsophistication": 7883,
      "Ġmixed": 7884,
      "Ġbolstering": 7885,
      "17": 7886,
      "RO": 7887,
      "mark": 7888,
      "Ġbit": 7889,
      "Ġplastic": 7890,
      "weight": 7891,
      "ĠChild": 7892,
      "Ġaddressed": 7893,
      "Ġminimum": 7894,
      "Ġaffects": 7895,
      "Ġguided": 7896,
      "Ġprogressive": 7897,
      "Ġsecurely": 7898,
      "Ġ2022": 7899,
      "Ġbeautifully": 7900,
      "Ġfixed": 7901,
      "Ġsourced": 7902,
      "ĠPrioritiz": 7903,
      "iro": 7904,
      "Ġpace": 7905,
      "Ġlosing": 7906,
      "ĠSal": 7907,
      "ĠCa": 7908,
      "plan": 7909,
      "Ġcompounds": 7910,
      "ĠII": 7911,
      "ĠMid": 7912,
      "ĠRequ": 7913,
      "Ġspons": 7914,
      "Ġrecording": 7915,
      "ĠNavigating": 7916,
      "away": 7917,
      "ĠUnfortunately": 7918,
      "Ġaccountable": 7919,
      "Ġdiscovering": 7920,
      "Ġdistributed": 7921,
      "ĠFamiliarize": 7922,
      "Ġrecruitment": 7923,
      "ĠIsrael": 7924,
      "NS": 7925,
      "gering": 7926,
      "Ġcues": 7927,
      "itals": 7928,
      "atric": 7929,
      "ĠSpecial": 7930,
      "Ġalcohol": 7931,
      "check": 7932,
      "Ġ(\"": 7933,
      "ĠHim": 7934,
      "ĠLo": 7935,
      "ĠNow": 7936,
      "Ġquanti": 7937,
      "Ġdecl": 7938,
      "Ġevolved": 7939,
      "azz": 7940,
      "Ġexecutive": 7941,
      "itigation": 7942,
      "ĠSoftware": 7943,
      "Ġgifts": 7944,
      "Ġhinges": 7945,
      "Ġcab": 7946,
      "anqu": 7947,
      "Ġbio": 7948,
      "Ġstain": 7949,
      "Ġstems": 7950,
      "unk": 7951,
      "pliance": 7952,
      "apt": 7953,
      "Ġimpar": 7954,
      "ĠEU": 7955,
      "Ġexplan": 7956,
      "ysical": 7957,
      "Ġanalysts": 7958,
      "Ġranks": 7959,
      "Ġburden": 7960,
      "Ġsymbols": 7961,
      "ĠPriv": 7962,
      "Ġmistakes": 7963,
      "Ġpicturesque": 7964,
      "AA": 7965,
      "gy": 7966,
      "iation": 7967,
      "rest": 7968,
      "aser": 7969,
      "Ġcong": 7970,
      "Ġasking": 7971,
      "ĠHistor": 7972,
      "ĠDiv": 7973,
      "Ġaband": 7974,
      "atigue": 7975,
      "Ġmeat": 7976,
      "Ġrepairs": 7977,
      "rehensive": 7978,
      "Ġstatistical": 7979,
      "Ġkeyword": 7980,
      "Ġannouncement": 7981,
      "Ġromantic": 7982,
      "Ġdatasets": 7983,
      "pass": 7984,
      "uk": 7985,
      "abs": 7986,
      "ĠSou": 7987,
      "Ġacting": 7988,
      "umen": 7989,
      "ensus": 7990,
      "Ġdisorder": 7991,
      "Ġsignaling": 7992,
      "Ġassumptions": 7993,
      "Ġnoted": 7994,
      "Ġunderstands": 7995,
      "Ġcombinations": 7996,
      "Ġspeakers": 7997,
      "Ġexpressed": 7998,
      "Ġtaxes": 7999,
      "Ġdestruc": 8000,
      "Ġhabit": 8001,
      "Ġinterpretations": 8002,
      "ĠCreate": 8003,
      "Ġsquare": 8004,
      "profile": 8005,
      "Ġelsewhere": 8006,
      "Ġcounsel": 8007,
      "Ġradiation": 8008,
      "ĠLegal": 8009,
      "Ġpercentage": 8010,
      "SP": 8011,
      "Ġtree": 8012,
      "Ġpave": 8013,
      "isure": 8014,
      "arious": 8015,
      "Ġrevel": 8016,
      "Ġrehab": 8017,
      "adata": 8018,
      "ĠFuture": 8019,
      "Ġconservation": 8020,
      "Ġexplores": 8021,
      "Ġhoning": 8022,
      "Ġexploit": 8023,
      "ixture": 8024,
      "Ġproximity": 8025,
      "After": 8026,
      "Ġwalls": 8027,
      "Ġhierarch": 8028,
      "actic": 8029,
      "ĠMore": 8030,
      "Ġroute": 8031,
      "Ġ25": 8032,
      "Ġrefres": 8033,
      "Ġrising": 8034,
      "Ġdiabetes": 8035,
      "Ġpassed": 8036,
      "Ġadopted": 8037,
      "ĠTrust": 8038,
      "Ġphotos": 8039,
      "Ġinstruction": 8040,
      "Ġphilosophy": 8041,
      "Ġlingu": 8042,
      "Cre": 8043,
      "rated": 8044,
      "atter": 8045,
      "Ġmigration": 8046,
      "Ġadj": 8047,
      "ĠEvery": 8048,
      "Ġweap": 8049,
      "ĠLin": 8050,
      "Ġfinish": 8051,
      "Ġestablishment": 8052,
      "ĠAlways": 8053,
      "Ġmenu": 8054,
      "Ġbiases": 8055,
      "Ġelectricity": 8056,
      "Ġindependence": 8057,
      "oxid": 8058,
      "Ġimagery": 8059,
      "Ġtemplates": 8060,
      "Ġfranchise": 8061,
      "irtual": 8062,
      "Ġscrutiny": 8063,
      "ĠInstitute": 8064,
      "Ph": 8065,
      "Ġtender": 8066,
      "erts": 8067,
      "Ġsam": 8068,
      "rec": 8069,
      "reach": 8070,
      "Ġpowder": 8071,
      "edIn": 8072,
      "idable": 8073,
      "Ġorders": 8074,
      "tively": 8075,
      "Ġlean": 8076,
      "Ġperman": 8077,
      "overty": 8078,
      "Ġdecentralized": 8079,
      "Ġ17": 8080,
      "Ġevoke": 8081,
      "Ġsauce": 8082,
      "reek": 8083,
      "Ġearnings": 8084,
      "Ġprofessionally": 8085,
      "Ġapplicants": 8086,
      "Ġcommitments": 8087,
      "Ġmechanics": 8088,
      "Ġchannel": 8089,
      "Ġmanipulation": 8090,
      "ĠCollaboration": 8091,
      "Ġportion": 8092,
      "HC": 8093,
      "draw": 8094,
      "effective": 8095,
      "Ġrough": 8096,
      "Ġfiber": 8097,
      "Ġfalse": 8098,
      "rous": 8099,
      "Ġreally": 8100,
      "ĠTV": 8101,
      "amb": 8102,
      "ĠGrow": 8103,
      "ĠGener": 8104,
      "Ġhelped": 8105,
      "Ġresponding": 8106,
      "Ġformidable": 8107,
      "Ġanalyses": 8108,
      "Ġbreaches": 8109,
      "Why": 8110,
      "Ġanalytical": 8111,
      "Ġpreference": 8112,
      "Ġfriendly": 8113,
      "ĠDeveloping": 8114,
      "Ġuniversity": 8115,
      "Imagine": 8116,
      "Ġendeavor": 8117,
      "ĠBalancing": 8118,
      "Ġcameras": 8119,
      "ĠEssentially": 8120,
      "Ġpump": 8121,
      "Ġstoring": 8122,
      "Ġalt": 8123,
      "asters": 8124,
      "ĠUnion": 8125,
      "Ġpayday": 8126,
      "Ġtravels": 8127,
      "Ġinstalled": 8128,
      "ĠIsl": 8129,
      "class": 8130,
      "Ġspeeds": 8131,
      "Ġfalling": 8132,
      "ĠOrganizations": 8133,
      "Ġreminders": 8134,
      "Ġbustling": 8135,
      "IA": 8136,
      "Ġsaving": 8137,
      "anks": 8138,
      "Ġech": 8139,
      "Ġcomments": 8140,
      "abil": 8141,
      "ĠAug": 8142,
      "Ġadult": 8143,
      "Ġcompare": 8144,
      "Ġassume": 8145,
      "Ġassociations": 8146,
      "Ġprint": 8147,
      "Ġclassroom": 8148,
      "ĠShare": 8149,
      "Ġstructured": 8150,
      "ĠOptim": 8151,
      "Ġproteins": 8152,
      "Ġvoting": 8153,
      "Ġdescriptions": 8154,
      "Ġtelevision": 8155,
      "Ġdeadlines": 8156,
      "==": 8157,
      "`,": 8158,
      "aments": 8159,
      "lin": 8160,
      "specific": 8161,
      "Ġfinger": 8162,
      "Ġconvic": 8163,
      "Ġrandom": 8164,
      "Ġyellow": 8165,
      "ione": 8166,
      "opolitical": 8167,
      "ipher": 8168,
      "ĠLong": 8169,
      "ĠUK": 8170,
      "Ġdiscern": 8171,
      "rict": 8172,
      "Ġsaid": 8173,
      "Ġculmin": 8174,
      "Ġ40": 8175,
      "Ġmisunder": 8176,
      "Ġopinion": 8177,
      "ĠChoosing": 8178,
      "Ġsurgery": 8179,
      "discovery": 8180,
      "Ġhygiene": 8181,
      "ien": 8182,
      "kens": 8183,
      "orter": 8184,
      "Ġfatigue": 8185,
      "Ġtough": 8186,
      "idth": 8187,
      "Ġstop": 8188,
      "irus": 8189,
      "ĠCath": 8190,
      "Ġseven": 8191,
      "ache": 8192,
      "ĠRead": 8193,
      "ĠUser": 8194,
      "Ġquiet": 8195,
      "Ġcommunal": 8196,
      "reatment": 8197,
      "ĠVol": 8198,
      "Ġsmoo": 8199,
      "Ġguides": 8200,
      "Ġethn": 8201,
      "Ġresolve": 8202,
      "Ġarguments": 8203,
      "ĠStrategy": 8204,
      "Ġrepeat": 8205,
      "ĠTwitter": 8206,
      "Ġinstrumental": 8207,
      "Ġannounced": 8208,
      "ĠChoose": 8209,
      "ĠGeneral": 8210,
      "Cs": 8211,
      "Ġsat": 8212,
      "Ġtheft": 8213,
      "Ġproof": 8214,
      "Ġrural": 8215,
      "Ġvintage": 8216,
      "Ġworlds": 8217,
      "Ġcreatures": 8218,
      "ĠInnov": 8219,
      "Ġmother": 8220,
      "Ġfaculty": 8221,
      "Ġgrass": 8222,
      "Ġtempor": 8223,
      "ĠComprehensive": 8224,
      "Ġburdens": 8225,
      "Ġturb": 8226,
      "ĠCanada": 8227,
      "ĠPractices": 8228,
      "ĠSolutions": 8229,
      "Ġalbum": 8230,
      "Ġricher": 8231,
      "Ġhesit": 8232,
      "building": 8233,
      "Ġcourage": 8234,
      "Ġpowers": 8235,
      "Ġfle": 8236,
      "ecutive": 8237,
      "ĠSy": 8238,
      "ĠCross": 8239,
      "ĠIran": 8240,
      "ĠHoly": 8241,
      "Ġsignature": 8242,
      "Ġlock": 8243,
      "Ġhumor": 8244,
      "ielding": 8245,
      "tee": 8246,
      "ĠCompany": 8247,
      "ĠPlan": 8248,
      "Ġfilling": 8249,
      "ĠInsurance": 8250,
      "Ġwindows": 8251,
      "Ġsecondary": 8252,
      "Ġliteracy": 8253,
      "ĠChallenges": 8254,
      ".âĢĿ": 8255,
      "ST": 8256,
      "mind": 8257,
      "tun": 8258,
      "Ġthick": 8259,
      "Ġdw": 8260,
      "olf": 8261,
      "ĠElec": 8262,
      "ĠDNA": 8263,
      "Ġconsolid": 8264,
      "Ġmanually": 8265,
      "Ġmanager": 8266,
      "Ġroster": 8267,
      "Ġoutstanding": 8268,
      "Ġinstability": 8269,
      "ĠJew": 8270,
      "Ġresponsiveness": 8271,
      "Ġresponsibly": 8272,
      "Ġcurious": 8273,
      "Ġbackdrop": 8274,
      "Ġcarri": 8275,
      "Ġconsume": 8276,
      "Ġholiday": 8277,
      "ĠArmed": 8278,
      "ĠBeh": 8279,
      "Ġcompetencies": 8280,
      "Ġcategor": 8281,
      "Ġelevating": 8282,
      "Ġwatching": 8283,
      "Ġcoping": 8284,
      "Ġaggressive": 8285,
      "piece": 8286,
      "https": 8287,
      "ĠLinkedIn": 8288,
      "Ġdiscrepancies": 8289,
      "Ġpoliticians": 8290,
      "Am": 8291,
      "voking": 8292,
      "Ġcricket": 8293,
      "icking": 8294,
      "Ġhorm": 8295,
      "Ġnone": 8296,
      "Ġyoga": 8297,
      "Ġleisure": 8298,
      "Ġimposed": 8299,
      "uded": 8300,
      "trum": 8301,
      "Ġnewfound": 8302,
      "Ġdoor": 8303,
      "Ġimmigration": 8304,
      "Ġknowledgeable": 8305,
      "Ġcourts": 8306,
      "Ġadaptable": 8307,
      "ĠCommit": 8308,
      "Ġlargely": 8309,
      "Ġconstructing": 8310,
      "ĠOffice": 8311,
      "Ġanticipation": 8312,
      "Ġescape": 8313,
      "ĠCustomer": 8314,
      "Ġtestimonials": 8315,
      "ĠApplications": 8316,
      "Second": 8317,
      "CD": 8318,
      "TP": 8319,
      "cultural": 8320,
      "eu": 8321,
      "mic": 8322,
      "ta": 8323,
      "Ġsample": 8324,
      "atable": 8325,
      "ardi": 8326,
      "ppers": 8327,
      "Ġinterplay": 8328,
      "Ġspacious": 8329,
      "ventive": 8330,
      "assment": 8331,
      "Ġagility": 8332,
      "Ġparticles": 8333,
      "Ġpeer": 8334,
      "Ġowner": 8335,
      "Ġminimizes": 8336,
      "Ġlifetime": 8337,
      "Ġconnectivity": 8338,
      "Ġappearances": 8339,
      "ĠColor": 8340,
      "Ġstepping": 8341,
      "Ġannually": 8342,
      "Ġdemocracy": 8343,
      "Ġtackling": 8344,
      "Ġarrival": 8345,
      "Ġdiamond": 8346,
      "Ġproceedings": 8347,
      "ĠDepartment": 8348,
      "Ġeligible": 8349,
      "Ġappointments": 8350,
      "Ġsentiment": 8351,
      "Ġnursing": 8352,
      "ĠJournal": 8353,
      "DA": 8354,
      "aper": 8355,
      "roid": 8356,
      "ste": 8357,
      "asis": 8358,
      "ulum": 8359,
      "ĠMost": 8360,
      "Ġ($": 8361,
      "ĠRest": 8362,
      "Ġquart": 8363,
      "Ġanything": 8364,
      "Ġmetaph": 8365,
      "Ġbenefiting": 8366,
      "Ġendorse": 8367,
      "Ġcalend": 8368,
      "Ġsacred": 8369,
      "Ġpromotion": 8370,
      "Ġintention": 8371,
      "vantages": 8372,
      "Ġdreams": 8373,
      "ĠSuccessful": 8374,
      "Throughout": 8375,
      "ĠTexas": 8376,
      "pted": 8377,
      "Ġ+": 8378,
      "Ġmig": 8379,
      "Ġgently": 8380,
      "Ġgets": 8381,
      "ĠAPI": 8382,
      "ĠMul": 8383,
      "Ġsucc": 8384,
      "ĠGame": 8385,
      "Ġpert": 8386,
      "Ġrecover": 8387,
      "rypt": 8388,
      "Ġscoring": 8389,
      "ĠJames": 8390,
      "rick": 8391,
      "Ġcustomizable": 8392,
      "Ġperformers": 8393,
      "Ġpossibility": 8394,
      "exp": 8395,
      "thetic": 8396,
      "redit": 8397,
      "Ġobserve": 8398,
      "Ġattractions": 8399,
      "Ġcrisp": 8400,
      "Ġpanel": 8401,
      "Ġmerch": 8402,
      "Ġthrilling": 8403,
      "Ġlegitimate": 8404,
      "CS": 8405,
      "WS": 8406,
      "Ġpoverty": 8407,
      "Ġglean": 8408,
      "change": 8409,
      "ĠProm": 8410,
      "ĠFire": 8411,
      "Ġarmed": 8412,
      "ĠNext": 8413,
      "Ġedit": 8414,
      "Ġearn": 8415,
      "otherapy": 8416,
      "Ġpasseng": 8417,
      "Ġcorruption": 8418,
      "ĠAlso": 8419,
      "Ġstreamlined": 8420,
      "Ġbias": 8421,
      "Ġdimension": 8422,
      "Ġscreening": 8423,
      "Ġabsence": 8424,
      "ĠPolicy": 8425,
      "ĠProtection": 8426,
      "Ġemotionally": 8427,
      "Ġbottom": 8428,
      "Ġvendors": 8429,
      "Ġdismiss": 8430,
      "Ġfruits": 8431,
      "Ġmathema": 8432,
      "Ġrefreshing": 8433,
      "Se": 8434,
      "awareness": 8435,
      "fect": 8436,
      "my": 8437,
      "uit": 8438,
      "Ġbaking": 8439,
      "Ġrub": 8440,
      "Ġgall": 8441,
      "Ġexquisite": 8442,
      "uter": 8443,
      "terior": 8444,
      "ander": 8445,
      "eseen": 8446,
      "ĠEnd": 8447,
      "Ġagent": 8448,
      "apped": 8449,
      "Ġaligning": 8450,
      "Cont": 8451,
      "Ġautomatic": 8452,
      "Ġsheer": 8453,
      "Ġexecuted": 8454,
      "Ġcertification": 8455,
      "Ġcrimes": 8456,
      "Ġgenuinely": 8457,
      "Ġcrypto": 8458,
      "Ġcouple": 8459,
      "Ġextending": 8460,
      "Ġsleek": 8461,
      "Ġvenue": 8462,
      "Ġvegetables": 8463,
      "bi": 8464,
      "hear": 8465,
      "pace": 8466,
      "Ġcasting": 8467,
      "Ġdensity": 8468,
      "Ġwoman": 8469,
      "illeg": 8470,
      "aming": 8471,
      "ĠCoun": 8472,
      "Ġuncon": 8473,
      "Ġjump": 8474,
      "Ġtransmit": 8475,
      "Ġlifesp": 8476,
      "aluable": 8477,
      "Ġbehavioral": 8478,
      "Ġcomputers": 8479,
      "Ġsolidarity": 8480,
      "Ġhosts": 8481,
      "ĠPhot": 8482,
      "ĠTraining": 8483,
      "Ġzone": 8484,
      "ĠPractice": 8485,
      "Ġdegrees": 8486,
      "ĠProfessional": 8487,
      "ĠDemoc": 8488,
      "Ġhospitality": 8489,
      "Ġsummarize": 8490,
      "oom": 8491,
      "oven": 8492,
      "Ġthin": 8493,
      "Ġfib": 8494,
      "Ġmild": 8495,
      "urb": 8496,
      "Ġgro": 8497,
      "ĠTal": 8498,
      "Ġench": 8499,
      "ĠPsych": 8500,
      "Ġprofits": 8501,
      "Ġmaintained": 8502,
      "exic": 8503,
      "Ġeconomies": 8504,
      "ĠOffering": 8505,
      "Ġunforeseen": 8506,
      "ĠGlobal": 8507,
      "Ġathletic": 8508,
      "Ġsourcing": 8509,
      "ĠDavid": 8510,
      "Ġilleg": 8511,
      "Ġsides": 8512,
      "oting": 8513,
      "ĠMental": 8514,
      "ipe": 8515,
      "Ġtranqu": 8516,
      "overeign": 8517,
      "Ġtapping": 8518,
      "ĠJud": 8519,
      "Ġflaw": 8520,
      "Ġterrain": 8521,
      "ĠQuality": 8522,
      "Ġverification": 8523,
      "Ġcertific": 8524,
      "Ġfears": 8525,
      "Ġexclusively": 8526,
      "ĠFlor": 8527,
      "Ġdangerous": 8528,
      "ĠNFL": 8529,
      "Ġsmoother": 8530,
      "bor": 8531,
      "mates": 8532,
      "inese": 8533,
      "Ġtag": 8534,
      "Ġtire": 8535,
      "atural": 8536,
      "stated": 8537,
      "Ġhob": 8538,
      "ĠTop": 8539,
      "ĠSl": 8540,
      "ĠSar": 8541,
      "ĠMag": 8542,
      "ĠEven": 8543,
      "ĠOld": 8544,
      "Ġsaw": 8545,
      "Ġentail": 8546,
      "Ġfollows": 8547,
      "ĠBeing": 8548,
      "provoking": 8549,
      "Ġdamaged": 8550,
      "Ġexecute": 8551,
      "Ġadvancement": 8552,
      "Ġskincare": 8553,
      "Ġarchitectural": 8554,
      "Ġshedding": 8555,
      "Ġhospitals": 8556,
      "Ġeliminate": 8557,
      "Ġdecrease": 8558,
      "Ġreinforces": 8559,
      "Ġconference": 8560,
      "Ġelegant": 8561,
      "Ġtrajectory": 8562,
      "65": 8563,
      "Ġcauti": 8564,
      "Ġcoding": 8565,
      "Ġmounting": 8566,
      "Ġbone": 8567,
      "Ġhone": 8568,
      "Ġgift": 8569,
      "amps": 8570,
      "oted": 8571,
      "ĠPan": 8572,
      "ostalg": 8573,
      "Ġheights": 8574,
      "ĠNeg": 8575,
      "Ġinstant": 8576,
      "Ġexpend": 8577,
      "Ġsettle": 8578,
      "Ġbrill": 8579,
      "Ġgrants": 8580,
      "Ġauto": 8581,
      "Ġbroadc": 8582,
      "Ġstig": 8583,
      "Ġterror": 8584,
      "Ġambig": 8585,
      "Ġunfold": 8586,
      "rafted": 8587,
      "Ġsmartphones": 8588,
      "Ġratings": 8589,
      "Ġretirement": 8590,
      "AI": 8591,
      "Pl": 8592,
      "oil": 8593,
      "oving": 8594,
      "Ġ|": 8595,
      "Ġpear": 8596,
      "Ġdrop": 8597,
      "olution": 8598,
      "emy": 8599,
      "ockey": 8600,
      "Ġintensity": 8601,
      "Ġshipping": 8602,
      "Ġcommands": 8603,
      "Ġfee": 8604,
      "Ġexped": 8605,
      "Ġmetadata": 8606,
      "Ġinvestor": 8607,
      "Ġmarvel": 8608,
      "Ġvivid": 8609,
      "Ġobserving": 8610,
      "Ġantioxid": 8611,
      "Ġseparation": 8612,
      "Ġcohesion": 8613,
      "Ġkindness": 8614,
      "Ġclarify": 8615,
      "Ġabstract": 8616,
      "lasting": 8617,
      "Ġsend": 8618,
      "Ġinches": 8619,
      "Ġfiction": 8620,
      "Ġalm": 8621,
      "Ġdegra": 8622,
      "ĠBro": 8623,
      "aping": 8624,
      "Ġconserv": 8625,
      "ĠLog": 8626,
      "Ġexperim": 8627,
      "Ġmode": 8628,
      "Ġformed": 8629,
      "Ġbackup": 8630,
      "Ġpassions": 8631,
      "thetical": 8632,
      "Ġtale": 8633,
      "Ġanticipated": 8634,
      "ĠRussian": 8635,
      "Ġrestaurants": 8636,
      "Ġsterling": 8637,
      "Ġstereotypes": 8638,
      "22": 8639,
      "80": 8640,
      "Over": 8641,
      "Rec": 8642,
      "Wor": 8643,
      "ny": 8644,
      "oon": 8645,
      "ref": 8646,
      "Ġtheater": 8647,
      "Ġmail": 8648,
      "Ġmale": 8649,
      "Ġtow": 8650,
      "Ġeight": 8651,
      "Ġgard": 8652,
      "atever": 8653,
      "Ġunless": 8654,
      "ĠDif": 8655,
      "Ġwearing": 8656,
      "Ġundert": 8657,
      "ĠUN": 8658,
      "ĠJan": 8659,
      "Ġprotected": 8660,
      "Ġequality": 8661,
      "Ġlogistics": 8662,
      "Ġsynchron": 8663,
      "Ġelevated": 8664,
      "ĠPrep": 8665,
      "ĠPolitical": 8666,
      "Ġfrag": 8667,
      "Ġventures": 8668,
      "Ġdistinguish": 8669,
      "ĠApproach": 8670,
      "ĠAugust": 8671,
      "ML": 8672,
      "laim": 8673,
      "information": 8674,
      "isons": 8675,
      "ĠCri": 8676,
      "ĠCRM": 8677,
      "ĠBenefits": 8678,
      "Ġcontents": 8679,
      "Ġshall": 8680,
      "Ġtracks": 8681,
      "Ġtrail": 8682,
      "Ġasser": 8683,
      "everal": 8684,
      "ĠJos": 8685,
      "Ġmultim": 8686,
      "Ġattempt": 8687,
      "Ġhistories": 8688,
      "ĠAnn": 8689,
      "Ġcurrencies": 8690,
      "Ġmembership": 8691,
      "ĠSimply": 8692,
      "ĠOverview": 8693,
      "Ġsynth": 8694,
      "ĠSched": 8695,
      "Ġsimplify": 8696,
      "Ġscreens": 8697,
      "Ġoverwhelmed": 8698,
      "Ġphotographs": 8699,
      "Ġdisposal": 8700,
      "ĠCourt": 8701,
      "ĠOpportunities": 8702,
      "HA": 8703,
      "liness": 8704,
      "za": 8705,
      "Ġtags": 8706,
      "Ġbite": 8707,
      "ĠTer": 8708,
      "Ġresur": 8709,
      "ĠBay": 8710,
      "ĠHand": 8711,
      "Ġtiming": 8712,
      "ĠWhite": 8713,
      "ĠAsia": 8714,
      "ĠCheck": 8715,
      "Ġpersonally": 8716,
      "Ġbutton": 8717,
      "Ġbuilds": 8718,
      "Ġcostly": 8719,
      "Ġpublicly": 8720,
      "Ġreturning": 8721,
      "rench": 8722,
      "Ġmodeling": 8723,
      "Ġwalking": 8724,
      "Ġbrowser": 8725,
      "Ġvalidation": 8726,
      "Ġrepeated": 8727,
      "Ġpromotions": 8728,
      "Ġtissues": 8729,
      "ĠEstablishing": 8730,
      "ĠNFT": 8731,
      "ĠExploring": 8732,
      "ĠType": 8733,
      "Ġfrustration": 8734,
      "evolving": 8735,
      "Ġaward": 8736,
      "Ġfram": 8737,
      "omal": 8738,
      "Ġretaining": 8739,
      "Ġconting": 8740,
      "rian": 8741,
      "ĠBank": 8742,
      "Ġimpair": 8743,
      "Ġunus": 8744,
      "ĠGre": 8745,
      "needed": 8746,
      "Ġspecifications": 8747,
      "Ġequips": 8748,
      "anged": 8749,
      "ĠProduc": 8750,
      "Ġretreat": 8751,
      "ĠAtl": 8752,
      "Ġemergencies": 8753,
      "Ġhappens": 8754,
      "Ġbatter": 8755,
      "Ġbanking": 8756,
      "Ġmeasurement": 8757,
      "Ġcaptured": 8758,
      "Ġcarrying": 8759,
      "ĠEarly": 8760,
      "blesh": 8761,
      "Ġabandon": 8762,
      "Ġpertinent": 8763,
      "dy": 8764,
      "rise": 8765,
      "ĠSam": 8766,
      "ĠScript": 8767,
      "ĠThough": 8768,
      "Ġchef": 8769,
      "Ġsuited": 8770,
      "Ġallure": 8771,
      "avior": 8772,
      "ĠGood": 8773,
      "Ġbacked": 8774,
      "Ġsale": 8775,
      "ĠAmericans": 8776,
      "Ġdiscoveries": 8777,
      "Ġsmoothly": 8778,
      "Ġmagic": 8779,
      "Ġsquad": 8780,
      "Ġmilestone": 8781,
      "ĠKnown": 8782,
      ",âĢĿ": 8783,
      "200": 8784,
      "OT": 8785,
      "zer": 8786,
      "Ġ#": 8787,
      "Ġtables": 8788,
      "itual": 8789,
      "Ġrh": 8790,
      "Ġentity": 8791,
      "ĠCam": 8792,
      "Ġpark": 8793,
      "ĠGreen": 8794,
      "Ġreproduc": 8795,
      "Ġperformed": 8796,
      "Ġremained": 8797,
      "Ġbutter": 8798,
      "ocket": 8799,
      "Ġtrustworth": 8800,
      "Ġgran": 8801,
      "Ġ2012": 8802,
      "Ġcomplicated": 8803,
      "Ġpaint": 8804,
      "Ġcontainer": 8805,
      "Ġgeopolitical": 8806,
      "Ġinfluencers": 8807,
      "Ġtransitioning": 8808,
      "Ġmentorship": 8809,
      "hyd": 8810,
      "ĠUnderstand": 8811,
      "Ġchemicals": 8812,
      "Ġsmartphone": 8813,
      "Ġpregnancy": 8814,
      "ĠPotential": 8815,
      "Ġlinguistic": 8816,
      "BM": 8817,
      "kin": 8818,
      "lor": 8819,
      "throp": 8820,
      "Ġprovisions": 8821,
      "Ġaside": 8822,
      "ĠSil": 8823,
      "ĠSales": 8824,
      "rium": 8825,
      "Ġabroad": 8826,
      "Ġcombine": 8827,
      "Ġ2010": 8828,
      "redict": 8829,
      "Ġresolving": 8830,
      "Ġrecipients": 8831,
      "Ġmassive": 8832,
      "Ġmalicious": 8833,
      "Ġcrowd": 8834,
      "Ġgrapple": 8835,
      "repres": 8836,
      "aught": 8837,
      "...": 8838,
      "Ġoxy": 8839,
      "Ġrehabilit": 8840,
      "100": 8841,
      "aith": 8842,
      "rons": 8843,
      "Ġpays": 8844,
      "Ġtokens": 8845,
      "ĠAPIs": 8846,
      "adow": 8847,
      "Ġbever": 8848,
      "ĠBest": 8849,
      "ĠDue": 8850,
      "Ġkne": 8851,
      "ĠChinese": 8852,
      "Ġsecre": 8853,
      "Ġsold": 8854,
      "Ġfacts": 8855,
      "Ġflat": 8856,
      "Ġnecessity": 8857,
      "urrently": 8858,
      "Ġconfident": 8859,
      "Ġhybrid": 8860,
      "ĠPhil": 8861,
      "Ġacquire": 8862,
      "Example": 8863,
      "Ġexpansive": 8864,
      "ĠStudents": 8865,
      "Ġrevealed": 8866,
      "Ġindulge": 8867,
      "Ġjurisdictions": 8868,
      "Ġpaving": 8869,
      "annel": 8870,
      "Ġfu": 8871,
      "Ġwants": 8872,
      "Ġlenders": 8873,
      "idential": 8874,
      "ime": 8875,
      "Ġnuclear": 8876,
      "Ġvoc": 8877,
      "amination": 8878,
      "itious": 8879,
      "Ġinterdisciplinary": 8880,
      "rosion": 8881,
      "Ġaccessing": 8882,
      "Ġinvested": 8883,
      "Ġblocks": 8884,
      "Ġimportantly": 8885,
      "Ġrecognizes": 8886,
      "Ġcomprehend": 8887,
      "Ġethics": 8888,
      "Ġbiological": 8889,
      "Ġfriend": 8890,
      "Ġcalm": 8891,
      "Ġbasketball": 8892,
      "Ġattributed": 8893,
      "Ġmeasurements": 8894,
      "ovascular": 8895,
      "ĠAnalyze": 8896,
      "Ġdiplomacy": 8897,
      "Ġbench": 8898,
      "Ġstreets": 8899,
      "dep": 8900,
      "rid": 8901,
      "alog": 8902,
      "Ġbills": 8903,
      "ifting": 8904,
      "ĠCy": 8905,
      "ĠMad": 8906,
      "Ġparking": 8907,
      "ĠLu": 8908,
      "ĠUr": 8909,
      "Ġfinances": 8910,
      "Ġdefault": 8911,
      "Ġestablishments": 8912,
      "Ġimpactful": 8913,
      "ĠTools": 8914,
      "Ġadaptive": 8915,
      "ĠImplications": 8916,
      "Ġsatisfied": 8917,
      "Ġfeeding": 8918,
      "Ġnamely": 8919,
      "ĠEngland": 8920,
      "Ġdisplayed": 8921,
      "Ġnegotiation": 8922,
      "ĠPlayers": 8923,
      "Ġreconc": 8924,
      "Ġapparent": 8925,
      "Ġhypothetical": 8926,
      "aired": 8927,
      "tune": 8928,
      "ato": 8929,
      "Ġmund": 8930,
      "acle": 8931,
      "ucid": 8932,
      "ĠSing": 8933,
      "ĠSeek": 8934,
[...]
